#version: 0.2 - Trained by `huggingface/tokenizers`
Ġ t
Ġ Ċ
h e
Ġ a
i n
Ġ s
Ġ w
Ġt he
r e
o u
Ġ h
e d
o n
in g
e r
a r
n d
Ġ b
Ġ "
Ġ f
Ġ o
Ġ H
a t
i s
Ġt o
i t
Ġ c
a s
l l
i d
o r
Ġ he
e n
Ġ d
Ġ m
Ġ l
Ġa nd
Ġt h
Ġo f
r y
Ġ p
e s
Ġh a
a n
Ġ g
Ġ in
Ġ n
l e
o w
Ġs a
ar ry
l y
ĠH arry
o m
o t
Ġ y
Ġw as
Ġb e
g h
. .
Ġsa id
Ġ e
a c
l d
Ġy ou
Ġh is
i m
' s
u s
v e
Ġs t
o o
Ġ it
Ġ I
Ġ on
e t
i c
, "
v er
i on
Ġw h
r o
i r
Ġha d
u t
Ġth at
gh t
Ġ M
Ġ T
Ġw e
ou t
en t
a d
Ġa t
Ġa s
Ġ u
Ġ S
Ġ re
Ġ D
u r
a l
. "
Ġ -
o re
Ġh im
s e
a g
? "
s t
Ġ R
r i
' t
Ġw it
k e
c h
Ġa n
oo k
ou ld
a y
Ġwit h
re d
Ġf or
a m
Ġs e
he r
u m
Ġ P
t er
p p
a ll
ĠT he
ĠR on
Ġn ot
Ġ A
i ll
ac k
r ou
ar d
Ġs h
l ed
Ġ k
er m
ĠH e
p e
! "
.. .
Ġhe r
a in
e m
Ġl ook
Ġ W
erm ion
ermion e
Ġf r
Ġu p
ĠH ermione
Ġd o
i ght
Ġthe y
es s
Ġ out
c e
u n
g e
in d
a nd
Ġ B
Ġwe re
Ġm e
Ġk n
Ġn e
Ġthe m
Ġ G
t ed
i l
Ġ r
Ġ C
Ġf e
Ġa ll
Ġb ut
t o
a k
i f
Ġ F
Ġs he
Ġha ve
Ġfr om
Ġ j
um b
h ing
Ġg o
us t
c k
om e
ver y
oo d
Ġs o
he d
e ll
as t
on e
Ġw he
b le
l o
Ġb ack
q u
umb led
or t
Ġl i
Ġin to
id e
ow n
Ġ L
Ġd id
umbled ore
Ġwh o
Ġwh at
Ġ v
Ġc ould
ar t
u d
an t
rou nd
Ġbe en
r id
Ġ is
ĠD umbledore
Ġth ou
Ġa b
Ġe x
Ġl e
ou r
in k
Ġn o
is t
r a
l f
Ġa g
Ġ ro
ic e
ou s
c t
Ġa l
on g
Ġd e
f f
u l
ac e
Y ou
Ġth is
Ġo ver
o y
er s
le y
s s
Ġw ould
k ed
Ġthe re
Ġs u
i g
h at
n a
e p
Ġthe ir
Ġp o
Ġkn ow
o ld
Ġab out
Ġd own
Ġof f
Ġan y
v en
i z
t her
Ġ N
Ġc h
e l
Ġon e
Ġli ke
Ġag ain
w ay
Ġlook ed
Ġs p
ur n
Ġ qu
Ġn ow
t ing
Ġc on
ic k
Ġyou r
Ġ us
i e
as s
Ġu n
Ġa round
o p
Ġha nd
all y
im e
Ġe y
ĠW e
u ll
a re
Ġb y
' ve
f ess
Ġw or
Ġj ust
ĠM r
ĠP ro
Ġg ot
e red
Ġth ink
Ġthe n
fess or
Ġc an
ar k
Ġto o
ag rid
a ke
ri ght
Ġs c
Ġb l
Ġa re
Ġse e
w ard
es t
Ġg et
Ġ V
Ġ if
re at
Ġp l
Ġwhe n
Ġc l
a p
ĠH agrid
Ġm ore
Ġ very
u p
Ġs l
e ar
Ġm y
ĠPro fessor
Ġc om
' re
b b
Ġw and
Ġo r
na pe
.. ."
am e
Ġhe ad
Ġm o
i ve
Ġ E
o g
ĠS nape
Ġthou gh
Ġ O
se lf
at e
' ll
Ġt w
an g
' d
as ley
ĠI t
Ġt ime
Ġs m
ĠWe asley
pp ed
Ġdo or
ou nd
Ġh ow
Ġst ill
rou gh
v ed
Ġv o
Ġ '
on d
Ġd on
Ġt r
at ion
Ġey es
a red
Ġlook ing
v ing
Ġth an
Ġt urn
Ġf ace
a ir
Ġs ome
i us
Ġth rough
ic h
Ġg l
f ore
it e
Ġ right
nd er
at h
u re
i ly
Ġo ther
a u
Ġgo ing
al f
Ġvo ice
Ġse em
in n
p t
g g
i ous
a ve
t le
Ġg r
re e
en ed
i re
Ġwh ich
Ġsa y
Ġs w
Ġf l
o l
T he
Ġthou ght
Ġbe fore
ot her
ĠThe y
' m
Ġ U
l ing
a us
Ġe very
alf oy
f ter
ĠP ot
Ġdid n
Ġm an
om et
Ġ en
a ble
Ġc lo
w n
Ġw ill
ĠM alfoy
Ġhe re
Ġro om
id d
c hed
ak ing
a b
Ġa r
ad e
Ġo p
or n
f t
Ġ K
Ġl ong
t h
o d
s ide
Ġp re
Ġon ly
i le
Ġ im
old em
W hat
Ġw at
Ġt e
k ing
ar ing
oldem ort
h o
t s
Ġs omet
Ġsa w
Ġu nder
Ġd is
Ġwhe re
Ġw ant
Ġha pp
ĠV oldemort
Ġt ell
Ġp e
Ġbe h
Ġkn e
Ġw ay
ag e
Ġa fter
r ow
at her
ri ed
iz ard
s ed
Ġ ke
v es
Ġbe c
m ent
Ġm u
Ġa pp
Ġl o
Ġseem ed
ir ius
t hing
Ġa way
Ġsomet hing
Ġl et
ĠPot ter
Ġhim self
t e
Ġf ir
Ġl it
ĠA nd
Ġbe t
ĠS he
Ġbeh ind
Ġe ven
Ġre m
aus e
Ġas ked
e ct
Ġs pe
m b
Ġturn ed
Ġto ld
Ġb r
e ver
Ġne ver
Ġto ward
ĠS irius
I t
at ed
ĠD e
l t
Ġc ome
Ġl ast
or m
Ġa c
ĠH og
Ġth ing
Ġpo in
Ġp ro
ac t
Ġm om
ĠB ut
k s
ag ic
in e
an ce
Ġmom ent
Ġmu ch
Ġt ry
o ll
ac h
oo l
Ġkne w
d d
H e
u ff
i ed
u e
re ss
Ġsh ould
op le
or d
ch ing
Ġ You
er ing
Ġlit tle
Ġon ce
Ġy ear
Ġfir st
Ġs il
W ell
art s
Ġse c
f ul
u gg
Ġhe ard
Ġm ade
Ġle ft
Ġtw o
Ġh as
ĠThe re
n t
Ġp r
on t
od y
p ed
ĠM in
Ġb ot
W e
Ġw a
as e
is h
Ġg ood
Ġfe lt
ĠF red
ĠMr s
B ut
Ġw izard
Ġd es
ow ed
Ġpe ople
w arts
l es
u ck
Ġcon t
ĠN e
Ġwe ll
N o
b er
Ġh o
ad y
Ġre ally
Ġp ull
Ġd ark
ĠHog warts
p le
Ġit s
Ġm ight
i es
ro om
ro ss
Ġat t
ud d
Ġt al
Ġf lo
Ġs n
Ġw al
it ch
l ess
or y
ion s
ou gh
ill e
he n
up in
or s
Ġne ed
Ġst r
ĠC h
o ck
ĠM c
inn y
p er
ri e
x t
Ġfr ont
ĠL upin
Ġfe el
Ġw ind
Ġa m
Q u
Ġe ver
ou se
Ġd r
Ġsu re
it y
a h
is e
o se
e or
Ġop en
O h
Ġc he
Ġm ust
eor ge
ou d
v ille
Ġc r
ĠG eorge
ar ge
Ġme an
Ġo ld
Ġc ame
un g
m e
p l
A nd
Ġfe et
ig n
c ed
c y
he re
ĠNe ville
on s
Ġbec ause
en ce
Ġp ut
re am
Ġim p
G on
Ġh ur
Gon ag
Ġo wn
Ġp ass
Ġbe l
ĠG inny
Ġ ent
Gonag all
Ġ Qu
ĠMc Gonagall
un n
Ġe nd
re w
Ġf ind
Ġc le
Ġs ur
Ġtoo k
an ted
Ġt er
e ah
our se
b e
Ġb it
Ġany thing
Ġd ay
Ġg reat
Ġsu pp
Ġb ed
Ġfe w
Ġh ard
Ġm ake
Ġtry ing
Ġst and
Ġt able
Ġhe l
ch ool
Ġt ake
is ed
at er
is hed
Ġl ight
ĠI n
ent s
ĠT h
Ġw r
ry ff
Ġg i
if f
Ġw ent
he s
Ġsec ond
Ġan other
ĠG ryff
rid ge
Ġwor d
Ġflo or
Ġhand s
er n
o st
Ġne xt
Ġc ur
Ġke ep
Ġin side
Ġn ight
Ġs chool
ĠB l
Ġs ide
ar ly
o ve
w e
o ot
Ġwh ile
ĠGryff ind
ious ly
i et
Ġb oy
Ġl arge
ull y
Ġs ound
Ġe m
c le
an k
Ġne w
Ġr a
Ġf ound
t ered
Ġwh is
b ody
Ġc all
Ġar m
e e
Ġth ree
Ġwind ow
Ġl au
mb ridge
Ġbl ack
ac her
Ġe l
a z
iz ed
Ġl oud
Y es
g et
Ġha ir
ĠU mbridge
n e
Ġp er
Ġre t
t y
Ġs et
Ġh ouse
ar s
em ent
a pp
Ġs it
ar y
Ġse en
i x
ist ry
ĠDe ath
i p
Ġc ourse
Ġg ave
Ġg round
Ġnot hing
Ġ J
i ld
ar m
Ġhel p
Ġst ood
a il
ĠMin istry
ĠS t
Ġhe ar
Ġf in
udd en
Ġwh y
a w
is s
Ġre al
Ġj o
b l
Ġha lf
H arry
i gh
at ing
ĠD o
h y
Ġs k
Ġpull ed
ĠGryffind or
Ġa ir
air s
Ġs udden
ĠU n
Ġb ook
Ġ our
Ġw all
ight ly
Ġup on
ow er
n ess
Ġsh out
ood y
Ġw anted
Ġm at
Ġl if
ac hed
a v
Ġc ast
Ġac ross
Y eah
Ġs at
bb y
Ġbe g
an s
Ġfe ll
Ġqu ick
Ġs qu
i ble
Ġbe ing
Ġe ach
Ġwa it
way s
Ġpl ace
ĠH is
Ġwas n
um p
Ġf ire
Ġst ud
Ġbot h
Ġf oll
un t
ing s
ud ge
ĠM ad
Ġmo st
n g
Ġwith out
ent ly
Ġal ong
t en
Ġqu iet
Ġc or
Ġdo es
s h
Ġd one
Ġcl ass
ĠD ark
Ġcould n
Ġhapp ened
is ter
Ġqu ite
Ġsm all
i b
Ġagain st
ar ted
Ġm ind
Ġan g
f ully
r u
Ġbet ter
o s
out h
Ġm agic
Ġdo ing
Ġc are
as ter
en ing
T hat
in s
rie nd
ow ing
ĠP er
c ted
Ġun t
l u
r ic
ern on
Ġp le
y ing
ĠM ugg
pe red
il ing
ĠV ernon
e y
Ġb reat
Ġen ough
e h
Ġst e
Ġex pe
Ġel se
ĠM oody
b es
Ġf am
Ġk ill
ĠM agic
Ġey e
l i
Ġh old
Ġm outh
re ady
ur s
in ed
am p
ĠThe n
t ain
Ġm ut
Ġl ess
Ġm in
Ġyear s
re t
Ġc au
ĠA s
p r
Ġal ready
c l
ly ther
Ġy ell
Ġre s
Ġro bes
Ġwal ked
T h
a wn
Ġrem em
u nd
Ġst aring
i a
ĠUn cle
re ak
Ġp art
in ce
Ġf riend
Ġp ast
Ġgo ld
Ġbel ie
ĠH all
Ġd iff
ĠP et
e ared
Ġb o
idd le
S o
Ġg re
ĠS lyther
Ġfor ward
Ġre ad
ĠF udge
Ġw on
Ġth ose
Ġre st
ang er
Ġt re
Ġto p
pp ing
ab ly
we en
Ġg one
Ġr ather
Ġwhis pered
Ġret urn
Ġbet ween
Ġsudden ly
ain ed
Ġs na
en se
Ġstand ing
ar n
Ġo b
Ġin st
ĠA r
g ed
Ġthe se
Ġsc ar
Ġunt il
ud ley
Ġbeg an
Ġc ar
dd ed
Ġg ive
Ġclo se
m ost
Ġman y
Ġop ened
Ġ ...
Ġf ull
Ġo w
Ġre c
Ġl ist
an ge
Ġon to
ĠG r
Ġt ried
Ġb ro
en s
Ġc old
ĠBl ack
Ġsl ightly
Ġy et
idd itch
Ġgl ass
Ġsit ting
o ke
Ġw ond
it her
Ġst o
he ad
Ġc ou
Ġquick ly
W ho
Ġthing s
ĠD udley
Ġd ro
Ġsa me
Ġtal king
Ġra ised
c hes
Ġf ore
Ġd ist
Ġb ad
Ġst art
Ġoff ice
Ġmin ut
ĠQu idditch
Ġre ached
p h
ĠS lu
ir l
ĠA n
Ġcor rid
d ay
Ġst arted
Ġcast le
am es
ul t
Ġh or
ent ion
Ġde ep
ĠSlu gh
Ġwould n
Ġcom m
ĠL ord
Ġunder st
Ġa d
o sed
ra w
ck et
Ġa ble
H ow
ak en
Ġex p
Ġde ad
ig g
get her
Ġp ain
ĠS e
Ġsl ow
ĠDo bby
ĠPer cy
ter ing
Ġal ways
Ġc o
Ġshout ed
at ers
Ġal most
Ġany one
Ġh igh
Ġn ame
l ves
v is
Ġ ide
Ġl ater
Ġcom ing
Ġto gether
f orm
Ġf ather
Ġwor k
Ġcall ed
m ed
an n
Ġus e
d er
i v
er v
u al
Ġm em
Ġy eh
ate ly
r ac
u red
Ġin d
Ġb es
ĠW hat
Ġdr ag
Ġf oot
Ġg irl
Ġs le
Ġh our
Ġst ared
e re
s w
Ġ Y
Ġb room
Ġf ur
Ġp ers
r on
Ġf our
Ġpo ss
Ġsc ream
Ġhow ever
Ġcont in
c i
y ou
Ġfeel ing
E R
Ġf ar
Ġg u
Ġc row
Ġst ra
Ġde c
Ġwat ching
Ġow l
Ġp ar
c us
Ġcrow d
Ġs ight
Ġquiet ly
ou ght
er y
it ed
Ġwho le
ra bb
Ġd et
ep s
Ġstud ents
Ġs ign
Ġm other
Ġl ot
Ġv is
ac ed
ĠI f
ĠE aters
u ed
ir d
Ġle g
Ġbes ide
ĠW hen
Ġm ar
ap s
Ġout side
Ġas k
or ry
Ġl ow
Ġlet ter
Ġstra ight
re st
ic t
un a
Ġem pt
Ġst op
Ġwe e
Ġevery thing
u ally
Ġhe art
Ġre d
um m
ure s
The y
Ġcau ght
i led
Ġa w
Ġmo ve
N ot
p ly
Ġc at
Ġan sw
Ġke pt
Ġlif e
it h
im es
en e
ic ked
Ġide a
Ġis n
Ġword s
ĠSlyther in
Ġsto pped
Ġb est
Ġan n
rou ch
Ġsay ing
Ġbelie ve
ĠS c
Ġevery one
Ġsupp osed
Ġpass ed
Ġb ur
ĠMugg le
Ġslow ly
Ġ ri
Ġs ir
Ġwhe ther
Ġget ting
Ġmut tered
Ġho pe
Ġh it
Ġ (
Ġa ct
ack ed
Ġp ot
ĠA l
Ġde f
w here
Ġh ome
The re
Ġsome one
Ġbreat h
c c
Ġf ing
Ġha ven
Ġwizard s
k en
Ġs ince
c ing
ĠL una
Ġt aken
Ġsh ort
Ġpl ay
Ġgre en
l ight
iz e
ĠMad am
r um
ed ric
Ġb reak
Ġst ay
f ort
an y
ag ed
ĠC rouch
j ect
ĠF l
Ġs ort
re acher
Ġf all
Ġmo ved
Ġclo ak
Ġlau gh
Ġst one
ri f
Ġhold ing
Ġle ave
urs ley
ĠD ursley
Ġex t
Ġle a
Ġunderst and
D on
p he
Ġno se
ow s
ce pt
Ġcom p
orn ing
Ġdis app
g ing
i er
s o
at i
ĠA unt
re l
Ġb us
Ġy es
ri ble
ĠHe ad
Ġqu est
ĠSlugh orn
Ġd i
Ġhad n
Ġsil ence
Ġt en
Ġapp eared
Ġtal k
Ġloud ly
Ġcorrid or
Ġempt y
ĠC edric
Ġal one
Ġminut es
I f
Ġm aking
Ġwe aring
Ġtoward s
Ġt aking
id ing
il ity
Ġte acher
id ed
Ġshould er
ĠH ow
ĠA ll
Ġex am
Ġpoin t
Ġpoin ted
Ġsur pr
m an
h aps
ĠC lo
te nd
a le
Ġha ll
us hed
n ow
er tain
Ġspe ll
Ġfoll owed
ĠA t
ra ve
Ġsil ver
Ġb u
Ġd ire
Ġm orning
Ġp ower
Ġwh ite
Ġre l
Ġremem ber
re ad
Ġb ag
an ks
un ia
ĠF il
Ġwat ched
Ġh at
ĠB ill
Ġpoin ting
b o
f ect
in y
Ġb right
ll ed
Ġst uff
s p
Ġf ly
ic ed
ĠR iddle
Ġme et
ĠF or
ĠO n
Ġar ri
Ġte am
W hy
Ġk ind
ous ly
ress ion
Ġmat ter
Ġc e
Ġclo sed
Ġs er
an ced
Ġse ver
Ġother s
Ġac c
act ly
ĠPet unia
ĠClo ak
k ay
r or
Ġ round
Ġin ter
Ġex c
Ġcom ple
Ġdes k
Ġm on
Ġch air
Ġthink ing
Ġf le
Ġsp ot
Ġcomm on
Ġsever al
Ġre f
Ġp at
Ġwat er
Ġhur ried
ĠB e
ĠMin ister
Ġf ast
Ġha ving
ur ing
Ġk it
ant ly
ĠTh is
se lves
n o
as hed
ac es
Ġsu ch
ement ors
i red
ĠM y
oy le
ĠFil ch
S he
s it
Ġ ed
Ġsh aking
Ġdoes n
Ġb ody
im b
Ġr u
lo ck
Ġfam ily
Ġm is
ĠK reacher
v ent
Ġm et
Ġm ist
Ġse at
Ġpers on
Ġs ent
re y
or c
Ġin s
Ġl ay
ver s
Ġus ual
Ġspe ak
Ġatt em
as ed
Ġth ick
Ġgi ven
Ġyell ed
unn ing
Ġbook s
Ġdire ct
as h
Ġd anger
ch ment
Ġne ar
ra it
Ġhe ld
Ġhe av
Ġg az
ore d
ĠC ho
Ġus ed
Ġbl ood
Ġwat ch
a ven
r ance
Ġs orry
un k
Ġcon f
idd en
Ġpar chment
c hen
n ts
Ġt rou
es c
Ġpo cket
Ġsw e
H A
Ġne ck
Ġwr ong
ib ility
p s
li ke
Ġkit chen
Ġm ay
Ġun c
Ġpr ot
b ut
i pped
Ġp ort
ĠF le
Ġsu b
Ġcontin ued
h art
ĠS n
ic ul
Ġex pl
awn ey
Ġbur st
rel awney
Ġa dded
Ġs im
ĠB ag
Ġv an
Ġtell ing
z e
Ġf ight
Ġm ur
ock hart
g ot
ĠT relawney
Ġmo ving
te rest
e ad
or k
ry ing
am ing
Ġlo st
Ġo dd
Ġsa f
ĠB ell
s ing
ear s
Ġarm s
c ase
Ġd ou
ac ing
Ġre p
a bb
Ġf ree
Ġe ither
Ġsh ut
Ġcomple te
Ġc up
Ġst re
Ġsm ile
ĠK rum
Ġexpe ct
Ġansw er
Ġf act
ĠN o
Ġd ied
Ġp are
ĠL ockhart
ove red
und red
D o
in ing
Ġin terest
Ġr an
Ġex actly
Ġn umb
on n
Ġde ar
on ks
Ġd ream
Ġin c
ri ve
ĠG reat
Ġdiff ere
Ġf ive
Ġthem selves
rac o
Ġso on
t om
ou n
Ġe ars
and ed
ĠG oyle
ĠF ire
Ġyou ng
Ġday s
rabb e
Ġb ene
ent y
b r
Ġ .
Ġt iny
in t
Ġh undred
Ġc orn
ook ing
ĠFle ur
t ail
Ġde ath
Ġsp oke
ĠO r
Ġreturn ed
Ġport rait
p ing
y e
ic ally
Ġne arly
ang ed
Ġpre s
Ġwait ing
K now
c ent
Ġst air
Ġwit ch
Ġsh ook
Ġsle ep
ĠBag man
Ġt ou
ru x
Ġdro pped
orc rux
Ġbe ll
ain ing
ĠC rabbe
Ġab ove
Ġle ast
Ġsp r
Ġsna ke
Ġsh ar
ie ld
ive ly
nt ly
a ff
w o
ĠH orcrux
le t
ĠT onks
ĠS o
ĠP r
Ġnot iced
Ġsh all
Ġkn ock
Ġno ise
Ġturn ing
ĠDursley s
Ġpare nts
inn ing
ing ing
ĠD raco
Ġag o
e ak
Ġg as
Ġst airs
Ġt imes
Ġw ide
Ġp ur
Ġst eps
st airs
Ġal so
Ġapp ro
Ġdark ness
c es
Ġt ri
um ped
Ġr un
Ġent ered
Ġl ying
Ġgo bl
ĠE very
Ġhur t
Ġbene ath
O U
a x
Ġre pe
Ġex cept
Ġcl ut
is ing
ro ll
up id
Ġgold en
m as
in ation
Ġf a
ut h
a ld
as on
et s
st r
ck on
are ly
Ġche ck
Ġfin ished
Th is
Ġre g
Ġso ft
art ment
Ġdoor s
Ġ 1
Ġs us
Ġc ase
Ġfing ers
Ġlea ving
r ist
w ig
Ġd raw
Ġn erv
Ġsh ock
Ġwho se
ĠN ow
ab in
Ġche st
Ġfriend s
Ġce iling
T ER
Ġs umm
Ġw om
ou nt
Ġe v
ro d
am ed
ap t
Ġwr it
Ġground s
Ġc arry
ĠR e
Ġne are
Ġple ase
Ġtrou ble
rist mas
an ed
st er
ĠDe an
ress ed
Ġgi ant
Ġreal ized
bo ard
M y
v o
re n
ed wig
Ġth rew
Ġst upid
Ġsp l
ĠCh ristmas
Ġcle ar
vis ibility
Ġstair case
Ġc oll
Ġc ross
Ġpr act
Ġent rance
Ġquest ion
Ġo pp
ĠT hat
Ġman aged
Ġ esc
Ġm id
ak es
Ġleg s
Ġfle w
Ġt on
Ġs ix
st ick
C ome
E r
ght er
ri ly
Ġch ance
Ġmagic al
at ri
Ġm ad
ag es
Ġb urn
Ġlook s
Ġr unning
ie f
ap er
Ġpot ion
atri x
e ed
Ġa p
rif ied
t he
Ġt ent
ĠH edwig
Ġimp ort
Ġwindow s
g er
ĠH er
is hing
Ġin t
ri ll
Ġglass es
Ġarri ved
P ro
o ff
u c
Ġs un
Ġp ict
Ġe as
us h
al m
Ġbec ame
Ġeven ing
Ġwall s
Ġexp ression
N ow
Ġc reat
us ed
ĠW ith
Ġsay s
Ġatt ack
Ġno body
Ġgl anced
Ġlong er
Ġvan ished
ĠBell atrix
B e
G ood
w ork
Ġc ertain
Ġp ie
Ġe ff
Ġwor ld
Ġcl imb
ĠO ne
Ġpre ss
Ġmat ch
u g
Ġs on
ing ly
Ġwith in
Ġfor got
Ġper haps
Ġ er
Ġc ent
Ġse ized
ill ed
Ġwom an
r up
Ġo cc
id ent
Ġe ar
ol t
Ġbr other
ĠIn visibility
Ġh op
as k
Ġre ady
Ġme ant
ie w
Ġwal king
Ġem er
E N
b us
b ably
l in
Ġf if
Ġth r
Ġn k
A ll
s er
Ġ ve
ĠW ood
og n
Ġsw ord
in ted
Ġw arn
Ġch o
Ġpull ing
Ġfin ally
Ġnumb er
Ġb ar
Ġe lf
Ġher self
ĠC r
k es
o om
Ġl uck
Ġle ad
ĠPro phe
Ġang ry
Ġf ig
Ġsh ad
Ġkn own
ation s
orm tail
Ġremem b
Ġsaf e
Ġth in
al s
Ġtr ain
Ġhapp y
ĠCh arm
Ġw ood
re ly
Ġc ut
Ġas s
am us
ĠA g
ect ion
Ġbro ken
Ġrepe ated
W here
k ab
z kab
Ġ ign
ĠH any
Ġc ir
Ġwand s
Ġang rily
Ġkill ed
Ġlist ening
Ġfly ing
zkab an
nd ing
Ġha ng
pe ct
ink ing
unn y
ĠJ ames
Ġjo b
Ġrec ogn
ĠSe amus
Ġth ro
Ġp ale
rou ght
Ġsm iling
ĠAr ts
Ġbro ke
Ġcomplete ly
Ġton ight
u b
Ġb at
Ġm iss
Ġin v
ic es
ĠS h
ĠP ar
ĠA zkaban
Ġany way
Ġbel ow
Ġcle arly
Ġinst ead
an ing
ĠS ever
al ed
ĠW ormtail
Ġfl at
Ġwee k
D id
ou l
Ġo kay
Ġe gg
ĠD ementors
ch o
ink y
Ġno dded
ick ing
are ntly
Ġhead s
Ġtr ue
inn er
Ġsupp ose
Ġless on
ĠAl bus
is on
Ġcon s
Ġsecond s
cl aw
Ġmem ory
Ġvis it
aven claw
I N
L ook
g hed
m aster
n ot
ar row
is k
Ġm ention
Ġre ason
Ġback ward
ĠE ater
ĠSn itch
c ause
t ly
Ġ z
Ġb arely
Ġsh ow
Ġtre es
Ġmon th
l ooking
re ll
Ġth row
Ġe cho
Ġknow s
Ġdrag on
Pro fessor
Ġ ?"
Ġb all
Ġst ret
ĠR avenclaw
ain s
ĠW izard
ĠE x
ĠMagic al
ĠProphe t
A n
r im
Ġ ill
Ġ ought
id er
Ġl ed
Ġtr unk
Ġim ag
Ġdis c
i ke
Ġre ckon
Ġfor ced
ĠC HA
Ġdou b
Ġt ears
Ġa head
Ġg le
Ġst ory
Ġsh ot
Ġsc r
Ġstr ange
ĠN ot
Ġste pped
in ess
Ġh idden
it ted
Ġp air
ld ron
Ġsk y
ĠMugg les
Ġdiffere nt
Ġw ing
Ġm ir
Ġm iddle
Ġp un
an e
ĠW ell
Ġqu ill
Ġbl ue
Ġhapp en
Ġgi ving
Ġsna pped
Ġhour s
Ġcorn er
P TER
Ġb ig
is ted
or ted
or row
im m
Ġan x
Ġimport ant
ĠCHA PTER
an cing
Ġr at
Ġfe ar
te en
Ġbo x
Ġhor rible
ar off
at es
Ġc abin
Ġl ake
Ġwh om
ook sh
ark aroff
ap ed
ĠE r
ee ves
ĠAg ain
it a
Ġth ird
om f
Ġtr uth
ĠDe f
Ġfore st
ĠOr der
i al
Ġs ing
Ġh um
at ur
it ion
Ġc op
Ġl ate
Ġin form
Ġe ag
Ġyour self
Ġsumm er
Ġ ir
Ġb rought
Ġf re
Ġp ushed
ĠP at
Ġch amp
Ġtr ans
uff le
Ġdes er
less ly
Ġstr ugg
ooksh anks
S t
Ġst om
ĠP omf
Ġpoin ts
Ġpro bably
Ġexc ited
Ġdanger ous
ĠPomf rey
A h
Ġd uring
ver ing
Ġro ared
ul ar
Ġsil ent
ix ed
E x
a pe
i pp
Ġf ro
Ġf right
Ġto r
Ġg ri
ĠM ar
Ġsh rie
Ġro se
Ġpre tend
Ġdes per
Ġhard ly
Ġsound ed
Ġposs ible
Ġed ge
h ot
Ġa dd
Ġf aces
Ġc alm
bb ing
Ġlau ghed
Ġad m
r it
Ġs ister
nd ed
Ġc ried
ic ult
Ġbot tle
Ġob ject
Ġwond er
Ġstre et
Ġcarry ing
ĠCr ookshanks
b y
Ġh ast
Ġm aster
ĠA pp
Ġle arn
Ġsu gg
Ġexpe cted
g y
s me
t a
Ġf ine
Ġc ol
ĠT H
ter s
Ġwor se
th ur
Ġob v
w h
Ġc overed
Ġg lo
Ġy eah
ro l
Ġ- "
ĠR ita
Ġclo ser
Ġlau ghter
Ġdiff icult
Ġcou ple
med i
sme ade
L et
p uff
Ġp icked
ĠP eeves
pe ll
un ch
ge our
ĠK arkaroff
Ġnew s
Ġple ased
uffle puff
A re
O f
a id
u ge
Ġt em
Ġt ree
Ġd rew
am ent
Ġj umped
ck ed
Ġbl ank
Ġare n
ĠHog smeade
Ġpart icul
ĠSc rim
Ġw ild
Ġh ung
Ġf unny
ĠH ufflepuff
Ġg rou
et h
Ġwant s
Ġheav y
ĠScrim geour
H ermione
ac hing
ĠS ome
ĠA fter
ĠW hy
Ġgobl in
Ġstom ach
f ast
Ġb ow
it al
Ġn or
us hing
Ġpo sit
Ġsim ply
Ġthro at
a pped
b olt
re me
or ing
or ies
ĠD igg
Ġme rely
Ġim medi
ho st
Ġind eed
Ġgirl s
Ġsub ject
uc ius
Ġt ight
Ġt ra
et er
Ġnot e
if e
ĠF r
Ġsl id
Ġwond ered
ĠSe c
Ġgas ped
D umbledore
I s
O N
Ġa vo
Ġf ield
Ġd inner
Ġm ark
om ing
ĠT r
am ber
Ġfr own
our n
Ġpl an
Ġmy self
Ġor d
Ġgr ow
Ġper fect
av or
Ġap art
Ġb as
Ġg host
ĠS ke
ort h
Ġapp ear
bl ood
Ġstart ing
Ġscream ed
a ut
Ġd ad
Ġn arrow
Ġas ide
ri ph
am b
ge on
Ġwal k
Ġgu ard
riph ook
R on
a ily
w ick
Ġb ath
Ġf er
Ġm ess
ay be
ĠW inky
Ġal ive
ep t
Ġsome body
ave nder
Ġte a
Ġbec ome
Ġlo ve
Ġrem ained
Ġjo ined
Ġcare fully
Ġfam il
Ġact ually
Ġlaugh ing
Ġattem p
J ust
i ar
on es
Ġsh r
ble t
ĠL ucius
Ġch ild
Ġho le
Ġneed ed
ung us
ĠJ ust
Ġbroom stick
Ġrememb ered
b s
Ġb ent
it wick
Ġd are
Ġn ice
Ġab s
Ġle apt
Ġte eth
Ġpr om
Ġtre mb
ĠGr anger
Ġcat ch
Ġbreak fast
Ġpict ure
ĠDef ense
R ight
e ep
Ġt all
Ġh uge
Ġd em
Ġdo g
Ġwere n
Ġwor ry
aus ed
ment s
Ġstr ong
Ġad v
Ġdirect ion
z en
Ġd orm
ot e
ot h
ay s
am med
and ing
Ġsm iled
Ġsome where
Ġkne es
Ġapp arently
Ġdr ink
und ungus
ĠFl itwick
rod e
ĠAgain st
R E
g es
j oy
y ond
Ġbe yond
Ġfor m
Ġse ar
Ġall owed
ĠL avender
Ġv iew
Ġter rible
Ġext reme
Ġsurpr ise
Ġt ip
Ġc re
ĠT o
ĠD aily
ur se
Ġsh op
ĠG riphook
Ġtw enty
ĠPot ions
Ġteacher s
Ġsurpr ised
Ġshar ply
Ġdorm it
l er
Ġt ightly
Ġa f
Ġw ish
Ġp aper
Ġfor get
ĠC up
Ġwor king
Ġen orm
Ġpro per
Ġbot tom
Ġboy s
abb ers
Ġclut ching
Ġopp os
Ġclimb ed
c ol
v ati
Ġs ense
ar l
Ġto day
as hing
Ġp ink
ut e
ĠW ho
Ġso l
Ġpo st
Ġsl ipped
Ġhas n
Ġless ons
ĠDigg ory
ĠSke eter
k in
Ġh ol
Ġn one
Ġst aff
Ġu na
ag ue
Ġfir m
Ġatt ention
Ġcr ack
Ġclass room
Ġfore head
Ġdec ided
Ġeag er
f ace
Ġh ot
Ġd est
Ġit self
Ġli ving
ra id
el ing
ear ly
ite ly
Ġsn ow
Ġclose ly
Ġext ra
sp ital
S h
Ġt ail
Ġb ang
Ġd ust
im p
ic al
ĠM undungus
Ġpo l
Ġsee ing
Ġho spital
Ġsur round
Ġpie ce
Ġforgot ten
z ing
in x
Ġh iding
Ġto w
as ure
Ġd un
Ġp an
ĠD is
ĠD ad
Ġcon vers
Ġspe aking
be ak
Ġf illed
Ġwe ak
st eps
Ġup stairs
and er
Ġwor ried
Ġhapp ily
Ġsec ret
uck beak
Ġfoll owing
Ġlist en
Ġcou nt
Ġattem pt
ĠPar vati
Ġaf raid
Ġenorm ous
Ġoppos ite
e en
e lf
Ġf ain
Ġf avor
Ġc ry
ad ed
ge lin
ud e
Ġde al
Ġcon v
Ġen joy
ĠSc abbers
Ġgaz ing
Ġpres ent
- "
t on
Ġp ack
ĠT om
Ġre pl
Ġfor ce
Ġdis cus
row s
Ġmean s
Ġmir ror
Ġsing le
b ack
Ġb ound
ĠH ouse
it s
Ġd ie
Ġm ass
ag g
el ve
Ġtr ust
Ġsw ung
Ġar g
Ġimp ati
ĠSlyther ins
Ġcou n
Ġfur iously
Ġextreme ly
on y
Ġ" ...
ĠB uckbeak
Ġsm ell
Ġdis g
Ġbr ing
Ġkeep ing
Ġwond ering
Ġposs ess
Ġwee ks
Ġpur ple
ĠSever us
Ġimmedi ately
gelin a
C an
Ġf ood
Ġl ine
ble m
Ġsp ir
Ġpl aced
Ġvo ices
Ġgr inning
Ġdisapp eared
E ye
i ved
n ight
Ġhe sit
ort ing
Ġli br
Ġwhat ever
Ġch ange
ĠWeasley s
ĠBl ud
h a
m ore
he red
in ting
Ġst rode
ir rell
Ġnot ice
Ġr id
Ġro ll
Ġpass age
Ġeye b
Ġfoot steps
Ġpower ful
Ġpract ice
Ġcir c
Ġhast ily
V ery
t ig
Ġto m
Ġm ag
Ġp ri
Ġn ast
Ġst ep
ir ty
Ġgr ay
Ġjo in
Ġwait ed
ĠAn gelina
Ġmar ble
Ġhome work
Ġtou ch
a f
h ow
k er
Ġs ick
ar led
Ġf ixed
ll ent
le ep
ad s
ter n
Ġli ve
og ra
unn o
Ġdoub t
tig rew
l s
r tle
Ġb le
Ġl anded
Ġe le
Ġse nd
ce llent
ĠL ily
Ġro lled
iz ing
Ġsc ared
Ġcom er
Ġrem ind
Ġatt acked
ĠQu irrell
Ġbed room
Ġcau ldron
ĠFire bolt
Ġbell owed
Ġfig ure
Ġhol id
H agrid
I n
r ing
t led
u ry
it ched
ll iv
Ġp ath
Ġp age
Ġg rabb
ĠC urse
one y
inn ed
Ġter rified
ĠAr thur
Ġknock ed
ourn ament
Ġlibr ary
c ome
c lock
u ing
in ct
Ġh on
en n
Ġin f
Ġu r
Ġus ually
Ġcan not
ĠO lliv
ab les
Ġafter no
Ġpro phe
ĠY OU
ĠApp ar
Ġgrou p
L E
b ot
Ġd ress
Ġg ard
Ġn orm
ak ed
Ġj e
Ġgl ad
Ġgr im
Ġen c
Ġpro blem
ĠPet tigrew
Ġminut e
Ġsoft ly
Ġnerv ously
p ic
id es
Ġp hot
Ġbe ard
ĠB ur
Ġde light
ĠN or
Ġtw elve
Ġpre fect
Ġfoll ow
Ġread ing
ann ing
Ġowl s
Ġplay ing
Ġneare r
ĠEr n
Ġparticul arly
Ġt ask
re ed
en ix
om p
Ġe art
ĠT ower
Ġro ck
ho enix
Ġlo cket
Ġmeet ing
arl ie
ĠOlliv ander
f er
i or
i an
i ant
Ġt roll
Ġo h
at ie
en g
es ted
Ġin cl
Ġre ve
ore st
Ġse vent
Ġsh owed
ĠN ick
Ġsp ent
Ġsn e
Ġam ong
ib ly
ĠMy rtle
Ġbath room
Ġafterno on
Ġg ro
ir th
ĠG o
Ġde p
Ġwa ving
Ġhalf way
Ġexc it
Ġfirm ly
t ic
ar c
ar ily
Ġm ap
Ġp ow
ot ts
ĠM iss
ĠW h
ĠW here
Ġwor ked
Ġhead master
Ġgl it
ĠK atie
oll y
ugg ed
Ġside ways
Ġcorrid ors
Ġdef in
Ġshad ow
Ġdormit ory
Ġprophe cy
Ġg en
Ġe at
ĠT wo
Ġas leep
ĠF orest
th ough
oll ow
Ġcur se
Ġfall en
Ġdi ary
Ġspell s
Ġrecogn ized
Ġcop y
Ġinform ation
ĠPat ron
Ġdeser ted
Ġconvers ation
Ġ ess
Ġf ist
Ġc age
le ase
ĠS ee
ĠD ep
Ġj ump
ĠL e
Ġch anged
ie ve
Ġbr ain
Ġshould ers
Ġfing er
Ġheav ily
Ġexpl ain
ĠPr ime
Ġappro ached
G et
f ig
l ace
n ce
Ġs y
re ts
or g
Ġd ri
ot ion
Ġse ven
Ġsh o
ĠF ang
Ġle aned
Ġtr ick
Ġgr ass
ĠMad ame
Ġfall ing
cent r
Ġsus pic
Ġcertain ly
s et
Ġt rave
Ġbe aming
Ġe mb
ĠM ax
ĠCh arlie
Ġche er
Ġsur face
Ġcur tain
Ġbright ly
Ġmis sed
Ġcross ed
Ġthrow ing
Ġgard en
ĠMax ime
b ed
t hat
Ġa ff
Ġc and
Ġg rave
Ġy er
Ġst at
oo ped
ce ed
ist en
op h
Ġpre t
Ġsqu eak
Ġscar let
Ġhop ing
Ġstret ched
Ġfrown ing
Ġtremb ling
Ġeart h
ĠPatron us
c ious
w izard
Ġ ..."
Ġf ool
id ly
Ġbe w
ĠI m
Ġv ill
Ġus ing
Ġun less
Ġcom pl
ĠE ven
Ġmay be
Ġfight ing
Ġhang ing
Ġnast y
Ġs ank
Ġb irth
Ġof ten
Ġon es
Ġre ce
al ing
um in
Ġr ow
ck s
Ġsp ark
bb ed
Ġsm oot
Ġim m
Ġapp l
Ġhur rying
Ġsk in
Ġang er
Ġfur ther
Ġmur m
Ġmonth s
Ġeager ly
o pe
Ġ X
Ġ Z
in ary
Ġf acing
at tered
Ġp u
Ġin vis
ill y
ct ion
Ġthink s
Ġcl oud
ne y
Ġspl it
Ġcent a
Ġperfect ly
Ġtom orrow
B l
O R
Ġt ables
Ġs oul
Ġw orth
Ġc ro
as ant
Ġd read
Ġseem s
Ġput ting
Ġreal ize
Ġdist ant
Ġbus iness
rey back
Ġnerv ous
Ġeff ort
Ġpress ed
Ġeyeb rows
bot tom
ĠErn ie
ĠDep artment
d u
u nder
Ġw in
Ġg ame
Ġin j
Ġin k
Ġsa ve
ot t
ic ing
ill ing
ĠG reyback
Ġr ain
Ġli ked
Ġpo or
Ġhand ed
Ġmo on
ĠO h
Ġshould n
Ġwa ved
Ġsn arled
ings ley
ann ed
Ġsle e
Ġev id
Ġneare st
Ġz oom
ĠTr ans
Ġimpati ently
ogra ph
M aybe
O T
o ss
Ġh ig
Ġf un
an ces
Ġin ches
ĠM um
ĠS pell
ĠD id
Ġsh owing
il ius
ĠC orn
ud ing
Ġsu ff
Ġcon centr
Ġmut tering
Ġexp lo
Ġbus y
Ġfif ty
Ġuna ble
Ġinvis ible
A R
z ed
Ġd ra
Ġl unch
ot s
Ġe arly
ve l
Ġwit ches
ĠL ong
ĠL ee
ant ing
Ġspe ed
ĠSlugh om
Ġquest ions
Ġemer ged
Ġecho ed
Ġpret ty
O kay
e cted
is f
all e
Ġne ither
Ġj er
Ġgo blet
Ġli ps
ant s
Ġany more
Ġun e
Ġthought s
Ġwhis per
Ġspot ted
Ġthr own
Ġfright ened
Ġobv iously
Ġgrow led
ĠX en
R e
Ġm us
ĠHarry s
Ġas king
ĠD el
ĠP e
ĠW and
if ied
omet hing
ĠK ingsley
Ġpre p
Ġapp re
Ġpass ing
Ġscream ing
Ġdet erm
ĠOn ce
Ġcup board
Ġdraw ing
ĠWizard ing
Ġhesit ated
oph ilius
Ġh ide
Ġl ing
Ġhis sed
Ġst uck
Ġu nd
ĠS pr
ĠR em
ong ue
Ġpl at
Ġsl ight
Ġspe ct
Ġmoment s
ild a
ĠAn y
Ġshrie ked
ĠTH E
Ġposit ion
Ġgrabb ed
Y our
c ern
i as
o on
o ken
v al
Ġw ard
Ġm en
Ġp ay
ve lo
ĠB y
ig hed
Ġsp read
Ġtw ice
Ġfl ames
Ġcont rol
Ġgu ess
Ġfa ult
Ġs ens
Ġw arm
Ġf il
ro g
ro y
ĠM ark
ĠA ur
pe cted
Ġen ch
Ġpre v
unn ed
ement or
app ing
Ġbad ly
Ġprot ect
Ġocc as
Ġhum an
Ġir rit
ĠXen ophilius
A s
P ot
Ġw ake
Ġd ementors
Ġp itch
Ġg ra
ĠP h
ĠW or
ĠG alle
ĠN early
el s
Ġcl ot
ĠPot ion
uck ed
Ġent ire
ĠTh ree
ĠSt one
Ġletter s
Ġinterest ed
Ġshar p
Ġwrit ing
Ġeas y
Be cause
Ġcol or
ĠBlud ger
ĠLong bottom
ĠSpr out
G o
d ing
u ice
Ġt one
ar g
Ġc our
Ġhe aring
Ġth reat
Ġre ach
ĠW as
Ġup ward
qu ire
ĠL ove
Ġde l
ul us
Ġcom fort
th y
ĠCh amber
Ġhel ped
Ġyell ow
Ġcar ried
Ġunderst ood
Ġref le
Ġmid air
Ġchamp ions
Ġdefin itely
Ġbirth day
i o
i um
m y
ld er
Ġr ising
Ġno is
Ġdown stairs
Ġun ple
Ġwor st
Ġte ach
Ġsn at
ĠQu aff
Ġsound ing
Ġshout ing
Ġpart y
Ġhigh ly
Ġcomp artment
Ġdisapp o
ĠHow ever
Ġser iously
Ġseat s
Ġwood en
Ġfamil iar
Ġdun geon
f in
Ġb in
Ġb re
Ġb lock
Ġf it
Ġm er
Ġl amp
Ġn ine
Ġn ames
Ġe h
ut ter
ĠS m
Ġsh ining
ge red
ĠG od
Ġex per
Ġgr owing
Ġcar ri
Ġcold ly
rac ted
Ġann oy
Ġpat ch
rive t
Ġlead ing
Ġgle aming
Ġobject s
Ġglo om
ĠTrans fig
a unt
c ess
d en
Ġb ird
at ter
Ġl ur
Ġp ure
Ġp ile
Ġp ause
Ġp acked
Ġbe at
Ġst ag
ĠT ri
ĠD rive
ĠP rivet
Ġthan ks
Ġrem ain
Ġbit ter
Ġsat isf
Ġstud ent
ĠHorcrux es
ĠRe g
An y
Ġfre sh
Ġexcit ement
Ġglit tering
Ġvill age
M r
W hen
a it
ing otts
Ġb rill
rou d
Ġj inx
ation al
Ġsw ept
Ġlif ted
ci al
Ġinter rup
Ġexcited ly
ĠTri wizard
A N
i k
n er
s es
Ġf at
Ġha lt
Ġwh ist
Ġso ared
ant ic
Ġthan k
au ght
Ġsw all
ĠK eep
ine as
dd ing
Ġloud er
ĠGr ingotts
Ġfur ious
Ġmis er
Ġcreat ures
Ġluck y
Ġphot ograph
ĠQuaff le
V E
m m
Ġa ge
re g
Ġc ool
Ġd am
ard s
ep ing
Ġsome how
aus ing
Ġche e
Ġbel ong
Ġsound s
ru ct
Ġbreat hing
Ġaw are
fort h
Ġesc ape
Ġwarn ing
Ġproper ly
Ġsol id
L isten
a ving
u es
w ise
Ġs ighed
on ed
it ting
Ġd unno
Ġsa ved
Ġre v
ĠA ber
Ġhead ed
Ġ' "
Ġimp ression
Ġfire pl
Ġcare ful
Th ank
Ġdeep ly
Ġdet ention
Ġshort ly
Ġrel ief
Ġmur d
Ġburn ing
Ġeff ect
Ġlearn ed
Ġavo id
Ġholid ays
Pot ter
) ,
O O
b idden
s ion
z y
Ġf old
en cy
Ġl anding
om fort
ur red
ur ation
ore s
ag on
Ġr ang
Ġli ved
ous es
Ġal arm
el ius
The n
rie f
Ġam az
Ġsqu e
Ġhor ror
Ġco ver
iv ination
Ġlow ered
ĠHead less
col ate
Ġspect ac
S ee
S orry
g ood
w ell
Ġb ab
Ġf o
Ġp ound
ĠT w
ri ff
ke y
il t
Ġknow ing
Ġany body
Ġsp ed
Ġsl ammed
Ġevery body
He re
Ġsure ly
Ġsur v
ĠSt an
Ġlif t
Ġfam ous
Do bby
Ġcalm ly
Ġfavor ite
Ġdelight ed
Ġhig her
. '
S T
b ers
i pping
i vering
Ġs ize
Ġw ra
Ġf ier
Ġst ri
oo f
ir st
ĠR oom
Ġk id
if ic
ĠF at
Ġgo al
Ġab rup
Ġcon cern
ie ved
Ġun f
Ġsm oke
act ion
ugg ing
Th anks
Ġpers u
Ġdef e
Ġgri p
Ġdest roy
' ,
b ly
g ly
p ose
Ġt est
Ġw ings
Ġm oney
ĠM or
Ġr ing
ink ed
Ġlike ly
Ġsc ene
ol ved
Ġhapp ening
Ġsil very
Ġhur ry
Ġfin al
iss a
Ġexpe lled
Ġres p
Ġser ious
Ġinc red
Ġwrit ten
Ġcreat ure
Ġanx iously
Ġpan ic
arc issa
Ġsmoot h
Ġdeterm ined
Ġoccas ion
ĠPh ineas
Ġclot hes
ĠTransfig uration
O n
e led
Ġt erm
in es
Ġh ood
ar r
Ġm ine
Ġp ill
Ġin no
Ġe ight
ve y
Ġst ick
ag ing
ĠP ens
pp er
un ted
il s
Ġany where
Ġsp ider
Ġcon ce
Ġtw ins
Ġrem o
Ġjo ke
ĠY our
Ġru bb
ĠNo body
Ġdesper ately
ha ired
Ġpri v
oss ible
ĠCorn elius
ĠAber forth
ĠPens ieve
g r
s c
t or
Ġs erv
as ted
Ġm ood
Ġl awn
Ġp roud
Ġg ul
Ġwe ight
ur m
Ġ- ?"
og riff
Ġcle an
Ġcle ared
Ġforward s
raw p
Ġdrag ged
Ġdirect ly
Ġprot ection
Ġdou ble
oun ced
ĠEvery one
Ġesc aped
ĠCharm s
ipp ogriff
wh ile
ĠDis app
A r
Ġm um
Ġp anted
Ġg igg
Ġst ream
ĠM ost
Ġu gly
ĠD ivination
ĠThe ir
Ġdo zen
Ġwere wo
Ġfe ast
ĠL ady
ist ing
Ġag reed
Ġpo ison
ath ilda
Ġfl ung
Ġsomet imes
Ġpe ering
Ġimp ossible
Ġper form
Ġcor re
ĠPer haps
Ġbelie ved
Ġdist ance
Ġmem bers
cus e
Ġmove ment
Ġmist ake
Ġnear by
Ġmiss ing
Ġscr at
Ġsugg ested
Ġnorm al
Ġfier ce
Ġwerewo lf
y ear
Ġb en
Ġp erm
oo se
ir t
ut tered
ĠD ementor
un ity
ĠG rawp
umb ling
Ġv a
ud o
our ney
Ġch arm
Ġun cle
bb ly
Ġhead ing
ang ing
Ġtr u
ĠGryffind ors
Ġattemp ted
Ġchild ren
Ġgen er
org in
f ather
n ze
Ġf ury
Ġst ation
em ber
ud blood
ĠN arcissa
Ġgl ance
Ġlo ads
Ġbr and
Ġsqu are
ĠGr ind
ertain ly
IN G
Ġcurtain s
ĠDisapp ar
H ave
c to
c ul
m ist
o f
at ure
Ġp ou
Ġwe l
ĠS orting
ter be
ĠB orgin
ĠC ol
Ġfe e
Ġex ch
Ġsu it
Ġbl ind
est ly
Ġpl ain
ĠO g
Ġevery where
Ġlo cked
Ġopen ing
Ġhard er
Ġind ign
ĠAll ey
Ġunc omfort
Ġexpl ained
Ġtou ched
Ġgobl ins
Ġanx ious
ĠLove good
Ġbre aking
a ud
g ar
m er
t ling
Ġt reat
Ġ" '
ĠH alf
Ġc as
Ġd im
Ġm ain
Ġp aused
Ġsa d
et y
ur ity
ri er
il es
Ġr age
Ġj ourney
Ġch airs
el w
Ġtr ack
Ġgl ancing
au ld
Ġbr an
Ġacc ident
Ġconf used
Ġhundred s
Ġprev ious
ĠWor ld
ĠGalle ons
a ved
f aced
o le
z z
Ġa im
Ġw ished
Ġc hat
Ġd u
Ġm ount
Ġp en
ĠS omething
ĠB og
ĠC ome
Ġsp ace
ear ing
ang led
ond on
Ġgr and
uff y
Ġra ising
Ġsqu ee
Ġdro p
Ġdrag ons
Ġdi ved
ĠPr ince
Ġhop ed
Ġstrugg ling
Ġbas in
ĠGod ric
L agg
N ever
S ome
h us
o v
Ġw ave
re s
Ġf air
ll y
ot ed
Ġst ir
ĠM arge
ag ged
ay ed
ĠC reat
ĠF in
ĠL ondon
Ġv ague
Ġal though
ĠO f
Ġdoor way
Ġte le
Ġbr own
Ġwr ite
Ġset tled
Ġfin ish
Ġinst ruct
Ġmar ched
Ġgaz e
ĠFire nze
Ġtri ump
str ang
Ġshock ed
Ġshad ows
Ġimag ine
Ġscr amb
Ġdem anded
Ġfain t
Ġconv in
Ġcoun ter
Ġplat form
ĠOg den
Lagg en
) .
L L
d ed
i ry
p es
Ġ Yes
Ġt ap
Ġs our
Ġto ad
id ers
Ġm akes
us ing
us ion
Ġst ro
ĠM er
Ġan t
ĠP lace
Ġli e
ĠL et
ul es
Ġthere fore
ime y
ap ing
Ġtw isted
Ġsm ir
Ġlo ck
Ġcont act
Ġwhis p
ĠHall ows
Ġbro ad
Ġfour th
Ġvis ible
Ġri pped
Ġlea ves
Ġinterest ing
Ġburn ed
Ġcho ice
Ġecho ing
ĠBur row
Ġmurm ured
Ġswall owed
Ġfirepl ace
ĠCreat ures
a un
b ye
c o
c ise
p ar
Ġb other
Ġl im
Ġl ower
ad ing
ch air
Ġsh udd
ĠB athilda
if ul
ĠL udo
Ġpo p
Ġget s
bb led
Ġgr inned
Ġfl ash
Ġen onn
Ġke en
Ġnew sp
Ġuse ful
Ġbu ild
Ġgaz ed
Ġcheck ing
Ġign ored
urm strang
b at
b ow
Ġt ired
ll us
Ġp anting
om ed
Ġst rid
Ġnot es
ĠC on
Ġno dding
Ġun w
est r
Ġor der
ol ute
Ġke y
ĠMc Laggen
Ġexpect ing
Ġfa iled
Ġappear ance
Ġcount ry
Ġmag n
Ġunple asant
Ġbab y
S irius
a j
o h
t les
Ġs way
Ġw et
ar ters
Ġb ul
it ies
Ġc rying
Ġc aused
Ġp in
Ġp ump
ac he
us ted
ĠM ur
ĠD i
ĠD on
ĠD urmstrang
ook ed
Ġk icked
ĠW ill
ĠB r
Ġj ud
Ġex cellent
Ġle aning
Ġde v
el ves
Ġyour s
Ġpl ate
gg ed
Ġen velo
Ġpre fer
Ġte aching
Ġpe ered
Ġdes p
Ġlight s
Ġclass es
Not hing
fort un
ren ched
atur day
Ġsugg est
Ġattemp ting
Ġstat ue
Ġbrill iant
ĠCol in
Ġtriump h
i ol
Ġs lo
ed ing
Ġf an
ĠH at
ĠH ad
Ġd ressed
Ġl ad
Ġg est
Ġbe aut
oo p
ĠM udblood
ĠS l
ĠS aturday
Ġre app
ould n
ĠP o
ĠF aw
lo gy
Ġle vel
Ġun us
Ġhand le
Ġbl ond
Ġsl ip
ĠO W
Ġwizard ing
Ġsn eak
Ġdist inct
Ġaw ake
Ġexam ining
Ġacc omp
Ġswe at
Ġeas ily
Ġpun ish
Ġpretend ing
ĠFr om
Ġtow er
Ġcry st
Ġrece ived
elw ald
Ġenonn ous
i ge
w ord
Ġ 5
Ġ rough
Ġw ife
Ġb rave
ĠH ippogriff
Ġc rou
Ġd irty
Ġth under
Ġp ushing
ĠI s
ĠM o
ĠS qu
ur ies
um ed
ack et
Ġk iss
ak er
Ġv iol
Ġex ist
Ġch ar
Ġcon st
op s
ĠE lder
Ġsm ashed
Ġwant ing
Ġmu ff
Ġsec urity
Ġdes ce
Ġent hus
Ġstand s
Ġwr ote
Ġhands ome
Ġfell ow
Ġcontin ue
Ġbu y
EN T
Ġfig ures
Ġtor t
Ġtem per
Ġess ay
quire ment
Ġabrup tly
terbe er
E D
F or
M ust
O ne
r is
w hat
Ġt ournament
Ġ" -
ĠH ist
Ġto ile
or ough
Ġd ying
Ġst ad
am m
Ġsh if
Ġfe ather
Ġli ves
ul ts
Ġover head
Ġpl aces
ĠO F
ang ling
Ġgl aring
Ġcur led
Ġcall ing
ip ing
Ġhelp ing
Ġdiff icul
ci ent
Ġdec ide
ĠRe quirement
Ġdesper ate
Ġinno cent
Ġstad ium
Ġdifficul ty
R Y
d o
e ch
m in
s and
s ure
Ġt ied
Ġa unt
Ġb ought
Ġd rif
Ġth orough
Ġp hoenix
Ġg rew
Ġin ch
Ġst are
ĠM olly
ĠP ans
ĠB ul
Ġkn ife
Ġso cks
Ġthou sand
Ġde li
el ess
Ġflo ating
Ġcr ash
Ġfind ing
Ġind ic
Ġcomp any
ĠBe fore
Ġswe et
Ġill umin
Ġwild ly
ĠFr ank
ĠSec rets
Ġord ers
Ġele ven
Ġur g
Ġsqueak ed
ĠIm per
Ġremo ved
Ġinstruct ions
ĠHist ory
ĠPans y
P l
u ce
Ġt aught
Ġd ull
Ġd ancing
Ġl ap
Ġy awn
ac our
Ġst iff
Ġas ton
st ri
ĠP ig
ĠA N
un e
ĠG aunt
ell o
Ġv al
art y
Ġsc ree
ap ter
Ġgl ow
Ġgl imp
ĠK ing
Ġcont r
Ġcle aring
Ġbo ard
ĠGr imm
Ġposs ibly
Ġsim ple
Ġmur der
Ġdream s
Ġchamp ion
Ġroll ing
ĠSee ker
ĠDel acour
Ġexper i
Ġcarri age
Ġwhist le
Ġrubb ish
Ġstrid ing
Ġcryst al
ĠGrimm auld
L e
S nape
W h
k ward
m p
Ġw i
ing er
ar se
Ġf aced
as y
Ġp ick
Ġg ig
Ġg ently
Ġe arn
Ġst ars
Ġst unned
ic y
ic orn
Ġwe ird
Ġse par
Ġup set
un ks
Ġr ust
ĠF el
Ġj us
Ġv ar
Ġro ar
ĠN ige
Ġcon j
Ġpl anning
Ġgr in
Ġen g
side red
Ġpre vent
Ġlo se
udd y
Ġbad ge
Ġansw ered
Ġstay ing
Ġodd ly
Ġdiffere nce
Ġsleep ing
Ġclut ched
Ġcir cle
Ġbat tle
Ġmention ed
Ġdisc overed
Ġfro zen
Ġwonder ful
ĠNor ris
ik tor
ĠMor fin
ĠFaw kes
Ġgig antic
ĠNige llus
A T
E very
H ello
I R
b el
b orn
c her
i bb
l ass
o ver
s on
u le
Ġb ald
Ġf ully
it tle
Ġd ue
Ġe ating
ĠM ung
ĠM aster
Ġre se
ri an
Ġan im
ĠB oth
to p
Ġj et
Ġsp iders
Ġcon sidered
Ġsc ri
au x
Ġfl ick
Ġbec oming
Ġlo sing
Ġent er
aw s
Ġsk ull
Ġbreat hed
Ġbroom s
Ġaw kward
ĠHead master
Ġspr inted
Ġmid night
Ġstrugg led
Ġsurround ed
Ġzoom ed
ĠPe ople
Ġfil thy
Ġpriv ate
ĠGrind elwald
G H
P er
i el
Ġt unn
Ġw ound
Ġb lo
Ġb owed
Ġf ought
Ġc oo
Ġc amp
Ġhe ll
le br
Ġse nding
ĠA d
ĠG ru
Ġr isk
Ġag es
Ġch uck
Ġwhen ever
uff led
Ġho arse
Ġter ror
Ġsupp ort
Ġstud y
Ġgre et
Ġmem ories
Ġstraight ened
Ġstre ng
Ġcons ider
Ġobv ious
Ġmess age
Ġsurround ing
Ġremind ed
Ġpow ers
ceed ed
Ġcro aked
Ġdisappo inted
Ġva ult
Ġwel come
Ġconvin ced
ĠDi agon
ĠOW L
ĠGru bbly
E EN
H i
l ine
Ġt ongue
Ġb ust
ĠH ollow
at tering
Ġc ow
Ġd ry
Ġg n
Ġst ate
um e
ĠB room
Ġr um
ĠF igg
Ġback ed
Ġsu cc
Ġun like
Ġun icorn
Ġgr ate
Ġcont ents
Ġdr own
ail s
reak ed
ens ive
Ġdeep er
ci o
Ġstuff ed
Ġce lebr
Ġrep ort
ax ley
Ġcre pt
Ġincl uding
Ġappl ause
Ġentire ly
Ġinterrup ted
ĠKeep er
Ġfold ed
Ġscramb led
bat ons
ĠMur iel
ĠMung o
a im
c cl
d ge
g round
k y
Ġ ing
er t
Ġb od
ĠH oo
Ġc ard
Ġd az
Ġm otion
Ġl aid
Ġn er
ur b
Ġfor t
Ġse lf
Ġne at
Ġgo es
qu arters
Ġis s
Ġcon n
Ġcl en
Ġmo d
Ġgl ared
Ġclo ck
Ġpro du
ord an
ber t
Ġstr uck
Ġcle ver
iss ion
Ġhor se
Ġref used
ĠBe aux
Ġportrait s
Ġsun light
Ġer up
Ġwarn ed
Ġimag ined
Ġspir al
eng th
Ġspark s
Ġslee ve
Ġdra wn
Ġbitter ly
Ġnewsp aper
O r
n ing
he ard
Ġa mb
Ġs inging
Ġb rief
Ġto t
Ġc ausing
om m
ic ia
ir ling
ĠT O
ĠT ournament
Ġr is
Ġli p
ĠN ever
ap tain
Ġgr as
Ġsw ell
Ġdis m
Ġcr acked
Ġimp ressed
Ġdro pping
Ġcrowd ed
ĠAl icia
Ġinc re
ster ies
Ġbrother s
Ġfif th
ĠNot hing
Ġadm it
Ġmark s
Ġshr ugged
Ġevid ence
Ġprep ared
ĠAur or
Ġstag gered
ĠReg ulus
Ġvague ly
Ġwhisp ering
Ġenvelo pe
Ġtoile t
Ġthorough ly
ccl um
ĠHoo ch
ĠBeaux batons
i xt
k n
Ġ id
Ġ ."
it ude
Ġc apt
Ġd ashed
Ġp red
Ġbe ak
ĠM ac
ĠR os
Ġse a
Ġsh oot
Ġr ap
ĠC an
ĠC are
ĠF e
ast ically
qu e
Ġab and
Ġro ad
Ġch in
Ġsc ow
Ġcl apped
ĠO cclum
au ghter
Ġfl ood
Ġclo sing
Ġbr inging
Ġbot tles
Ġdark ly
ons cious
ĠDo ge
Ġple asure
ĠPet er
Ġbo at
ĠY axley
Ġrel ieved
Ġinter v
Ġcent er
ĠSever al
Ġegg s
ĠEx p
atur ally
Ġdiscus s
Ġbew ild
ĠRem us
arr ass
ĠBog g
Ġmuff led
A S
P lease
h and
m os
t ime
w id
Ġ 7
Ġ !"
Ġw ed
Ġw is
Ġw id
Ġw ore
Ġb ank
Ġf al
Ġf ang
Ġp icking
Ġwe ar
out s
ent ed
ad em
ĠS p
Ġre qu
ur g
Ġsh own
Ġr ules
ĠL estr
Ġex h
Ġal oud
Ġoff ered
Ġhand ing
ĠV iktor
Ġpl enty
Ġpl ates
ĠO w
Ġspe cial
Ġneed s
Ġam ount
Ġold er
ĠIn st
ars h
ey ed
Ġkind ly
Ġbar rier
Ġfamil ies
Ġmass ive
Ġemb arrass
Ġspectac les
Ġcorre ct
aj am
Ġaccomp an
Pl ank
rian a
Ġtunn el
g ress
i ver
p ost
Ġa ut
in i
Ġw iping
re r
Ġh ate
ar ger
at o
at or
Ġc ous
as antly
Ġd awn
Ġm umbled
Ġsa v
oo ping
ut tering
ĠT W
Ġwe ather
Ġas h
ag og
ĠR o
Ġan k
Ġfor g
am ped
led ge
Ġgo d
Ġv ast
Ġnow here
Ġsc ra
Ġbl ow
Ġcom es
ive red
Ġbr isk
Ġpr ison
ĠNe xt
ĠCh as
Ġcur ious
Ġkeep s
Ġra ise
az e
ĠJ ordan
ĠSt ill
Ġdist racted
Ġdec is
Ġexam s
ĠOn ly
Ġru bbing
Ġknock ing
Ġcheck ed
Ġopp ort
Ġign oring
Ġtrans form
Ġgrim ly
Ġsevent h
Ġcenta urs
ĠAny way
Ġpound ing
Ġwra pped
ov itch
olute ly
ĠPig wid
G ot
M aster
b ook
c ut
d y
e an
p ted
r act
Ġ ident
Ġt ill
Ġs ong
Ġw renched
on ing
ĠH igh
at ively
Ġhe x
Ġl arger
Ġp ages
ot ting
Ġbe ar
us e
Ġst u
Ġst ar
Ġwe ap
ri bly
ĠP hoenix
ĠA riana
Ġsh ape
ĠG reg
Ġv ict
Ġro ots
Ġbl ame
ĠE nt
Ġtr unks
au ldron
Ġar r
Ġrem aining
Ġsil ently
ung ed
Ġimp ro
Ġend ed
ĠTh ough
Ġcur iously
os en
Ġste al
ret ched
Ġpain ful
Ġco at
Ġbur ied
Ġdisapp ear
Ġten n
Ġser p
ĠMy steries
Ġcoll ap
the less
Ġbow l
Ġsear ch
Ġdust y
Ġrepl ied
Ġtrave ling
Ġfool ish
Ġpu bl
Ġcenta ur
Re ally
Ġpersu ade
Ġfierce ly
mer ta
ĠBogg art
A l
C ourse
S ir
U T
Y eh
l ve
l ish
Ġ utter
Ġb and
Ġf ake
Ġc aut
as c
as ing
Ġp ool
Ġp ajam
ic ious
ro be
ir teen
Ġre le
ri es
ĠB arty
Ġne igh
ĠC auldron
Ġshe lves
ig an
Ġsw ear
Ġfl ight
ĠU nder
idd ing
ĠK n
Ġway s
Ġspe ech
Ġac cept
Ġwr ist
Ġset ting
Ġfore ver
Ġstay ed
bo logy
Ġmatter s
Ġreg ret
Ġgiant s
Ġpict ures
Ġsafe ly
Ġbackward s
ĠMar aud
Ġdread ful
ott age
Ġappre ci
Ġnois es
Ġbran ches
Ġbeaut iful
ĠImper ius
ĠBroom stick
ĠOcclum ency
Ġgod father
ĠPigwid geon
, '
K reacher
O W
b ble
f onn
Ġ ourse
Ġa ch
er th
Ġb an
or ovitch
Ġm ot
Ġp ub
Ġg arg
om as
Ġbe amed
ut ure
ĠS ir
ch ief
Ġsh ake
Ġsh rill
Ġr ush
Ġli es
ul ously
Ġknow ledge
Ġch osen
ick en
ark ins
Ġpl ans
Ġgr own
Ġar tic
ord ing
Ġdes ire
Ġsn iff
Ġmean ing
Ġsupp or
ild er
li er
Ġres pect
Ġinst antly
Ġcar p
Ġstart led
Ġmem ber
Ġplay ed
Ġins ides
Ġyoung er
Ġev il
Ġint rod
Ġocc urred
Ġthr ust
Ġve lve
Ġrecogn ize
Ġgle e
Ġblank ly
ĠSome one
Ġenjoy ing
Ġble eding
Ġsnat ched
Ġid i
Ġwed ding
ĠEnt rance
Ġourse lves
' ?"
K eep
V oldemort
b om
b and
Ġ icy
Ġt apped
Ġs ink
Ġs ides
Ġw oke
re en
Ġh ated
Ġb uck
Ġc ell
Ġl ump
Ġp et
Ġin tend
Ġn on
Ġbe aring
Ġwh ipped
ĠM ap
ke nd
Ġse ve
ĠHe re
ĠB inn
il ty
il isk
if t
qu is
Ġcom ment
Ġmo aned
ĠDe c
Ġcr ump
Ġpass word
Ġbed s
ĠTh omas
ne ath
Ġsk rew
sh ot
Ġyell ing
ĠAr agog
raw led
Ġsign s
Ġann s
Ġbreath lessly
Ġpres ence
Ġspr ang
Ġcoll ect
ĠHer bology
Ġtrans p
ĠJust in
Ġsear ching
Ġextra ord
Ġrepl aced
Ġcirc ular
Ġsevent een
Ġcheer ful
Ġcand le
Ġinj ured
Ġirrit ably
On ly
Ġindign antly
ĠFin ally
Ġstreng th
Ġbewild ered
Ġneigh b
ilder oy
N amed
b ag
c ri
o c
u ch
y ears
Ġh ouses
Ġb orrow
Ġf aded
it or
Ġl ined
Ġp urs
ĠT ed
al es
Ġwit ness
Ġfor cing
ĠP ort
ĠP arkins
Ġfr ag
Ġj uice
ust r
ant ically
Ġab ou
Ġag ree
Ġsu per
Ġch amber
Ġch anging
el p
Ġsp un
Ġsp oken
Ġgot ten
Ġbl ast
ap ers
Ġor ange
ĠE n
Ġgr unted
Ġbr ains
hen s
Ġgreat est
Ġsit u
av ior
Ġlist ened
Ġvis ion
Ġwee kend
Ġhope fully
Ġhat s
Ġpocket s
Ġswe eping
HA T
Ġunc onscious
int ment
Ġpie ces
Ġcho colate
Ġbar ked
Ġquill s
Ġcabin et
Ġdisg ust
Ġimm ense
Ġjer ked
Ġench ant
Ġthreat ening
Ġdam age
ĠBul gar
Ġbod ies
Ġclen ched
ĠBinn s
O ut
o lo
t r
Ġt ense
at ically
Ġhe ight
Ġhe aved
Ġl ines
Ġth ud
et r
ĠT ra
al er
red i
Ġfr ame
Ġdo d
ĠG ilderoy
Ġall ow
Ġso aring
ĠL ittle
Ġex cuse
our ing
Ġsp at
Ġtr aining
ol en
ho se
Ġlo ss
Ġac cus
Ġfeel ings
ump ing
sh ip
erv a
Ġcloak s
Ġmon ster
abb ed
Ġcho ked
Ġball s
Ġprom ise
Ġpack age
Ġarg um
Ġevid ently
Ġexplo ded
Ġchee k
Ġconcern ed
Ġexch anged
fortun ately
Ġsucc ess
Ġing redi
ĠExp ress
' .
C K
D e
I T
M e
M ad
f oot
s pect
u ght
Ġ ice
Ġt ick
Ġt ear
Ġs inking
Ġw ar
Ġh ill
Ġb igg
Ġf oul
is c
Ġto re
it ing
it ching
Ġc ave
Ġth irteen
Ġg ate
Ġg inger
Ġbe ating
Ġst orm
Ġst olen
Ġre ck
Ġan cient
Ġwith d
Ġout st
ĠG ood
Ġr ise
Ġso bbing
Ġso bbed
qu id
Ġch ose
Ġcl ue
ol ores
Ġbeh avior
He y
Ġpr ick
Ġwa ist
ors es
Ġmust ache
Ġcur ses
Ġarm chair
Ġhor rified
Ġgu ilty
Ġdi adem
ĠFor bidden
abin i
Ex cellent
Ġsne ered
Ġward robe
Ġsens ation
Ġench anted
ĠSm ith
Ġannoy ed
Ġfo cus
Ġpump kin
ĠMo aning
Ġcoo lly
ĠRos merta
Ġinterv iew
ĠOw l
Ġcous in
ĠMaraud er
ĠPort key
ĠParkins on
C H
E T
L ike
N e
b out
d own
e x
f a
i ving
j uice
m n
Ġs illy
Ġw ishing
Ġf ail
at hered
Ġc ush
id ence
Ġd amp
Ġd aughter
Ġm ate
Ġl ab
Ġp uff
Ġg ates
ly juice
Ġe qu
im ent
Ġst ories
ro p
all ed
Ġnot icing
ĠW ar
Ġne cess
ĠC ree
Ġall ey
Ġli quid
ous and
Ġde af
ĠV ery
ure ly
Ġfl ow
Ġdis bel
Ġcont em
Ġtal ked
Ġimp ress
ĠIn tern
Ġsto pping
Ġdrag ging
Ġdec or
Ġcat ching
Ġri gh
Ġemer ging
Ġstrange ly
atur al
Ġpossess ion
Ġpassage way
ĠZ abini
Ġmiser ably
Ġmurd ered
Ġconce aled
Ġuncomfort able
Ġsour ce
Ġbuild ing
ĠCon f
Ġenthus i
Ġerup ted
Ġrap idly
Ġopport unity
Ġpajam as
ĠIntern ational
F ine
I D
W ait
e nd
i ves
n es
u ished
Ġw o
Ġw ine
ou b
Ġb ite
Ġb ree
at he
is sed
Ġto ast
Ġd en
Ġd ance
Ġd angling
Ġl ately
Ġst ern
ir led
ĠM ag
ĠD olores
ri g
ter day
ĠThe str
ĠC aptain
ĠF inn
Ġso fa
ĠL ook
Ġover heard
ĠN imb
el a
Ġsp inning
Ġhand ker
Ġsc rew
Ġcl ip
Ġmy ster
Ġman age
Ġpre cise
Ġunder neath
Ġcr u
ĠQu ibb
Ġbit s
Ġlight ning
iet y
Ġret reat
ĠHall ow
Ġrec ord
Ġaw ful
Ġact ing
Ġexam ined
Ġexam ination
Ġsaf ety
eak y
Ġear lier
Ġrat tling
Ġhung ry
Ġweak ly
ĠAppar ate
Ġreve al
Ġfist s
Bl imey
Any way
Ġmiser able
Ġsque aled
Ġwi ped
Ġconn ection
Ġaccompan ied
Ġbrisk ly
Ġweap on
ĠGreg orovitch
Ġpubl ic
ĠBroomstick s
erth a
Ġartic le
Ġcarp et
Ġextraord inary
ĠCree vey
ĠNimb us
Ġhandker chief
A t
E S
G inny
T ake
a a
i pe
l it
m en
x pected
Ġ ..
Ġ ille
Ġs ke
re sh
Ġh orses
Ġf aster
at ive
Ġc ack
Ġc ared
Ġc ough
or ce
Ġd ut
Ġp aid
Ġg ent
Ġg ap
Ġy ard
Ġst icking
et tle
ĠS na
Ġre ply
Ġup side
Ġout r
ĠB oy
Ġkn ot
Ġno stri
Ġcon d
Ġbl az
Ġbl inked
est ry
Ġcl icked
Ġcl amb
ond ay
Ġlo ved
Ġpro spect
ĠNe ither
ĠCh apter
ign ed
ph one
Ġhor ribly
Ġscream s
Ġhit ting
Ġcomp et
ash ion
Ġsub st
Ġappro aching
Ġtri p
Ġfa ith
Ġsus pected
Ġsix teen
Ġeas ier
ĠPar se
imm ering
Ġdress ing
Ġshadow y
ĠSpell s
Ġrev ol
ĠTw enty
Ġben ch
Ġtru ly
Ġsad ly
zz led
Ġsquee zed
Ġunus ual
Ġfang s
Ġdecis ion
ean while
ĠTra vers
Ġingredi ents
ĠFinn igan
Ġille g
T o
u ced
Ġ ,
Ġh orn
Ġb oot
Ġf art
Ġf ond
Ġo ak
ĠH E
it ation
as per
id s
Ġhe ro
Ġd ate
Ġd ucked
Ġl aw
Ġl ength
Ġp ier
Ġbe et
ver n
ĠM onday
ad ily
ĠS T
ĠS il
Ġre ass
al ity
ay ing
ĠP ad
Ġsh ield
Ġfr antically
un ting
ĠB ones
Ġr ows
ĠC ross
Ġj acket
ud ed
Ġun s
Ġsl iding
bb ling
Ġtr ay
Ġsw inging
Ġsw ooped
Ġfl es
aus ted
Ġop in
Ġapp o
ĠPotter s
Ġbet r
mb ol
Ġdr ank
ĠTh ousand
iet ta
ne w
ne cted
Ġper ched
Ġcast ing
Ġfriend ly
Ġgre y
Ġinst ant
ĠY et
Ġri bs
Ġbag s
Ġround ed
Ġsoon er
Ġpur pose
uth or
Ġsix th
Ġpress ing
Ġve ela
ĠSh ack
Did n
Ġfro ze
Ġpretend ed
Ġposit ively
Ġtra p
col ored
Ġamong st
Ġgro aned
Ġpow der
Ġjump ing
Ġsy mbol
Ġsuspic ious
Ġcand les
Ġrefle cted
Ġfee ble
Ġtele phone
ĠPo lyjuice
Ġillumin ated
Ġsuppor ters
Ġvelve t
Ġidi ot
Ġoutst retched
ĠQuibb ler
G ive
T ell
Ġb ra
Ġb ull
Ġb ones
as hes
Ġhe dge
Ġm oun
Ġth a
Ġp it
Ġp udd
Ġg ang
Ġg ather
Ġbe nding
ac ts
ĠI N
ic is
ĠM al
ĠM ore
Ġre b
ur bed
ĠB ertha
Ġr ude
Ġwhe e
Ġli ed
Ġli kes
ĠL eaky
Ġqu ivering
Ġsc hed
ĠO ff
Ġtw ig
Ġfl ashed
Ġhapp ens
Ġlet ting
Ġpr oof
ish ly
Ġdes cri
Ġend s
be cause
Ġbed side
Ġsmall er
Ġste am
Ġkill ing
li ver
Ġres ent
Ġreturn ing
Ġri pp
Ġyes terday
Ġarri val
Ġmet al
Ġexpl an
Ġrememb ering
Ġign ore
imm ing
Ġbox es
ĠMar ietta
ĠHufflepuff s
Ġghost s
Ġstrong er
Ġnorm ally
Ġprefect s
Ġune xpected
mist ress
Ġbul ging
ĠBr own
ĠSl ow
amm ing
Ġconj ured
ĠLestr ange
Ġash amed
Ġcollap sed
quis itor
Ġgent le
I S
M alfoy
P E
a bby
b all
h s
i ent
v in
y l
Ġt art
Ġs igh
Ġh us
Ġh udd
Ġf uture
ĠH or
ĠH ave
at ic
at ch
en ced
Ġp ush
Ġha mm
Ġg athered
Ġbe ckon
ac le
et ch
Ġre ver
Ġse izing
ĠP l
rou s
Ġsh ivering
pe f
ge ons
ĠB eh
Ġbut terbeer
umb le
ast ic
Ġex asper
Ġle ather
Ġoff er
Ġch ain
are nt
est s
Ġcl ub
Ġsl umped
Ġsm o
Ġtr ace
Ġfl ame
Ġen em
mb led
Ġac ce
Ġpro ve
ĠIn quisitor
Ġel bow
Ġste ady
Ġres ist
Ġpain ting
vis ion
Ġvis ited
ĠFl int
Ġrel ax
Ġneck lace
Ġsus pe
Ġpract icing
Ġap olo
Ġfif teen
Ġcut ting
Ġass ist
Ġinv olved
Ġtra pped
Ġord inary
Ġbas ilisk
Sh ut
Ġsuspic iously
Ġcloud s
Ġguess ed
ĠAur ors
Ġdestroy ed
Ġpill ow
Ġserv ant
Ġmount ain
Ġpen etr
Ġtap estry
oh n
Ġcrou ched
kn own
Ġshoot ing
Ġmot or
Ġsitu ation
Ġargum ent
Ġnostri ls
ĠSlow ly
ĠBeh ind
' ,"
R em
U M
f l
f all
l ers
s ized
t in
Ġh oo
Ġh ollow
ar ter
Ġb ored
ĠH A
Ġc ottage
Ġhe al
Ġhe els
Ġd rive
Ġp up
Ġp airs
Ġp ouring
Ġin ten
Ġsa ck
Ġst ool
ĠM aybe
ĠP lease
ĠW he
ted ly
Ġr umm
Ġr acing
Ġj ar
ud ged
ink ling
Ġde pt
Ġsu c
Ġsp are
Ġor ph
Ġother wise
ĠMalfoy s
Ġwhere ver
Ġspe nd
ĠMin erva
Ġmist y
got ol
onn al
oun cing
Ġpres ents
Ġhurt led
Ġocc up
Ġadd ressed
Ġparticul ar
Ġfain tly
ĠAppar ition
Ġenc lo
Ġenc our
ĠWh ile
Ġling ers
Ar thur
Ġmagn ific
Ġdistinct ly
ĠAN D
Wh ich
Ġfal se
Ġexh austed
ĠInst ead
Ġserp ent
Ġrele ased
Ġgarg oyle
Ġcrump led
oub tedly
Ġopin ion
O M
W as
a ly
c ar
f or
i ally
t ion
u it
Ġa h
in al
ar ias
Ġb om
Ġo bl
Ġc ap
Ġhe aven
Ġd ully
Ġm ed
Ġm ud
Ġm ild
Ġm iles
Ġl az
es ting
ot es
ro lled
ĠM eanwhile
ad d
Ġu pper
ĠD ear
um ing
ĠC omm
Ġwhe eled
ĠL ike
art ing
Ġro pes
ie ce
Ġwor ks
Ġsc ur
Ġsl im
Ġtw isting
ĠIt s
Ġsw irling
Ġfl ower
ol ves
Ġar ch
Ġhapp ier
Ġhapp iness
Ġpe ace
ach arias
ĠCh ann
Ġhur ting
be y
aw ed
Ġsqu inting
Ġcontin uing
Ġpar ce
Ġsign ed
Ġ( "
Ġpot ions
Ġgreen h
Ġthick ly
Ġunc ertainly
Ġwide ly
Ġmad ly
Ġbroomstick s
Ġdem on
Ġsear ched
Ġdun geons
Ġdiscus sing
Ġhon or
ĠNor bert
Ġsy mp
Ġcompl ain
ĠDid n
Ġchee ks
ĠDisappar ated
Ġsmir king
ĠWill ow
Ġglimp se
Ġmotion less
Ġvict im
Ġscrew ed
Ġclip board
orce rer
Ġfles h
Ġhus band
B et
C h
M um
N ice
g s
i antly
y ard
Ġt im
Ġt ipped
he st
Ġa uthor
Ġh arsh
nd eed
Ġb orn
Ġf ix
at hing
Ġto pp
Ġc ake
as ons
Ġhe m
Ġl ack
Ġl and
Ġn onnal
ot ing
Ġwas te
ĠM ont
ĠM any
Ġat tend
Ġfor k
Ġsh are
Ġsh ame
Ġsh ade
ĠG et
Ġr ushed
lo ho
ort hy
ul ted
Ġcon cl
ap es
ĠO liver
Ġturn s
Ġgl iding
Ġar rest
od e
Ġdis like
Ġafter ward
Ġlo c
Ġpro gress
Ġret rie
ĠSt unning
bl ack
ĠDo loho
Ġalong side
ib r
Ġste adily
Ġob s
ci ally
Ġdet ails
Ġact ion
Ġdisapp ro
Ġmist aken
Ġsent ence
Ġdirect ions
Ġdream ed
str uck
Ġemer ald
Ġflat ly
ĠPat il
Ġadv ice
Ġtow ering
Ġdisg u
Ġmag az
Ġholid ay
Ġgra b
Ġsatisf ied
Ġresp ons
Ġsmooth ly
Ġhood ed
ENT Y
Ġurg ently
Ġblo ke
Ġner ve
ĠTW ENTY
Ġdept hs
ĠDoloho v
I ON
I LL
b reak
g o
g ers
h in
m ill
n it
p or
p itched
s y
u lf
Ġ [
Ġ ver
Ġh ut
Ġh arm
Ġh ushed
Ġb al
Ġb ore
Ġf illing
Ġo min
Ġd iv
Ġm aze
Ġl ane
Ġl oose
Ġth resh
Ġp apers
le gged
Ġhis sing
ut s
ent h
ĠS chool
Ġre aching
al us
ĠR u
ĠR un
Ġsh ak
Ġsh iny
pe ople
Ġup right
ind ing
Ġme asure
ĠC ould
Ġfe at
ĠF rog
Ġch arge
Ġch ains
Ġsl ipping
ĠO ver
Ġtw in
Ġvo l
Ġgr ump
Ġthought fully
Ġen sure
Ġroom s
Ġpro ceeded
Ġsil k
Ġdes ks
Ġcr ammed
Ġimp r
Ġown er
Ġcur re
ĠSt ud
head ed
Ġsort s
Ġmon st
Ġru le
Do es
Ġgas p
wh ite
Ġavo iding
Ġshr ugging
Ġdare s
Ġrid icul
ĠZ acharias
Ġprotect ive
Ġgloom ily
Ġalarm ed
Ġkid s
Ġaccident ally
Some one
Ġsway ed
Ġrough ly
Ġdrif ted
Ġrum ors
post er
Ġforg ive
Ġenthusi astically
Ġmyster ious
Ġdut y
Ġfart her
Ġsuspe nded
ĠMont ague
Ġthresh old
A L
H E
H ang
I M
I m
I GH
S e
S top
g an
k ins
m are
r ons
s en
v id
w ood
y es
Ġ !
Ġh id
it ated
it ions
Ġd arted
Ġl an
Ġth read
Ġp enn
Ġg all
Ġbe ast
out hed
Ġu mb
ĠD ung
Ġse ll
ĠA re
Ġk ettle
ĠW itch
Ġfr ustr
ĠB ar
if tly
ĠF our
Ġv en
Ġv ac
Ġex ting
Ġro aring
oy al
ep er
Ġpo king
ĠN one
Ġqu e
Ġcon nected
Ġyour selves
Ġus eless
Ġbl oody
Ġbl inking
Ġsl it
ĠE ng
ĠO ut
Ġsw iftly
Ġrem ains
Ġpro v
Ġsec rets
Ġsn orted
Ġdr ained
Ġche ss
Ġcr ooked
Ġcur tly
Ġarm or
ĠDeath ly
ru ci
Ġbreat he
Ġres c
Ġob sc
Ġinst ance
Ġsto le
Ġexp ress
Ġpain fully
Ġdec ent
Ġdet enn
Ġmar ried
Ġplay ers
Ġexam ine
Ġed ged
vers ion
Ġtrou b
Ġtent atively
Ġstret ching
ĠRavenclaw s
Ġgri pped
Ġshrie k
Ġadm ir
Ġnarrow ed
Ġabs ence
Ġtremb led
Ġsnow y
Ġble w
ĠGo blet
Ġsho es
Ġtrave led
Ġpu zzled
Bl ood
Ġappre hens
Ġblock ed
Ġlamp s
Ġbird s
Ġlur king
Ġbelong ed
Ġperm ission
Ġplain ly
Ġdu el
Ġant id
Ġ5 9
Ġvar ious
Ġhell o
ĠAd v
Ġdaz z
Ġcell ar
ĠHallow een
Ġilleg al
Ġexplan ation
Ġdemon str
Ġumb rell
H ER
O RE
c ross
c cio
f our
i os
Ġt ur
Ġw re
Ġthe ory
Ġh int
Ġf us
at us
Ġc art
en ces
Ġm ent
Ġm ixt
Ġl ugg
Ġth irty
Ġp h
Ġha iry
an na
Ġin vent
Ġsa ke
om es
Ġst umbled
Ġst amp
ĠS k
ĠS umm
ag s
st one
ĠThe se
Ġsh immering
ĠW on
ĠW ould
ĠB o
Ġme re
Ġr ad
ĠF rid
Ġshe lf
Ġgo gg
Ġso ot
ud ging
Ġro pe
ĠN OT
Ġsp y
Ġey el
Ġbl asted
est ig
Ġsl amming
ang u
ang es
Ġhow ling
gg ing
idd ed
ft y
Ġte ac
Ġdis s
Ġdis pl
Ġflo ors
Ġstr anger
Ġche ering
ĠIn fer
app y
Ġres ults
Ġtre asure
Ġinst rum
Ġrec ently
Ġide as
Ġpot ato
Ġplay er
Ġlea f
Ġpat ting
Ġperson al
ĠCho colate
Ġswe ater
ĠWith out
ĠApp arently
Ġprom ised
Ġarg ue
Ġarg uing
Ġspir its
Ġinf onn
Ġje ans
Ġbew itched
Ġzoom ing
Ġund oubtedly
Ġcour t
Ġcomfort able
Ġsatisf action
Ġincred ulously
Ġoccasion ally
Ġgul ped
Ġstream ing
ĠMer ope
Ġreapp eared
ĠSqu ib
Ġkiss ing
Ġdesce nded
Ġaston ished
Ġcontr ary
ĠFel ix
Every one
Ġhoarse ly
Ġaband oned
Ġcaut iously
asc in
Ġshrill y
Ġbree ze
Ġclamb ered
Ġmagnific ent
Ġparce l
Ġmagaz ine
Ġdares ay
Ġlan tern
Ġlugg age
A A
C ertainly
D ad
D unno
H is
U R
a ves
c oming
i est
p re
s he
u pp
Ġt ast
Ġt akes
Ġs ou
Ġh y
Ġb ark
Ġf ill
Ġc ra
as ks
Ġd aring
Ġm il
Ġm ail
Ġp el
Ġsa nd
om y
Ġbe am
Ġe t
Ġst ore
ic ted
ir m
Ġre asons
ag ging
ag ini
am el
Ġsh uffled
pe cially
ĠW iz
ĠF irst
umb er
Ġv ibr
Ġab ack
our ish
ers on
Ġch oose
Ġsp ite
Ġcon fess
Ġun mist
op ing
Ġbl ur
ĠV an
Ġcl apping
ang le
Ġgr uff
Ġfl uttered
Ġrem ove
Ġbr ass
lt ongue
We asley
Ġho st
Ġstr ained
Ġam used
Ġmust n
Ġcr it
iff ere
Ġreal izing
Ġrec ent
ĠAn other
Ġcomm unity
ĠAunt ie
Ġunc on
Ġburst ing
Ġrep ro
Ġattack ing
Ġclimb ing
ask et
Ġir on
Ġadm itted
Ġbang ing
Ġcoun ting
ĠBlud gers
Ġslight est
Ġdefe nd
Ġgul p
Ġscrat ching
Ġbrand ishing
cul ars
Ġpou ch
Ġpou red
Ġdim ly
Ġfeather s
Ġdeli ber
Ġawkward ly
Ġunlike ly
Ġdrown ed
Ġris en
ĠMac mill
ĠOwl ery
Ġfaith ful
ĠParse ltongue
ĠOff ice
Ġorph an
Ġslim y
Ġarch way
Ġobs ess
ĠWiz eng
ĠMacmill an
O oo
T EEN
V EN
W ill
c r
g reen
h ip
l and
l ong
r at
x y
Ġs en
Ġs ought
Ġh ug
er ation
Ġb are
Ġb unch
Ġf etch
Ġo bey
ĠH oney
is es
Ġc ause
as es
as ures
id y
or a
or ter
Ġhe at
Ġd ive
Ġm al
Ġl ops
an king
Ġg own
.. ..
Ġst al
ic c
ic ate
ut ion
ad es
ĠS ne
ĠR om
ke red
am ot
Ġse ize
ack ing
Ġsh aken
Ġsh attered
Ġsh abby
Ġsh apes
Ġout ta
Ġout line
ind ed
ĠB us
ĠB ane
ĠB rit
ĠC at
Ġfe ared
ust ered
Ġno d
ous y
Ġch im
Ġch icken
Ġun b
Ġbl urred
Ġpl ant
Ġpl unged
Ġwand ering
Ġor gan
og ging
ĠO UT
Ġtw itched
ound ed
Ġgl owing
Ġgl inting
Ġfl ashing
th in
Ġdis p
Ġpro ved
uff ling
Ġdr inking
Ġcr im
Ġent ering
Ġlight ly
Ġnight mare
ĠJ ohn
Ġsqu inted
Ġste ak
Ġdro ps
Ġsle pt
Ġmar ked
ĠFl amel
Ġmeet ings
Ġins isted
Ġreg ular
Ġint ently
Ġattack s
Ġstret ch
Ġwing ed
Ġhum ans
Ġstrugg le
Ġtor n
Ġgri pping
Ġcol ored
ĠSec ret
Ġlove ly
Ġtip s
Ġhon est
Ġtroll ey
Ġreve aled
Ġgrave yard
Ġmoon light
Ġsuff ered
Ġconcentr ate
Ġspeed ing
Ġrefle ction
Ġphotograph s
Ġamaz ement
Ġsurv ived
gr own
Ġuncomfort ably
Ġcas ual
Ġtrack s
Ġtele vision
Ġbroad ly
Ġsway ing
Ġjud ges
Ġindic ated
Ġsav age
Ne ville
Ġdisbel ief
Ġblaz ing
ĠAdv anced
ĠWizeng amot
Ġlops ided
E n
F F
F red
S ever
a el
a way
f e
g lass
t urn
t aker
w ing
w ater
in ister
Ġw inning
re cy
er ry
Ġb ill
Ġf i
Ġc ong
Ġc ost
Ġc ars
Ġd well
Ġm ing
Ġl ung
Ġl oyal
Ġth umb
Ġp ul
Ġp ig
Ġp ity
Ġp ati
Ġp acing
Ġha b
Ġn atural
om ping
ac on
oo s
ic ial
ir k
ent ions
ĠS orcerer
Ġre lu
ĠD O
ĠR ight
ke eper
ĠA st
pe cto
ĠB E
Ġr oof
ĠC ad
Ġj aw
Ġgo in
ell ing
ĠL aw
ĠL ooking
Ġv ig
Ġle aping
ink led
Ġpo pping
ĠN agini
Ġch illy
Ġqu arter
Ġun known
Ġhand ful
Ġwor rying
Ġsc roll
Ġare a
Ġsl ug
Ġsl ipp
bb les
ond er
ich ael
ave ment
Ġsw imming
ĠK night
Ġkne e
Ġkne eling
Ġbot hered
Ġdr am
Ġcr ashed
Ġmean while
Ġown ers
Ġcur sed
Ġmind s
Ġcare taker
Ġple asantly
Ġeye ing
Ġinst inct
iv id
Ġind iffere
ron omy
Ġposs ibility
Ġgu ilt
ict ion
Ġri g
Ġins pect
abb ing
Ġinc ant
Ġexcept ion
ount ain
vo lo
Ġmid st
Ġve il
Ġpun ct
Ġlearn ing
Ġsubject s
Ġord ered
Ġabs olutely
Ġhon estly
Ġur ge
OT TER
Ġconcentr ating
Ġmus ic
Ġgigg ling
co at
Ġshudd er
Ġpop ular
Ġblond e
do or
Le ave
Ġscri bbled
Ġgreet ed
aim ed
Ġembarrass ed
Ġank les
book s
Ġutter ly
ĠDec ree
Ġskrew ts
Ġenchant ments
Ġstern ly
Ġbeet le
Ġdetenn ined
Ġumbrell a
Ġmixt ure
ĠFrid ay
Ġgruff ly
ĠSne ak
Ġrelu ct
A fter
R A
W ould
m other
u ous
y n
z ib
Ġt el
Ġt ank
Ġt rait
Ġt ugging
Ġw ise
Ġw rest
re es
it es
Ġc akes
Ġth i
Ġp row
Ġg aped
Ġe vent
Ġst ack
ĠI T
ĠI rel
ic s
ic kered
ĠT en
Ġwe arily
ĠD av
ur ry
Ġfor bidden
Ġsh one
Ġk issed
il ar
Ġr as
Ġr umbling
ĠC arrow
ĠC atter
to e
Ġwho ever
ant age
ig gered
na ir
Ġun n
Ġsc attered
Ġcl icking
Ġsl ide
ĠE l
ond s
Ġsw am
Ġsw oll
Ġunder age
Ġunder ground
Ġrem ark
Ġac ted
Ġpr on
Ġgood ness
uck ing
Ġcont ained
Ġflo ated
Ġche ers
Ġcr ate
Ġsur vey
Ġcur ly
ĠSt unned
Ġstud ying
Ġob ser
Ġdist urb
Ġdist urbed
Ġbad ges
Ġco vering
Ġstraight ening
Ġaw oke
ith man
ĠFl oo
Ġstuff ing
Ġacc ount
Ġacc ording
Ġfle et
Ġpat ted
Ġpat ron
Ġhurried ly
Ġswe ets
acing ly
Ġtou ching
roll ing
the y
Ġass ured
Ġfro g
ĠMar ch
Ġadd ing
pell i
Ġavo ided
Ġfrown ed
Ġnarrow ly
Ġguard ing
Ġbang s
Ġsne aking
Ġconcentr ation
Ġjer k
Ġmer people
Ġamaz ed
.' "
Ġant i
Ġdesp ite
Ġpunish ment
Ġdrif ting
Ġyawn ed
ĠFel icis
Ġgrate ful
ĠChas ers
Ġimpro ve
ĠBulgar ian
Ġbigg er
Ġreck ons
Ġnecess ary
Ġcontem pt
ĠThestr als
Ġbeckon ed
Ġimpr ison
Ġridicul ous
Ġexting uished
Ġunmist ak
Ġorphan age
rat ul
ĠJohn son
zib ah
Ġtel esc
ĠIrel and
ĠCatter m
Ġswoll en
ithman cy
? '
C T
M iss
e k
m oon
n ers
o b
p zibah
r ish
t ory
u pef
Ġt ucked
Ġa ward
Ġh ar
Ġh ugged
er al
er ved
Ġb asket
it te
Ġm ale
Ġl imp
Ġp alm
Ġg ift
Ġn in
le ct
Ġsa us
Ġbe aded
Ġhis tory
Ġwh irled
ĠM A
ĠT ell
Ġat e
ĠS E
ĠS ept
ĠHe pzibah
and el
ĠB ook
Ġr uck
Ġr ushing
Ġfe ver
if y
ĠF ather
Ġj udge
ra ft
ul ous
Ġpo ked
Ġch ill
Ġcan v
bb orn
Ġdon nit
Ġfl uttering
Ġfl ickered
Ġbr ut
Ġmoment arily
Ġsn iggered
Ġstr ing
ĠCh ang
Ġown ed
Ġgi ves
Ġbeg in
Ġfire light
ister s
amp ire
Ġsna p
ĠAr ithmancy
Ġcar ved
Ġco ins
Ġann ounced
Ġunderstand ing
Ġbus hy
Ġteam s
ĠBe aters
Ġconf ident
Ġprot ected
ork ins
Ġdeath s
ĠEvery thing
ĠEvery body
Ġint r
Ġinv estig
Ġdisc over
Ġrat s
Ġfre ed
Ex actly
Ġadd ress
Ġglo ves
Ġbow ler
Ġabs ent
Ġadv anced
Ġpost s
Ġattempt s
ĠWh omping
Ġsho ved
Ġcheer fully
Ġspark ling
Ġfun eral
ĠDel umin
Ġpay ing
Ġblock ing
Ġjinx es
Ġstri ke
Ġresp ond
Ġben ches
ĠDisappar ate
Ġfee bly
Ġgrand mother
Ġstir red
Ġtort ured
Ġval u
Ġexperi ence
Ġchuck led
Ġcow ard
Ġprison ers
Ġstu bborn
Ġwithd rew
Ġalley way
Ġprecise ly
Ġcru el
ĠHor ace
anna h
Sever us
ĠAst ronomy
ĠDav ies
itte e
ĠSept ember
' ."
I C
L D
M aking
P o
S E
a is
a iled
i ance
l ted
m aker
s m
s ite
t here
v ad
w olves
x ed
z es
Ġt it
Ġt earing
in ts
Ġs arc
Ġh icc
er a
Ġb ars
Ġb oring
Ġb ouncing
Ġf ashion
Ġf ascin
ĠH orn
ĠH ER
ĠH annah
at hed
Ġc ards
Ġc reaked
or ks
Ġm or
Ġm ant
Ġm uddy
Ġp inned
Ġp ausing
Ġp ipe
Ġg rief
Ġsa l
im ag
Ġst reaked
ĠI rish
ic ated
al k
ri gg
um st
ge nd
Ġwere wolves
Ġme ad
Ġr ot
Ġr inging
Ġr agged
ĠC le
ĠC ruci
Ġgo ble
ck ing
Ġso le
Ġso bs
ĠDumbledore s
Ġag ony
Ġpo d
Ġch ur
el come
Ġqu al
Ġcl atter
Ġmy st
Ġor n
Ġgr itted
Ġfl own
Ġfl icked
Ġfl ask
Ġlong ing
od ay
Ġunder t
ber ts
Ġsn akes
ĠTh rough
Ġel ves
Ġper i
ĠJ orkins
Ġbeg un
sh aped
os c
Ġple asant
Ġste ep
Ġyell s
Ġrec o
Ġdro ve
ĠAn imag
rac ting
Ġdet entions
Ġlow ering
Ġmove ments
Ġdef ense
Ġdef ens
ĠFl uffy
Ġcomp ared
ati ves
Ġsurpr ising
tend able
Ġser ies
Ġconf idence
Ġvan ish
OU R
ug ust
Ġbat tered
Ġinv ited
ĠWizard s
Ġinform ed
Ġtem por
Ġprom pt
Ġadv antage
Ġdormit ories
Sh all
Ġtroll s
Ġgame keeper
Ġinj uries
Ġcour age
Ġupward s
Ġdisappo intment
Ġgloom y
Ġproud ly
Ġperform ed
Ġmount ains
Ġunw ra
Ġprefer red
Ġdesp air
Ġfan cy
Ġcrou ching
Ġviol ent
Ġviol ently
Ġtort ure
Ġstiff ly
Ġsepar ated
cher s
Ġrese mbled
Ġanim al
Ġcamp site
Ġneat ly
ĠNever theless
Ġaut om
ĠRo berts
Ġdeaf ening
Ġimpress ive
Ġsubst ance
Ġbetr ayed
Ġhudd led
Ġpup ils
Ġtopp led
ios ity
Ġwre ck
Ġment al
Ġinfonn ation
Ġming led
Ġpatron um
ĠCatterm ole
ĠDelumin ator
Ġgoble ts
A bout
B LE
F irst
O ur
P re
d e
g n
j o
s ack
u ish
v y
w he
w are
Ġ es
Ġ ze
Ġt y
Ġt ie
he m
in c
Ġw ann
re ne
ed alus
er ted
Ġb ann
Ġb ounced
Ġb acon
Ġf ence
Ġf ountain
Ġc ream
id ents
Ġhe el
Ġd ared
Ġd arting
Ġl one
Ġl aun
Ġth ief
Ġp avement
Ġin h
Ġsa ving
Ġe er
ic ol
ĠM ichael
ent ial
ĠS ick
Ġre dd
ĠR est
Ġfor med
Ġse rene
um s
ĠP OTTER
ĠA ugust
Ġk ick
Ġr are
ĠC l
ĠC lu
ĠF OR
Ġj ug
Ġj olt
ort al
Ġde velo
Ġun h
Ġun fortunately
Ġsee k
Ġpl ump
Ġpl anned
Ġcl iff
Ġtw itching
Ġtw inkling
Ġfl ushed
omet imes
Ġen s
Ġwat ery
ho le
Ġspe nding
Ġbr ick
ĠBut terbeer
uff s
ont roll
uck y
uck les
Ġam using
Ġgreat er
ater ial
Ġcur iosity
Ġhair s
ip s
Ġjo king
Ġfriend ship
Ġhope ful
Ġdire cted
lock ed
Ġins ist
Ġspr inting
Ġappro ach
Ġsus pect
Ġhang ings
Ġvisit ors
Ġeag le
St and
ĠTH IR
Ġblank ets
Ġghost ly
Ġtall er
Ġpol ished
Ġpol itely
Ġdisg r
Ġcirc umst
Ġdep arted
Ġling er
Ġsnat ching
Ġincred ible
Ġgener al
Ġblind ing
Ġmain tain
Ġdu eling
Ġfair ly
Ġdev oted
Ġthunder ing
Ġglimp sed
Ġgras ped
Ġintrod uce
Ġintend ed
Ġtrap door
Ġmoun ted
ĠMal kin
Ġtwig s
Ġexasper ated
Ġlaz ily
ĠComm ittee
Ġretrie ve
Ġcurre ntly
Ġven om
Ġsou p
Ġmil k
ĠSneak osc
Ġruck sack
Ġcanv as
Ġvalu able
Ġprompt ly
M ugg
M olly
N O
O P
U N
U S
U n
b ell
c raft
e nded
h ood
h anded
j ar
m a
m pt
m inded
s k
t hen
Ġ ?
Ġ Yeah
Ġt ugged
Ġt apping
Ġa ud
Ġa ching
Ġa jar
Ġs ess
Ġw oken
Ġw rigg
ou et
ar ling
Ġb owing
Ġb und
Ġb ike
Ġf ish
ĠH IM
at s
at ors
it er
Ġc am
or se
Ġl ady
Ġl angu
Ġp al
Ġp early
an ia
Ġg ir
Ġin n
le cted
le bolt
Ġsa cked
Ġe lder
ac les
ve ying
Ġre quire
ĠD edalus
Ġan tic
ook wood
ĠRon an
ĠA h
ĠA mos
Ġsh aw
Ġsh ows
Ġsh rive
ĠHe aler
... ?"
em b
em ents
un ched
ind ly
Ġkn ight
Ġr uddy
Ġfe ed
Ġbut ton
ĠF ive
Ġgo vern
Ġab ility
Ġle gend
ist ered
Ġoff icial
iz z
ĠN umber
Ġch andel
ie ving
Ġwor n
Ġsc ut
Ġsc ore
Ġsc ales
Ġbl own
Ġcom b
ĠE aster
Ġsw ore
ab outs
Ġar rog
ĠK now
ĠVoldemort s
Ġlo ad
Ġbr u
Ġpr ide
ish ment
Ġho isted
Ġatt itude
ĠIn side
Ġem otion
Ġsk ill
Ġsk idded
sh irt
Ġmagic ally
Th ree
Ġrest r
Ġcomm un
Ġdead ly
Ġempt ied
umm y
Ġann chair
Ġbus h
ĠHead s
Ġbu bble
Ġhat red
bo x
Ġinter f
Ġref using
ĠBe cause
Ġins ane
Ġunc ontroll
Ġprot r
Ġrep res
Ġspr out
Ġpress ure
Ġcent uries
ĠSh ield
ĠWizard ry
ĠEx tendable
Ġimag ining
Ġdoub ted
ĠEr rol
Ex cuse
Ġtor ches
ĠMar volo
Ġshop s
Ġhot ly
Sh h
Ġenjoy ed
Ġpack ing
Ġsne ering
Ġdep artment
Ġeat en
du kes
Ġsuff ering
Ġconce al
Ar ry
ĠMer lin
ĠMudblood s
Ġunus ually
ĠSqu ad
Ġexist ence
Ġurg ent
Ġyawn ing
Ġscree ched
Ġexperi enced
Ġflick ering
Per cy
Per haps
ĠOWL s
Ġtot al
Ġswell ed
mos p
Ġwid ened
ĠChas er
Ġach ieved
Ġtransp arent
Ġneighb ors
mn io
Ġpier cing
ĠShack lebolt
Ġpudd ing
Ġgather ing
Ġsched ule
Ġenem y
IGH T
Ġdazz ling
Ġteac up
Ġtast e
Ġfi ery
Ġhab it
Ġrig id
Ġsurvey ed
vad a
ĠCruci atus
Ġchur ch
Ġperi od
H as
W ow
W inky
c om
h od
h oul
j ected
l p
p lo
z o
Ġ ,"
Ġ rou
Ġt in
Ġt ents
Ġb iz
Ġb read
Ġb anned
Ġf em
Ġf og
Ġf onn
ĠH ar
Ġto mb
Ġc ust
Ġc ries
as ked
ll ow
Ġhe aving
en ess
Ġl arg
Ġth umping
Ġp ace
Ġn orth
Ġn udged
Ġy el
ac ious
Ġst if
Ġst ooped
ic iously
Ġwh im
ĠM and
ĠT hose
Ġat mosp
ĠS und
Ġre ward
ĠD irk
st ones
st anding
ĠR es
ĠR idd
ch ley
ĠP re
all en
Ġsh ip
pe nd
Ġso b
Ġle ap
Ġno ble
ff ee
ul arly
Ġoff ering
ven ge
Ġsp illed
Ġhand bag
Ġsc anned
ĠV ol
Ġhead mistress
og an
ĠO mnio
pt ion
Ġsw ooping
Ġfl aming
ĠU p
ĠU se
Ġen er
Ġdis h
Ġwhere abouts
Ġtell s
Ġnever theless
dd en
ped iment
Ġho vering
hen sion
ons ense
rew d
Ġcle aning
ĠTh ick
Ġcur ved
Ġblack ened
Ġsk inny
Ġshout s
Ġfire s
ten no
Ġcare er
Ġres umed
Ġtre m
Ġdeep est
ere nce
ĠY eh
ron ted
Ġbus hes
Ġarri ve
Ġcomple x
Ġru b
ĠCho sen
Ġkitchen s
Ġexpl aining
ĠBag shot
Ġears hot
Ġcorn ered
Ġass ume
Ġcons cious
Ġfre qu
Ġfright ening
Ġshrie king
Ġgrou ps
Ġimmedi ate
Ġcre ep
Ġforce fully
Ġele ct
ring ton
Ġgrabb ing
LE Y
Ġdep art
ĠLe g
Ġaff ord
Ġeffort s
Ġslee ves
Re ady
Ġspread ing
Ġunple asantly
Ġcarri ages
AN G
Ġdam n
Ġsurv ive
Ġchat tering
Ġtriumph ant
Ġ5 5
Ġearn estly
Ġsepar ate
Ġrust ling
Ġeng ine
Ġanim als
Ġdaz ed
Ġiss ued
Ġswell ing
Ġdism iss
ĠFe eling
Ġrequ ired
Ġank le
Ġdistracted ly
Ġdisgust ing
Ġimmense ly
Ġprick ling
Ġcush ion
Ġflow ers
Ġden y
Ġretreat ed
Ġsmo king
Ġapolo g
ĠWhe e
Ġfeat ures
ĠBar on
Ġeyel ids
Ġsand w
ĠHoney dukes
ĠBrit ain
ĠCad ogan
upef y
ĠHorn tail
Ġautom atically
Ġserene ly
Ġcircumst ances
Ġchandel ier
Ġuncontroll ably
Ġlarg est
Ġatmosp here
tenno le
H mm
R ON
S c
W onder
c he
f us
f lo
f orc
t ened
t wo
v iously
w rit
Ġ 4
Ġt angled
Ġs ip
Ġs inister
Ġh ooked
ed av
ing e
Ġb anged
Ġo rig
ĠH ang
or ious
Ġd ug
Ġm ourn
Ġp iles
Ġg aping
Ġn amed
Ġn ature
ot ted
ac ter
us ter
Ġst ock
Ġst raw
Ġst amm
ĠI ndeed
ir med
ĠT ime
Ġwe ed
Ġre jo
ĠD r
ĠD ON
ag er
ĠR og
Ġse ated
um os
ĠA T
ĠA m
ĠA cc
ĠA my
Ġsh aped
Ġsh rewd
ĠW E
ĠW ed
Ġfr uit
and om
ĠG old
il im
Ġr ace
Ġr arely
Ġr andom
ĠC ont
ast ered
Ġback s
Ġwhat so
Ġv icious
Ġex cl
lf riend
ul ation
ss y
ĠN E
Ġch oo
Ġch ann
Ġch asing
Ġus es
Ġun re
are r
Ġgot ta
Ġsc ars
Ġbl owing
ĠO N
ĠO ur
Ġtr usted
Ġgl um
Ġgl owed
Ġgr ace
Ġsw arm
Ġfl uffy
Ġar t
ĠK end
ĠK edav
Ġim age
Ġte en
Ġpe cul
Ġpro cess
Ġpr ice
Ġho oting
Ġsn out
Ġfeel s
Ġwind ing
Ġcr ashing
Ġent r
Ġsur veying
ĠBl otts
Ġblack board
Ġper f
ĠJ une
ĠUn f
Ġsqu ashed
Ġunt idy
ric ted
und ered
Ġbo bbing
Ġfore ign
Ġcomm and
ere r
Ġri ver
Ġhope lessly
Ġdef ensive
ĠFl ourish
Ġcomp an
Ġbu z
Ġarri ving
Ġru ined
lock s
Ġmist ress
Ġfree zing
Ġsleep y
Ġev ents
Ġcoll ided
lin es
Ġadd ition
ĠSec recy
Ġdrink s
Ġforget ting
Ġuna ware
Ġpol ite
Ġje al
ĠBur kes
Ġfollow ers
ĠLe v
ĠLe an
Ġsho pping
Ġslee k
Ġling ered
ias m
Ġsens es
io let
Ġamaz ing
Ġspectac ular
Ġdefe ated
Ġcas ually
Ġbran ch
Ġshudd ered
Ġjud ging
Ġlad der
Ġgest ure
Ġshif ting
Ġthousand s
Ġindic ating
Ġscri bbling
Ġamb ition
ĠMac nair
Ġscow led
Ġflood ing
Ġsniff ed
Ġglee fully
Ġbuck et
Ġfrag ment
ĠWar rington
Ġoutr aged
ĠPad ma
Ġhamm ering
Ġpenetr ate
Rem ember
Ġsuc ceeded
Ġencour ag
Ġvictim s
ĠSumm oning
Ġdiss olved
ĠInfer i
Ġsen sed
ĠCat tennole
Ġlung s
Ġstubborn ly
Ġmant elp
Ġes pecially
Ġlaun ched
ĠSund ay
ĠOmnio culars
Ġwhatso ever
ĠKend ra
ĠKedav ra
A CK
H aven
K E
M ay
P e
P r
S omething
T Y
T hose
Y OU
a ired
b ike
e al
h ouet
m at
r ick
s ers
t ies
u ct
u ber
u bby
v or
Ġt ar
Ġt act
Ġt ale
Ġt asks
he arted
Ġa is
in ent
in th
Ġw inking
Ġw ider
ou ched
Ġb one
Ġb olt
Ġf ading
Ġto es
Ġto oth
Ġm im
Ġm aterial
Ġm asked
Ġl unged
Ġp arted
Ġin qu
Ġin ex
om s
ld rons
ve rell
et her
ic hes
Ġwh imp
ĠM E
ĠT re
ĠS ure
ĠD et
ĠD ay
ĠD ipp
ur d
se e
ĠR ookwood
ri um
Ġse aled
um n
ĠP ol
ter ge
ard on
Ġher s
ĠW HAT
Ġfr antic
Ġdo e
un p
ĠB ow
ĠB ode
Ġr uffled
ĠC ole
Ġli vid
Ġex e
Ġex tend
ul sion
old ed
Ġany thin
Ġch ances
Ġsp here
Ġpl ants
Ġsl its
Ġwand ered
Ġmo pping
ĠE ars
Ġsm art
ound s
Ġgl ist
Ġsw ive
Ġman ner
th is
Ġdark er
Ġatt ract
ĠQu ick
Ġfind s
Ġbit ing
ĠTh ink
ĠTh urs
Ġper fonn
ĠSt and
Ġste w
Ġmouth s
Ġmouth ful
Ġcau ldrons
Ġbelie ves
Ġbo iling
Ġgre asy
ĠGr im
Ġpain ted
ĠSe ven
Ġlot s
Ġheart ily
Ġaw ait
Ġansw ers
Ġansw ering
Ġri p
Ġgreen ish
ĠHead quarters
Ġpoint less
Ġinter rog
Ġpat ches
Ġperson ally
Ġvan ishing
Ġrep air
Ġspr ing
let chley
OU T
Ġthro bbing
Ġinv ol
Ġflat tened
Ġreason ably
St ill
Is n
Ġcre aking
Ġcre eping
Ġdiscus sion
Ġpossess ed
Ġcirc ling
enn is
Ġinf l
ĠYOU R
Ġreve aling
AR RY
Ġprev iously
Ġpill ows
Ġserv ice
Ġlawn s
Ġscrat ched
Ġcharm s
Ġexch ange
Ġtreat ed
Ġgrand father
Ġstro lled
Ġsmir ked
Ġgest uring
Ġsneak ed
Ġenthus iasm
Ġscree ch
Ġbust ling
Ġner ves
Ġiss uing
ixt y
Ġscow ling
Ġwid ening
urg is
Ġident ical
Ġach ieve
Ġpet rified
Ġwitness ed
Ġcush ions
Ġequ al
Ġske let
Ġripp ling
Ġmotor bike
Ġhoo ps
Ġmild ly
add ock
Ġsymp athe
Ġomin ous
ĠRu fus
Ġshak ily
Ġgrump ily
ĠDung bom
Ġantid ote
Ġdeliber ately
Ġcong ratul
Ġunmistak able
Ġundert one
ĠSick les
ĠSneakosc ope
Ġcam era
Ġgir lfriend
Ġbiz ar
Ġfem ale
ĠRidd les
ĠRog er
Ġpecul iar
ĠLean ne
Ġmantelp iece
terge ist
ĠThurs day
A ccio
C ouldn
E ven
F ive
I L
I VE
K S
P et
Q U
S it
T wo
b al
b anks
c on
c an
g us
i ven
j ust
k no
m s
m ade
p ro
s est
v il
w orks
Ġ 3
Ġt u
Ġt urb
Ġa ver
Ġs ul
Ġw inked
ou nts
Ġh om
Ġb ould
Ġb ully
Ġb arm
Ġf erv
ĠH ARRY
Ġto wn
Ġc ub
Ġc rawled
as er
Ġhe ir
Ġhe ap
Ġd ed
Ġd ign
Ġd ashing
Ġm old
Ġl id
Ġl imb
an ked
Ġg it
Ġin her
Ġsa llow
Ġy ards
Ġwas ted
Ġbe zo
ac ted
Ġst arry
Ġst ones
ĠM om
ĠT ues
ĠT oday
Ġre in
ĠD em
ĠD ennis
ag gy
st e
ri but
ch aun
Ġfor ty
ĠP ince
ĠRon ald
Ġsh ivered
Ġlook out
Ġfr ames
Ġme al
Ġr ack
Ġfe ars
ak y
Ġback ing
Ġv om
Ġv ampire
Ġro be
Ġal ert
Ġover grown
ers ed
Ġsu gar
iz ation
urn ing
Ġcon du
ass ed
Ġhand writ
ĠWe ird
Ġpl acing
Ġcl as
Ġcl aim
Ġsl owed
Ġwand light
Ġhead line
ĠE d
og ether
Ġhow led
Ġsome what
Ġgl ided
ol ia
Ġman e
th orn
Ġpre cious
Ġim per
te enth
Ġpro ceed
Ġpr at
uck le
Ġcont aining
ple xed
Ġatt ached
Ġtal ent
Ġsn igg
Ġstr ang
Ġstr ict
Ġday light
Ġsupp orted
Ġside car
Ġblack ness
ĠSt re
aw lish
Ġfell ows
Ġsmall est
Ġcare s
Ġste aling
urs es
cl oth
Ġres ign
Th ink
Ġtop most
Ġscar ves
ens ion
oke y
Ġad vent
Ġgu ests
Ġdet ect
Ġmar ching
Ġcat s
Ġri pping
Ġdef iantly
Ġbu ying
Ġbu ilt
Ġref er
Ġed ges
Ġmet hod
Ġconf usion
Ġneck s
Ġdream ing
oun ce
Ġyoung est
Ġtri pped
Ġreg ard
Ġdraw er
Ġdraw ers
Ġwom en
Ġwrit hing
Ġwood s
ĠSh unp
Ġgle amed
Ġcop ies
Ġfre ck
Ġdeser ved
St upefy
Ġtem pt
Ġappear ing
Ġcoun ted
Ġpossess ions
Ġspir it
Ġgro an
Ġexcit ing
Ġaff ection
Ġstat ues
Ġrece ive
Ġjer king
Ġune asy
ĠGalle on
Ġbeat en
AN D
Ġstro king
Ġbother ing
Ġslo ping
Ġreapp ear
Ġsweat y
Ġchar ged
Ġshif ted
Ġaston ishment
Ġbust led
Ġgn arled
Ġmod el
Ġbrief ly
Ġgras p
Ġcapt ure
Ġappreci ate
Ġdod ged
Ġdecor ated
nes se
nes day
ĠMag n
Ġcompet e
Ġboot s
Ġreass uring
Ġrelax ed
Ġheal th
Ġinten se
Ġauthor ity
ĠWitch craft
ĠEng lish
ĠSk rew
ĠBo x
Ġbill owing
Ġvig or
Ġexception ally
ĠCarrow s
ĠMarch banks
pelli arm
Ġtelesc ope
Ġbrut al
Ġlone ly
Ġantic ip
Ġprotr uding
ĠThick nesse
Ġorig inal
Ġstamm ered
ĠWed nesday
ĠTues day
ĠShunp ike
' '
B ill
C he
C ould
E nded
F our
G r
G reat
M in
O uch
c ast
c ers
c ies
f s
f ree
f ixed
g u
i ently
l ook
n ut
v ol
Ġt ough
Ġs ons
Ġh ie
ed le
on estly
er o
Ġb ol
Ġb reed
Ġf ed
Ġf umbled
Ġc a
Ġc raw
Ġc ooking
ll ing
id ering
or ridge
or ian
Ġd uck
Ġd irt
Ġd ais
Ġl at
Ġl ace
Ġp ine
Ġn aturally
Ġn onsense
le g
le ts
Ġbe nd
Ġhis s
Ġst onn
ĠI S
ion ed
Ġwh iz
ĠM on
ad ies
ĠS ide
ĠS urely
Ġre action
Ġre venge
se c
ag ers
ĠR ow
Ġfor th
Ġse es
um es
Ġsh ared
Ġsh ower
Ġsh aggy
Ġk idding
ĠHe ir
ĠW ILL
and al
ĠB as
ĠB ANG
Ġme nd
Ġme asures
Ġkn uckles
Ġr ide
Ġall owing
Ġshe et
ell e
qu ee
ĠL isten
Ġno ses
ul ting
Ġpo ster
ĠN O
Ġch ased
Ġch allen
Ġsp illing
Ġsp itting
Ġsc ru
Ġsc athing
Ġsee king
ĠV er
Ġcl am
Ġcl attering
Ġcl anking
Ġwand maker
ĠO ther
ĠO cto
Ġtw it
Ġsm ug
Ġdoor kno
Ġhow l
Ġgl are
Ġgl ory
Ġgr udging
Ġsw ig
Ġfl apping
Ġclo sest
Ġwill ing
ĠK illing
Ġdis ag
Ġmu g
Ġrem ote
Ġrem orse
Ġpro pped
Ġsil houet
Ġsec ure
Ġstr aining
Ġam id
Qu ick
Ġcle arer
Ġsupp ress
Ġschool bag
Ġra w
Ġel b
ty ard
ip es
Ġfin ishing
Ġjo ining
bl ue
ĠUn fortunately
Ġbeg inning
Ġsqu at
unt led
Ġbo ar
Ġbo oming
ĠAr gus
iv al
Ġpar aly
Ġsign ific
Ġmar oon
Ġheart h
umm ing
Ġhall way
ĠAt rium
Ġbu bbles
Ġser ved
Ġed uc
Ġins ult
Ġdanger ously
Ġconf isc
ĠFle t
Ġrep orted
oun ter
Ġcorn ers
Ġgas ping
Ġspl in
Ġcoll ar
Ġcross bow
Ġpract ical
Ġquestion ing
Ġwindows ill
Pro bably
ĠCr ack
Ġinv ite
Ġinv itation
Ġimag ination
Ġpun ished
Ġtrans fixed
Ġcol ors
wh ich
Ġtem ple
Ġtra iling
Ġguard s
RE E
Ġconv ince
ha ust
Ġremind ing
Ġur ged
Ġje ering
Ġgro ped
ĠGo bl
Ġheadmaster s
Ġdri ven
Ġdri ving
Ġaff ect
Ġcompl icated
Ġmus c
ĠPe verell
Ġprep aring
Ġcour tyard
Ġdel ivered
Ġnois y
Ġmurd erer
Ġgener ally
Ġmain ly
Ġaim ing
Ġstir ring
Ġlim ping
Ġmagn ified
Ġdeli ver
Ġgn ome
Ġprodu ce
Ġpred ict
Ġflood ed
cut ion
Ġstar ving
Ġskrew t
Ġcandle light
Ġborrow ed
ĠEn forc
Ġtick ets
ĠMag orian
Ġske pt
Ġcond itions
ĠSil ence
Ġrumm aging
Ġgreenh ouses
Bet ter
Ġdisappro ving
Ġmonst rous
Ġque ue
Ġobsc ured
Ġexpress ions
Ġinvent ed
Ġinstrum ents
Ġhy ster
Ġet ched
ĠVan ishing
Ġincant ation
Ġfleet ing
Ġsaus ages
Ġfever ishly
ĠAnimag us
Ġinh ab
Ġeer ie
ĠTHIR TY
Ġdisgr untled
minded ly
Ġarrog ant
Ġrepres ent
Ġelect ric
ĠLeg ilim
Ġbuz zing
Ġwhimp ering
ĠDipp et
Ġbizar re
Ġbarm an
Ġbezo ar
ĠMagn olia
pelliarm us
ĠOcto ber
ĠEnforc ement
. ,
D r
D ER
H og
I X
I ST
N ah
N OW
P ut
T en
W on
W ith
W elcome
b oy
c overed
e ag
g reat
i ers
k o
l ad
m outhed
o cc
p ri
p her
u ary
w ho
Ġ version
Ġt ant
Ġh oop
ed eration
on se
on ko
Ġb un
Ġf led
Ġf iled
ĠH as
ĠH ouses
ĠH okey
Ġc rest
as hy
Ġd er
Ġd umb
Ġd ried
Ġm es
Ġl ion
Ġp aces
Ġp aler
Ġp orridge
Ġg if
Ġg rill
Ġin visibility
Ġn et
Ġwas h
Ġwas ting
Ġe ase
Ġyou th
Ġst age
Ġst owed
et t
et ed
ic le
ic ent
ver t
ĠM em
ĠT op
ĠS pe
al ty
ag ine
ag ger
st ep
st ained
red it
ĠA bb
ĠA bout
ill icent
Ġup ro
un ken
Ġkn ives
ĠG u
ĠG ot
ĠF ort
Ġshe ets
Ġli king
Ġv ivid
Ġex haust
Ġle pre
Ġal tern
ss ed
Ġpo ke
old ing
ĠN et
Ġsp o
Ġsp oon
op es
Ġsc anning
Ġbl under
Ġget tin
Ġcl ick
ĠProfessor s
Ġhead stone
Ġmo an
ĠE ach
ĠE ye
Ġ' '
Ġthrough out
inn et
Ġgr at
Ġsw ing
Ġfl in
ĠU N
ab ior
Ġte xt
Ġfir s
Ġlit tered
Ġpro dding
Ġcont orted
Ġsn ort
Qu ite
Ġcr is
Ġcr ime
Ġold est
Ġgreat ly
ĠBl ood
ĠBl ast
Ġem plo
Ġnew ly
Ġper ch
ĠDo xy
Ġsk ul
Ġlif ting
ib y
Ġpart ner
Ġrest ing
Ġsna pping
ither ing
ph ias
ĠAn cient
igg ing
Ġco vers
Ġco zy
Ġind e
Ġdet ail
ĠSc abior
Ġpot s
Ġbreath less
Ġdisapp earing
ĠHow ler
Ġrel atives
Ġref use
Ġpat he
Ġblood shot
HA R
Ġrep aired
Ġinc ident
Ġhurt ling
Ġrepe at
Ġspl uttered
Ġton es
Ġint ent
rill iant
Ġmeant ime
Ġve get
Ġass ure
Ġcons idering
Ġvisit ing
Ġpun ched
Ġpun ching
Ġrat tled
Ġdeser ve
Ġdesper ation
Ġmaster s
wh isk
ĠSec onds
Ġadv ised
Ġadv ancing
Ġcrack ling
Ġdest ination
Ġpol ice
Ġsmell ed
Ġroll s
Ġpri or
Ġinf lu
omp re
Ġdri pping
Ġcompl aining
Ġmurm ur
Ġinj ury
Ġhig hest
Ġexplo sion
Ġdra ped
Ġplat fonn
Ġwarm th
Ġyellow ish
Ġrefle ct
Any thing
Ġfresh ly
ik ulus
Ġbelong s
Ġpersu aded
Ġperm itted
Ġstro ke
Ġlim ped
Ġlad en
Ġconst ant
Ġdesce nding
Ġboard ed
Ġwi pe
Ġconsider able
Ġfort une
Ġwis hes
ĠSp innet
Ġrequ est
Ġtransform ed
Ġhex es
Ġarr ang
Ġarr anged
Keep er
Ġseve re
Ġseve rely
Ġoutr age
Ġrevol ving
ĠPad foot
Ġdescri bed
Ġacce pted
Ġgreenh ouse
Ġtroub led
Ġapprehens ive
Ġstamp ing
Ġrepro ach
Ġchim ney
turn ed
Ġinstinct ively
Ġpron ounced
icol as
Ġdepart ure
flo or
ĠTre vor
ĠBow tr
Ġadvent ure
Ġvigor ously
Ġdoorkno b
Ġlepre chaun
A M
E L
H old
H urry
L o
L una
T H
T ime
U D
V ER
W E
Y ep
a uding
c il
i ated
i ped
l amp
m on
m ar
p ot
p os
u bb
w ill
Ġ 2
Ġa id
Ġs id
Ġs orted
Ġw an
Ġw ire
Ġw ary
re ement
ed y
on ze
Ġb row
Ġb inding
Ġf ate
Ġf acts
it ating
as ingly
Ġhe d
Ġd w
Ġd us
Ġm ixed
Ġm oth
Ġl asted
Ġp us
Ġp uffy
Ġp addock
Ġha ught
Ġg aunt
Ġin sp
Ġin ner
Ġn iff
om ers
Ġbe m
Ġst reak
Ġst umped
Ġst amped
Ġon ward
ro ad
ro ck
ĠM af
ĠM illicent
ĠT e
ĠT ot
ĠT ogether
Ġwe b
Ġre ar
Ġre li
ur t
se en
ke w
ch airs
am s
am pered
Ġse ared
ĠP iers
ĠA RE
Ġsh aring
Ġsh orter
em s
ĠW H
ĠW hing
Ġfr action
ind or
and s
ĠB all
ĠB est
Ġr im
Ġr ich
ĠC lass
Ġj oy
Ġgo als
Ġso ld
Ġso cket
ĠL ife
Ġv ap
Ġv iolet
Ġle am
ra ught
Ġag gress
Ġag itated
Ġover come
Ġtheir s
Ġdown ward
iz able
ĠN icolas
Ġch u
Ġch ort
Ġch ase
Ġch apter
el z
Ġsp ort
Ġsp rawled
Ġun in
Ġun ne
Ġun ner
Ġun fortun
op y
Ġsc ored
Ġsc ooped
Ġbl ink
est ia
Ġcl aw
Ġcl amped
Ġsl ack
Ġcom pr
ĠO R
ang ular
Ġsm ugg
Ġtr agic
Ġtr ained
Ġgr ubby
Ġsw orn
Ġsw erved
Ġfl apped
ĠU P
Ġman aging
Ġpre c
Ġapp alled
Ġlo athed
Ġeven ings
Ġbr ushed
Ġbr ushing
Ġbr onze
ated ly
Ġcont rolled
Ġho oted
less ness
Ġstr angled
rie king
Ġche wing
Ġsur ge
ĠIn c
ĠTh irty
Ġcur ling
Ġper plexed
ail ing
Ġour s
Ġfire works
Ġang le
Ġste ering
Th ought
Ġpart ners
Ġbelie ving
Ġbo ss
Ġbo omed
Ġtre acle
Ġob st
ĠAr my
Ġmar quee
Ġact iv
ĠAl though
Ġsince rely
rif ic
Ġspell books
Ġrel ation
Ġacc ord
Ġspot s
ĠBe edle
Ġru bbed
Ġconf id
Ġswe ating
Ġprot est
Ġsim ilar
ork ack
Ġcup s
Ġcorn in
Ġsnake like
ald a
Ġcoll ection
Ġcross ing
Ġimport ance
Ġint rig
Ġthr ashing
Ġmiss ion
ĠSh rieking
IN D
not iced
An other
ĠDef ensive
Ġfro st
Ġhast ened
ON E
Ġfer ret
Ġmess ing
Ġstrong ly
Ġpan icked
Ġdeal ing
Ġdiscus sed
Ġbound ed
Ġtrust s
Ġproblem s
Ġsne er
ĠWh ich
Ġglit tered
Ġdefin ite
Ġess ential
Ġtrick s
Ġsuspic ion
ĠZ onko
Bl ack
Ġdread ing
Ġwin ced
ĠRem ember
Ġirrit ated
Ġthreat ened
Ġdel icious
Ġmer cy
Any one
AN T
Ġwhist ling
Ġpound ed
Ġabrup t
Ġunf olded
Ġresp onse
Ġgigg led
Ġpoison ous
Ġindign ation
Ġsquee zing
ĠFin ch
Ġfaint est
Ġlock er
Ġshudd ering
Ġgest ured
Ġsweet ly
Ġglow ering
Ġearn ed
Ġbald ing
Ġwound s
Ġcow ering
Ġgn omes
Ġrum or
Ġincre ased
Ġincre asingly
Ġlab eled
ĠConf ederation
athe ry
Ġcond ition
Ġappo intment
Ġresent ful
Ġunexpected ly
Ġinten s
Ġrumm aged
Ġenclo sure
OM E
Ġcap able
Ġscur rying
Ġrespons ible
Ġrespons ibility
ĠRun es
Ġgall oping
Ġfrustr ation
Ġresc ue
Ġgogg ling
Ġsoot hing
Ġdispl ay
erson ally
Ġcrit ic
ĠRom ilda
Ġsavage ly
Ġslug s
Ġdram atically
yn ch
Ġtrait or
ek ly
Ġintr ud
Ġinvestig ate
Ġfreed om
Ġsarc astically
ĠAmy cus
ĠNE W
Pe ople
Ġais le
Ġturb an
Ġinher ited
ĠDem elz
ĠEd uc
Ġgrudging ly
ĠFlet cher
occ up
ĠAbb ott
Ġpathe tic
whisk y
ĠMaf alda
ĠWhing ing
Ġunne cess
Ġunfortun ate
! '
A D
B ER
C rouch
F l
F le
F unny
F letchley
H onestly
K ill
O ver
S pe
T S
U mbridge
W ish
W ha
b acked
b viously
c ases
d on
d or
e es
f ing
f ashion
h ound
i ence
i ans
i als
i que
j inx
l ength
m agic
m ph
m ates
o cus
r om
u ly
u ously
v able
w hy
Ġ ut
Ġt a
Ġt ing
Ġt ut
Ġt ack
Ġt iar
Ġt ested
Ġt rop
Ġa gh
Ġs ust
re ct
Ġh ind
Ġh olly
Ġh ilt
Ġh ugging
Ġb ared
Ġf reak
Ġf ulf
Ġo we
ĠH estia
at en
it aser
Ġc al
Ġc ock
Ġc reak
id ge
or us
Ġd in
Ġm arry
Ġm ill
Ġm ouse
Ġm outhed
Ġl ime
Ġl atter
Ġth rill
Ġth undered
Ġp all
Ġp omp
an cy
Ġg on
Ġg ain
Ġg ained
Ġg houl
le cto
om pl
Ġbe lt
Ġbe ads
ac y
ac hes
ve led
Ġst all
Ġst ump
oo oo
ic he
ĠM ir
Ġas t
Ġas kew
ĠS A
ĠS aid
Ġre lease
st and
ĠR E
ĠR ed
Ġse m
Ġse ason
her ry
pp ings
ack ets
ard ly
Ġsh red
Ġsh uffling
ain t
Ġlook in
ĠW IT
Ġfr ail
Ġdo in
ĠB ard
ĠB el
Ġkn o
Ġne g
ĠG O
il ities
Ġr out
Ġr ag
Ġr ange
Ġr otting
ak ers
if ying
ĠF R
Ġshe d
Ġj ets
Ġj abbed
Ġso ck
ast ing
ĠL o
Ġex er
ong s
Ġover whe
Ġsu cked
Ġpo pped
iz es
Ġch ained
Ġsp in
are well
Ġbl a
Ġbl ot
Ġbl ushing
Ġsl ithering
ĠE gy
Ġsw ishing
Ġfl u
Ġfl ared
Ġfl ustered
ol es
ol ution
The se
od more
Ġim pl
Ġdis ple
Ġpe er
Ġpe eling
Ġlo athing
Ġpro f
ress ing
Ġwa iling
Ġwa iled
No body
Ġdark ening
ple ase
Ġatt ic
Ġsn ide
Ġstr ain
Ġche ered
Ġcle ve
Ġbit ten
Ġfew er
ĠTh ought
ĠGryff m
ĠBl oody
we ed
Ġra bb
az ed
get ically
Ġset s
ĠJ uly
ĠSt urgis
ans we
sh ine
ru ction
Ġple ading
Ġres igned
anger ous
Ġrec all
Ġcomm itted
Ġco ast
Ġmem or
Ġfour teen
Ġred uced
Ġann or
Ġbreath s
ĠHead mistress
Ġrel ated
Ġser ve
Ġacc idents
Ġinter ven
Ġfle x
Ġspot ting
Ġed ging
Ġmis ery
Ġtrou sers
Ġsub s
ĠSn at
ĠSn orkack
ĠBell a
Ġpare nt
ĠSo on
Ġshall ow
Ġreg ister
ren ch
Ġcross ly
Ġpract ices
Ġsun ken
ĠWith in
Ġve ins
Ġass umed
Ġbat s
ĠSh ould
Ġflat ten
Ġpun ch
St ay
Ġtight ened
ĠTr ace
Ġform ing
Ġpost ers
Ġcrack ing
Ġweak ness
Ġenjoy able
Ġimpati ent
af e
ĠAppar ating
Ġincl ined
Ġimm ob
ĠCorn er
Ġirrit able
Ġlur ched
Ġinterrup t
Ġoccasion al
Ġgigg le
Ġcorre cted
Ġblind ly
Ġaim ed
ĠBog rod
Ġkey hole
Ġpin cers
Ġslo pe
Ġchar ges
Ġchar acter
Ġconst antly
Ġillumin ating
Ġunicorn s
Ġfort un
Ġprodu ced
Ġwis p
ĠRo ad
Ġscra ping
Ġcaut ion
Ġcollect ing
Ġbigg est
Ġfocus ed
Ġcontem pl
Ġdecor ations
Ġcack led
Ġcack ling
Ġwhee zy
Ġassist ant
Ġhoo ves
Ġsuc ceed
Ġenclo sed
Ġsymp ath
Ġconcl usion
Ġarrest ed
Ġdisgu ise
ĠStud ies
Ġmonst ers
Ġapprehens ively
Ġdemonstr ate
ĠWon nt
Ġpotato es
Ġcourt room
Ġlantern s
Ġpel ted
Ġuncon vin
Ġobsess ed
Ġstal ked
Ġcrim son
Ġslipp ery
CT O
Ġmale vol
Ġtit le
Ġfascin ating
ĠHER E
ĠCle answe
Ġsole mn
Ġdefens ively
Ġtempor arily
Ġunh appy
Mugg le
Ġbund le
Ġlangu age
Ġfrequ ently
Ġdismiss ively
Ġsandw iches
Ġexe cution
ĠDungbom bs
Ġferv ently
Ġmold y
Ġcondu ct
ĠStre et
Ġca vern
ĠVer itaser
Hog warts
Ġgrill es
ĠNet work
Ġgrat itude
Ġarrang ements
Ġbem used
Ġprec aut
ĠNEW T
ĠDemelz a
fashion ed
Ġut most
Ġtiar a
Ġagh ast
Ġoverwhe l
ĠEgy pt
ĠVeritaser um
A pp
A ren
B ye
C on
C ru
C edric
D raco
F in
G IC
H a
H ad
H elp
J us
M orning
M erry
N one
O y
S lyther
S urely
T r
T oo
T urn
W ant
W ouldn
a que
c orn
c od
c iety
d id
e w
f ive
f ire
f illed
h ard
i ac
i ber
i ature
k ers
p en
p ting
r s
t ter
w as
x e
Ġ ou
Ġ est
Ġ vers
Ġt il
Ġt ini
Ġa v
Ġs an
Ġs ixty
Ġw aking
Ġw rought
Ġh ook
Ġh unting
ar ant
Ġb unk
Ġb ony
Ġf urn
ĠH O
ĠH om
Ġto e
it ive
it ches
Ġc ul
Ġc redit
or p
Ġd ung
Ġd ense
Ġd ining
Ġd ates
Ġm ice
Ġm ound
Ġm ask
Ġl un
Ġl aws
Ġp ix
Ġp aced
Ġp iled
Ġp ardon
Ġha ze
Ġg ar
Ġn ap
Ġsa c
Ġe aves
us c
ve red
Ġst ab
Ġst abbed
oo ster
ĠI g
Ġwh irl
ir s
ir ing
ĠT hing
ĠT ake
ad ition
ĠS C
ĠS w
ĠS al
ĠS upp
Ġre nt
ĠD I
ĠD awlish
ur re
st re
st ers
ri elle
um er
ĠThe ory
ĠA vada
Ġsh am
ĠB ig
ĠB EEN
Ġme at
Ġme nded
ĠG ell
ĠG ive
ĠG OT
Ġr amp
Ġr iding
Ġr umble
ĠC ann
ĠC res
ĠC urses
Ġfe eding
if acts
ĠF en
Ġj ammed
Ġj aws
Ġgo ss
Ġso dden
ell ig
ast or
Ġv ow
Ġis land
ink s
Ġro ast
Ġde b
Ġsu ck
Ġoff ended
Ġch art
el t
Ġqu ant
ick y
Ġun if
Ġun ited
Ġun locked
Ġey ed
Ġcan opy
Ġsc aly
Ġsc andal
Ġbl ess
Ġpl anted
Ġpl otting
Ġcl inging
ap h
ap ot
Ġsl apping
ĠE m
ĠE v
Ġtw il
Ġtw itch
Ġ' .
ving ly
Ġgl orious
Ġgr ind
Ġgr unt
Ġgr inding
Ġgr ades
Ġfl utter
idd ling
idd ikulus
ab rielle
Ġop er
th ree
Ġwat ering
Ġte apot
Ġunder water
Ġapp le
Ġbr im
Ġbr acingly
uff les
ĠNe w
Ġstr ings
Ġdr aining
Ġche ery
Ġcr own
Ġent ertain
Ġend ure
Ġsupp orting
Ġtable cloth
ĠBl imey
Ġra pped
Ġfound ers
Ġarm chairs
Ġblack thorn
Ġset tle
ĠJ inx
ĠDo es
Ġmat ted
Ġmat ching
Ġlif ts
av y
Ġcor p
os ing
Ġste pping
Ġmut ter
Ġmin or
Ġmin iature
Ġres ult
Th a
Ġrest ed
ĠAr t
Ġscar f
Ġcold er
Ġdist ract
Ġhor iz
Ġad vis
Ġco ffee
Ġide al
ĠY ule
Ġpers isted
ci pl
cus es
Ġsign ature
Ġaw oken
Ġrel ent
Ġacc ur
Ġacc ompl
Ġfle e
ĠBe ater
Ġru g
Ġmist akes
Ġconf ided
Ġconf irmed
Ġsub d
Ġstre aking
Ġnumb ers
Ġdream ily
Ġbene f
Ġsleep ily
let on
Ġappro val
Ġtri al
Ġreg ained
Ġstupid ly
Ġcoll ected
Ġopp on
Er m
Ġint im
Ġcut s
Ġjob s
Ġdisc on
Ġanx iety
Ġhum or
Ex pecto
Ġfright en
Ġadm ire
Ġstreet lamp
Ġtem pted
Ġshr inking
Ġabs urd
Ġhol es
Sh ould
Ġsurround ings
Ġconvers ations
Ġconv icted
agg ering
Ġarg ued
Ġdisg usted
Ġpri ze
Ġsick ening
ĠAppar ated
Ġje w
Ġgrim y
Ġenc ounter
Ġphot os
Ġincl uded
Ġtrick ling
Ġtrave l
Ġsmoot hed
Ġappl auding
Ġmurm uring
Ġsuff er
Ġlunch time
Ġfil th
As k
Ġdel icate
Ġmer rily
Ġlur ch
Ġfirepl aces
OO OO
Ġdefe at
ĠMor an
Ġinno c
Ġrubb er
Ġgigg les
Ġscrat ch
cise ly
Ġkey s
Ġsuggest ion
Ġpunish ments
Ġdesce nd
stri ped
Ġfaced own
Ġrust y
Ġprevent ed
born s
Ġrese ar
Ġchin a
Ġcorrect ly
Ġaut ograph
Ġdawn ed
Ġstu bby
Al ways
Ġlump y
Ġcomment ary
Ġneighb or
Ġfrag ments
Ġsuper ior
Ġenchant ment
Ġaccus ed
Ġtick et
Ġginger ly
Ġwo lf
ĠThestr al
Ġcru cial
ĠSna pes
Ġmoun ting
Ġtart an
Ġenem ies
Ġmotor cy
ĠHA VE
Ġheal thy
Ġheaven s
Ġpenn ission
Ġfus s
Ooo h
Ġthumb s
Ġreluct antly
Ġwrest ling
Ġunn aturally
ĠEl phias
Ġnin ety
ĠMA GIC
Ġdonnit ories
Ġbann er
Ġaud ible
Ġsess ions
Ġscut tled
Ġcommun ic
Ġener gy
ĠWhee zes
ĠHang leton
ĠCont rol
Ġglum ly
Ġhandwrit ing
Ġtempt ation
Ġtwit tering
Ġboar hound
ĠLegilim ency
ĠMem ory
HAR RY
Ġinflu ence
fing ered
Ġtrop hy
Ġrabb it
ĠWonnt ail
Ġtini est
Ġeaves d
ĠGell ert
ĠCres cent
" ,
' !"
. )
A m
C E
D ear
I F
I ndeed
K n
L ucky
L umos
N or
N early
O Y
P P
R ep
S ix
T onks
U p
d led
e g
e enth
e aten
f irst
g ain
i ks
n on
p ort
r akes
t ake
w hen
y cross
y mph
Ġ uttered
Ġt ying
Ġt une
Ġt ucking
Ġt ension
Ġa lo
in a
Ġs unk
Ġs unny
Ġw oo
Ġw iz
Ġw orthy
Ġthe str
Ġh umming
er ve
ar ies
ar ian
Ġb oo
Ġb ase
Ġb ump
Ġb idding
Ġf av
Ġf iling
Ġf itted
ĠH o
ĠH ermion
at ute
is hes
Ġto y
Ġc ook
id get
Ġd ot
Ġd abbing
Ġd igging
Ġm ortal
Ġl am
Ġl em
Ġl og
Ġl oop
Ġp ark
Ġp oring
Ġp iped
le toe
Ġwas hed
ac c
us ement
Ġst em
Ġst acked
et ra
et hered
," '
Ġwh it
Ġwh ipping
ir ts
ĠM is
ĠT HAT
ad ora
Ġas se
Ġas so
ĠS y
ĠS te
ĠS PE
ĠS ometimes
Ġre ared
Ġre read
ĠD E
ĠD es
se ven
st rode
Ġfor b
Ġse aring
ĠP uce
ĠP odmore
ĠRon s
ĠA L
ĠA very
ĠA nt
ĠA ng
ĠA lecto
ill usion
ack box
ĠW il
un ts
un te
un ching
ĠB ack
Ġme lted
Ġkn elt
ĠG ol
ĠG abrielle
Ġr on
Ġr ate
Ġr uff
Ġr apt
Ġr acket
ĠC he
ĠC rum
ĠF if
Ġshe l
Ġj og
Ġj ost
ĠL ynch
Ġex it
ra ved
Ġro cket
Ġde cl
Ġover coat
Ġsu its
Ġch ucked
el ting
el est
Ġsp i
Ġsp le
Ġqu ivered
Ġcon qu
Ġun noticed
ark us
Ġsc are
Ġbl ade
ĠV ane
Ġpl inth
Ġcl ump
Ġcl aws
Ġcl awed
Ġsl am
Ġcom ers
Ġmo ck
ang ers
Ġdoor step
Ġtr acked
gg y
Ġgr an
Ġsw apped
Ġsw ift
Ġfl ag
Ġfl ush
Ġfl ashes
ĠK w
Ġlong ingly
od ied
Ġsomet hin
Ġdis he
Ġbeh ave
Ġmu gs
Ġapp ears
Ġfir ing
Ġrem in
orm ac
Ġpro b
Ġpro d
Ġpro dded
Ġpro gr
uff ed
Ġwa il
Ġgood bye
Ġcont ain
Ġdark ened
ple te
Ġstr ay
Ġcr aning
ĠQu ill
Ġsupp ressed
Ġlight ing
Ġfloor board
Ġnight s
Ġschool s
Ġblack m
az ar
Ġret orted
ĠSt r
ĠSt anding
ĠSt atute
iss y
bl ond
Ġsk ies
Ġquick er
Ġsqu id
Ġmost ly
Ġang uished
ru it
ric tion
ĠMoody s
Ġmin usc
Ġob ed
Ġow s
Ġfore f
Ġcomm otion
form ed
Ġfur t
Ġcrowd s
Ġempt ying
ĠAl b
light s
Ġbreak out
Ġext racted
Ġdi version
Ġpointed ly
Ġpower fully
sp ond
Ġacc ess
Ġinter n
Ġpat ched
Ġpat tern
Ġlay ing
ĠSn ackbox
Ġsaf er
Ġrep ut
Ġfree ly
oun c
oun ted
br ush
Ġpur ring
ason able
Ġreg istered
Ġsumm at
Ġspl attered
Ġesc aping
Ġimport antly
Ġcent ury
Ġcho king
Ġlead s
ub il
IN E
Ġz at
Ġdisc o
Ġdoub led
Ġhum il
ipp er
Ġtor ch
Ġsugg esting
ĠSome how
ĠDigg le
Ġabs or
Ġprom inent
Ġtip toe
ĠTo fty
Ġcirc les
af a
Ġbeard ed
ĠBur ke
Ġdep os
Ġfinger na
Ġstat ement
Ġappl ied
Ġmus ter
Ġmus ical
Ġprep are
Ġdeterm ination
Ġmen acingly
Ġguess ing
Ġoccas ions
Ġgra ves
Ġcomfort ably
fin itely
ĠSm elting
ĠReg ulation
Ġmurd ers
Ġeffect s
ĠTw ycross
Ġsurv ives
Ġterm s
ĠMost afa
Ġbrand ished
Ġtreat ing
Ġchat ting
Ġsquee ze
Ġwhisp ers
Ġcountry side
ĠHippogriff s
Ġshif t
min ute
Ġgreet ing
Ġcelebr ation
Ġcelebr ating
Ġconn ect
Ġtot tering
Ġincre asing
ĠLestr anges
Ġimpro ved
Ġserp ents
Ġband ages
bom s
Ġintend ing
Ġsuper b
Ġthreatening ly
Out standing
Mad am
Ġpuff ed
Ġdisbel ieving
Ġretreat ing
ĠSna re
Ġfond ly
Ġpier ced
Ġappo inted
Ġresent ment
yl ow
Ġexasper ation
ĠInquisitor ial
Ġobl iv
Ġtim idly
Ġomin ously
ĠRun corn
Ġvol unte
Ġgrump y
Se c
Ġfrustr ated
Ġslit hered
Ġinstrum ent
Ġvibr ating
Ġobey ed
Ġmal iciously
Ġloyal ty
Ġindiffere ntly
Ġtank ard
Ġdisturb ance
Ġimprove ment
Ġimprison ed
Ġorn ate
Ġunwra pped
Ġwreck age
Ġty pe
ĠClu b
Ġshaw ls
Ġgovern ors
ĠRes urre
ĠAcc ording
Ġchoo sing
Ġgrace fully
Ġcompan ion
Ġtar get
Ġglist ening
ĠStand ard
Ġawait ing
Ġbould er
ste in
Ġsnigg ering
ĠSkrew ts
Ġremote ly
Ġpredict ions
Ġinhab it
Ġder is
Ġupro ar
Ġaltern ative
Ġveget able
ĠBowtr uckle
Ġdw ar
Ġdus k
Ġconfid ently
occup ied
Slyther in
Ġsac rif
stre wn
Ġunif orm
Ġalo ft
Ġwoo lly
ĠHermion es
Ġasso ci
ĠPuce y
ĠCrum ple
Ġminusc ule
ĠResurre ction
" ...
A RE
C ho
D ORE
F ollow
G E
G G
G one
G ryff
H er
K rum
K arkaroff
L ord
M oody
M ION
N aturally
P eeves
S p
S ay
T om
U FF
W izard
Y er
Y et
a fter
b ru
b ins
d ress
e f
f riend
h old
h oles
i ation
m itted
n ed
n ame
n osed
p ital
s ive
t ically
t ical
Ġt ro
Ġt angle
in ous
in ated
Ġh ippogriff
Ġh unched
er w
ar p
nd ered
Ġb ind
Ġb uff
Ġb arn
Ġf ant
Ġf ab
Ġf ired
Ġf umes
Ġf idget
ĠH a
at t
Ġto ler
it t
Ġc ure
as m
Ġhe arts
Ġd ementor
Ġd renched
Ġm erm
Ġm ull
Ġm astered
Ġl umb
Ġl ousy
Ġp arts
Ġp ony
Ġp aws
Ġha g
Ġha m
Ġha n
Ġg illy
Ġn ails
Ġsa gging
ly ing
om plete
Ġwas hing
Ġbe ady
us ive
Ġst out
Ġst ove
Ġst ained
Ġst roll
et ime
Ġwh ip
ĠT ales
ĠT erry
ent a
ĠS in
ĠS udden
ĠS now
ĠS ection
ĠS isters
ĠS IX
Ġre act
Ġre new
Ġre acted
ĠD own
ĠD raught
ĠD angerous
ur ious
al king
se qu
st ool
am ble
pp y
all ey
Ġnot hin
ĠA ccio
ard ed
ĠHe lp
pe lled
ĠW est
ĠW AS
Ġfr ank
ĠG l
ĠG urg
Ġr ags
Ġbut t
ak in
ĠF OUR
Ġshe ll
Ġj unk
Ġj agged
Ġj ubil
Ġwhe el
Ġback f
Ġli ar
ĠL ast
Ġv ain
Ġv irt
Ġab road
Ġex cuses
Ġle ct
Ġle aking
Ġle ering
ra wn
Ġag ed
Ġag reement
Ġro ars
Ġro oted
ct s
Ġal ight
ul a
oy s
Ġch ick
Ġch anges
Ġch orus
Ġsp ying
Ġsp orting
Ġqu ality
Ġun wise
Ġun sc
Ġun rolled
Ġcan ce
ark ness
Ġsc um
Ġsc attering
Ġbl imey
ĠV oldem
Ġpl ung
Ġpl umm
Ġcl inking
Ġmo aning
ĠE dge
ĠO rac
Ġtr amp
Ġtr adition
Ġgl int
Ġgl inted
Ġgl ances
Ġright s
Ġgr unting
Ġfl ipped
ĠU r
Ġman iac
idd y
ab or
orn ed
ĠK NOW
ĠK arkus
Ġpre m
Ġte nd
Ġdis emb
Ġdis cipl
Ġapp arent
Ġlo ves
Ġlo omed
Ġtry in
Ġwa f
Ġho pped
Ġstr agg
Ġstr icken
Ġam usement
Ġdr ain
Ġdr unk
Ġcr amped
me nd
pl itting
Ġput s
Ġimp ost
Ġpass ages
Ġsur re
Ġlight er
Ġwr inkled
Ġnight time
Ġem itting
Ġarm y
Ġel abor
Ġret ort
arm ed
igh ing
Ġlif etime
Ġsqu irm
Ġsqu ashy
Ġang rier
ru g
os pital
Ġste ered
Ġexpe l
amp ions
Ġbelie f
ĠPet rified
Ġbo ils
ens es
ult ure
Ġco pper
iv able
Ġfur ry
Ġsign al
Ġheart y
ĠAl astor
Ġcomp re
Ġhat es
Ġinter jected
ĠBe ans
Ġmis under
Ġconf ide
Ġconf irm
Ġunc ertain
Ġstre ets
Ġdream y
Ġbell y
ĠPr ongs
Ġknock er
eak es
Ġclut tered
Ġreg ularly
Ġsumm on
Ġsumm oned
Ġpract iced
Ġmad ness
Ġtent acles
Ġsun shine
Ġocc ur
Ġhop es
Ġlead er
ĠEx pecto
Ġfear ful
Ġcop ied
ĠMar cus
Ġcol umn
Ġblank et
ĠSome body
Ġtra il
Ġtra iled
Ġmark ings
Ġplan ets
Ġguard ed
Ġmess ed
Ġmess ages
Ġshr ank
Ġdog s
Ġtail s
Ġfavor ites
Ġtrust ing
Ġnast ily
Ġje ered
Ġincl ude
Ġgro ping
ĠLe aving
org ivable
Ġsho ving
Ġsuspic ions
Ġemb ro
Ġaff ected
Ġaff ronted
Ġsqueak y
ĠPatronus es
ĠIm pediment
umin ous
Ġimm ersed
Ġcloud y
Ġworth less
Ġsuff oc
Ġexplo de
Ġmus cle
cern ed
Ġmen acing
Ġsens ible
Ġcomfort ing
Ġannoy ing
Ġannoy ance
Ġpure blood
Ġsque aking
Ġfo x
ĠTw ice
Ġstri p
Ġtest s
Ġincred ibly
Ġpill ars
Ġpoison ed
Ġbrand y
Ġcas es
Ġpen alty
Ġscramb ling
Ġconvin cing
Ġnewsp apers
Ġaccomp any
Ġthunder struck
Ġexist s
ĠBul strode
Ġval ue
Ġrust le
Ġvar iety
Ġeng ulf
IR I
bel ie
Ġconsider ably
Ġdrown ing
Ġiss ue
ĠFe bru
AS LEY
Ġvict ory
Ġappreci atively
Ġintrod uced
Ġthrust ing
Ġglee ful
Ġbuck led
Ġseve red
Ġtransp ort
Ġpurs uing
Ġtense ly
De ath
De finitely
Ġstorm ed
Ġpuff ing
Ġsymbol s
Ġbra very
Ġgentle men
yl ows
Ġrever se
Ġoccup ied
Ġscur ried
Ġflower y
Ġfix ing
Ġafterward s
Ġdisgu ised
Ġshak y
ĠStud ents
Im agine
Ġsell ing
Ġresc ued
Ġantid otes
Ġpel ting
Ġdram atic
Ġinspect ion
Ġreluct ant
Ġprow led
Ġdonnit ory
Ġmyst ery
BLE DORE
Pre cisely
Ġshrive led
com be
ĠHar per
Ġyel ped
Ġwhim pered
ĠMand rakes
Ġjeal ous
Ġsul ky
Ġlimb s
Ġscathing ly
Ġsignific ant
Ġeduc ation
Ġconfisc ated
ĠGobl in
Ġflin ched
Ġemplo y
Ġskul king
Ġrelation ship
ĠEduc ational
Fle ur
ocus ed
Ġpall id
Ġgon na
ĠSnat chers
Ġsympath y
Ġsolemn ly
Ġnap kin
ĠSal azar
Ġhoriz on
Ġdiscon c
iks pell
ymph adora
Ġasse mbled
ĠKw ikspell
Ġdishe veled
ounc ement
Gryff indor
MION E
ĠEdge combe
ĠOrac le
ĠFebru ary
A bs
B ack
C le
C ool
D is
F il
H ouse
I CK
M er
M ore
M ake
M ost
P ass
S H
T old
U r
X PE
a ise
b ill
b les
b reed
d ered
e ree
f rog
g iant
h am
l or
l ation
l arge
l az
m aking
p an
r ir
r ation
s ix
t em
u ated
u ine
u ction
w art
w ith
w orthy
y in
Ġt ed
Ġt um
Ġt arn
Ġt aps
Ġt asted
Ġt inkling
Ġt esting
Ġt ethered
he e
Ġa pr
in ity
Ġs ang
Ġs herry
Ġw ig
Ġh unt
ed s
Ġb ridge
Ġb udge
Ġf arewell
ĠH ospital
Ġto pped
it ure
Ġc unning
Ġc ores
as ured
or ingly
or rect
Ġhe aled
en cing
Ġd ing
Ġd il
Ġd ig
Ġd rows
Ġm op
Ġm ile
Ġm ult
Ġm arsh
Ġl ure
Ġl ining
Ġth ump
Ġp aw
Ġp itched
Ġha lted
Ġg in
Ġg uff
Ġg ames
Ġn ick
Ġn est
Ġsa uce
Ġbe ef
ve ls
Ġst ing
Ġst arts
et een
ic ting
ic les
ic ient
ĠM an
ĠM other
ĠM ons
ĠM ason
ĠT on
ĠT er
ĠT ry
ĠT rying
Ġas ks
Ġu m
ĠS er
ĠS us
ĠS ix
ĠS ens
ĠD ream
ĠD UM
ĠR el
ch an
Ġan c
Ġse lect
her ing
ĠP anting
ĠP eakes
ter m
pp ers
all s
ĠA B
Ġsh ove
Ġsh iver
Ġfr amed
ĠB et
ĠB ene
Ġr ick
Ġr aining
ĠC ottage
ĠC elest
ĠF am
Ġshe ep
Ġj am
lo pe
Ġback side
ort ment
ide red
Ġv alley
Ġv ulture
Ġle an
Ġle ague
our t
ink ingly
ist ic
ra ke
Ġag g
Ġro set
Ġal anned
Ġsu cking
ven ient
ĠN orth
Ġsp ill
ie ur
Ġun l
Ġun bl
ĠWe ekly
Ġbl unt
Ġcl u
Ġcl ap
Ġcl ung
Ġcl oth
Ġcl ums
Ġsl ashed
Ġwand er
Ġmo ves
ĠE N
ĠE u
ĠE le
ĠE ver
Ġtw ist
Ġsm ashing
ound ing
ond ering
Ġgl imm
Ġsw irl
Ġsw irled
Ġfl icking
Ġfl itted
Ġfl ailing
Ġthought ful
Ġman ager
Ġclo set
What ever
Ġdis rup
Ġapp eal
Ġlo aded
ĠShe ll
Ġrem ed
Ġbr ood
Ġbr ist
Ġpro c
He ad
Ġwa ves
No pe
ber ry
Ġho vered
Ġtal ks
Ġsn oo
Ġsn ores
Ġstr ide
per ation
Ġam ounts
Qu idditch
Ġche w
pl ic
Ġimp erson
Ġend less
Ġcle aned
Ġter rif
be at
be us
Ġsupp ly
Ġstand ard
ĠIn ter
ĠTh ird
ĠTh anks
Ġret ired
app le
ĠJ ones
ĠSt un
Ġjo kes
Ġsk ir
Ġsk ip
Ġair ily
Ġmat ches
ans hee
Ġsqu arely
ĠPer kins
Ġste aming
cl ad
Ġres isting
Ġres olutely
Ġpart ly
Ġpart ies
ĠGr ade
Ġcou ghed
Ġdist ing
Ġad ult
raw ing
How ever
Ġexp osed
Ġco b
Ġco pe
Ġfather s
Ġind ivid
Ġgu arant
Ġdec iding
Ġmar ch
Ġstraight away
Ġaw ed
Ġaw estr
Ġshort cut
rum s
ĠFl avor
Ġext ract
Ġdi al
Ġdi am
Ġdi pped
Ġexam ple
Ġround ing
Ġref us
Ġref eree
Ġfast ened
Ġmist letoe
Ġbooks he
esc ue
ĠSn uffles
Ġinc ompre
Ġbell owing
Ġtri pping
Ġdraw ling
Ġshock ing
ren ching
Ġspl ashing
Ġint ellig
Ġsun lit
Ġcreat ed
Ġthr ong
Ġtrain ers
Ġass uming
Ġass ortment
Ġrepeated ly
Ġign ited
Ġbat tling
Ġvisit s
Look s
Ġz ig
Ġz ero
ĠEx cept
rim med
Ġgle am
Ġmir ac
Ġmir th
Ġmir acle
Ġtruth fully
Ah a
ĠTH IS
Ġglo ating
Ġgrou ped
ĠSome where
Ġmark ing
Ġord ering
Ġshr ink
Ġadv ise
ote go
Ġstaff room
Ġtow el
ĠDis illusion
Ġmass aging
Ġnotice board
Ġgray ish
Ġsick ly
Ġgrim aced
Ġrock y
Ġgen ius
Ġgen uine
Ġess ence
Ġdri ft
Ġtrick y
Ġtrick le
Ġemb laz
Ġcro cod
Ġwin cing
Ġconcentr ated
AR D
ĠAny thing
Ġsque aling
Ġbab ble
Ġdelighted ly
ST U
Ġkid na
Ġdetermined ly
Ġperm an
Ġgener ous
Ġsquare s
Ġtoad like
Ġstro ked
Ġsmir k
aun ts
Ġpin striped
Ġjud g
Ġtriumph antly
Ġfan c
Ġreapp earing
eless ly
Ġcontr ad
Le vel
Ġconj ure
AT ION
Every thing
Ġblo ss
Ġmod est
Ġaband on
Ġscow l
Ġembarrass ing
Ġident ity
Ġdisappear ance
Ġcollap se
ĠUnder age
ĠKn ock
,' "
Ġwitness es
Ġdod ging
Ġcough ing
ĠSna p
Ġbetr ay
Ġbull frog
Ġreb ell
Ġwhee zing
Ġhudd le
Ġrever ber
Ġacce ler
Ġapolo getically
Ġassist ance
Ġpillow case
Ġobl ig
Ġpeace ful
ĠChann s
Ġtim et
Ġharsh ly
Ġdisappro val
Ġbeast s
Ġprov ide
Ġprov ided
Ġadmir ation
Ġtur key
Ġph r
Ġleaf let
Ġblur ted
Ġuncon cerned
En ough
Ġpati ently
Ġtrait ors
Ġunn atural
ĠEl ix
Ġobser ved
Ġobser ving
Ġabsent mindedly
sm elling
Ġqual ified
ĠRest riction
Ġdevelo ped
Ġelder ly
Ġsprout ed
Ġstif led
Ġheadmistress es
Ġtrem ble
ĠGold en
Ġswarm ing
Ġteen age
ĠUnf orgivable
Ġencourag ingly
hearted ly
Ġswive led
Ġsympathe tic
Ġstrang est
Ġmethod s
Ġlat est
Ġmes elf
Ġgif ted
Ġprior ity
pos al
Ġcompr ised
Ġactiv ity
Ġkno bbly
ĠFR OM
Ġsubs ided
ĠCleanswe ep
Ġconduct or
Cru cio
Ġfurn iture
ĠHom tail
Ġpix ies
ĠCann ons
ĠEv ans
Ġintim id
Ġstreetlamp s
Ġmotorcy cle
Ġshel ter
Ġforef inger
ĠAlb ania
Ġreput ation
Ġfingerna ils
ĠSudden ly
Ġrenew ed
Ġchick ens
ĠVoldem or
Ġembro idered
IRI US
ĠMons ieur
ĠDUM BLEDORE
ĠBene ath
Ġrick ety
Ġawestr uck
Ġemblaz oned
Ġcrocod ile
) ;
A ST
B y
B ad
B rilliant
C r
C alm
H O
H em
H and
H alf
H appy
I ts
I ES
L Y
L ast
L ove
M ind
O L
O nce
O pen
R ita
R iddikulus
S lu
T e
a ft
a ult
b ing
d ain
g om
g ro
g old
g row
h alf
h ouse
h igh
i ate
j uries
l ist
o ise
o logy
r ors
r action
t imes
t ips
u led
v an
w it
y eh
Ġ i
Ġ idly
Ġt ide
Ġt ug
Ġa ck
Ġa xe
Ġs ore
Ġw ink
Ġh i
Ġh ip
on ia
ar o
nd id
Ġb um
Ġb ond
Ġf udge
Ġf ret
Ġo o
Ġo ve
Ġo il
Ġo pt
ĠH and
ĠH aven
ĠH ope
ĠH aving
at ory
is m
Ġhe atedly
en ch
en etra
Ġd iet
Ġd rill
Ġd ots
Ġm ort
Ġm ix
Ġm ousy
Ġl ain
Ġl il
Ġl ord
Ġl eng
Ġl uminous
Ġth inner
Ġp ang
Ġp ies
Ġp amp
Ġp ants
es e
Ġha unted
Ġg un
Ġin it
Ġn ut
ly m
Ġy elp
Ġe c
Ġe ld
Ġe cl
Ġhis tor
Ġst ung
Ġst rolling
Ġst aggering
ĠI gn
Ġon ion
Ġon coming
ic rous
ver bal
Ġwh ir
Ġwh oos
ir able
ĠM Y
ĠM ay
ĠM ain
ĠM ight
ĠM ind
ĠM uff
ĠM IN
ĠT R
ĠT ale
ent ine
ĠS orc
ĠS olution
Ġre ct
ur a
ur ance
ag r
ke mpt
ĠP art
ill es
ĠHe x
em br
ĠW ouldn
Ġup turned
Ġout break
Ġout lines
un ior
ĠB oot
ĠB arely
ĠB ole
ĠG reen
il iar
Ġr ic
Ġr umbled
Ġr anks
Ġr ooster
ĠC ormac
to gether
if ully
ĠF o
ĠF uture
Ġj ars
Ġj ackets
ble ed
qu ired
qu oise
ĠL ived
Ġv ic
ud icrous
Ġle aked
ink le
ist ent
ist ra
ist inct
Ġro b
ff ic
ff ees
ul ent
oy les
ĠN ine
ĠN ymphadora
el ia
Ġsp indly
ie ves
Ġun st
Ġun kempt
op ed
op en
Ġsc orn
Ġbl i
Ġpl ac
Ġpl us
Ġpl ug
Ġcl anged
Ġsl ower
Ġsl apped
Ġsl ouched
bb erw
Ġor b
Ġhead less
Ġhead quarters
Ġmo les
ĠO kay
ĠO lym
Ġtw irling
Ġtw inge
Ġsm iles
Ġdoor bell
Ġtr ooped
Ġgl ued
Ġgl azed
Ġgr acious
Ġsay in
Ġsw im
ol k
ĠU nd
aus es
Ġman ners
Ġpre f
Ġpre y
Ġim ages
Ġim itation
Ġim itated
Ġdis li
Ġdis dain
Ġwhere as
Ġke eled
ect um
uff ing
We re
Ġwa x
Ġcont ribut
Ġatt racting
Ġsn ore
Ġsn oring
Ġsn arling
ough ing
Ġneed ing
ĠCh udley
Ġcr ude
Ġcr umbling
ung i
pl ain
Ġimp enetra
Ġhur led
Ġpass es
Ġend ing
Ġter se
ĠIn juries
Ġcur l
Ġcur sing
oot e
Ġem ph
Ġra il
Ġcall s
arm ing
ail able
Ġsk idding
ĠUn less
Ġbook ed
Ġmat tered
Ġsqu el
ten ance
Ġcor k
ru cted
Ġcare ers
Ġcare lessly
Ġunt ied
Ġkill er
li ato
Ġres olved
Ġres ume
Ġscar red
Ġow ing
Ġrec overed
Ġrec over
Ġcou p
Ġdro ppings
Ġbad ger
Ġstart ling
ph ant
Ġexp ulsion
Ġco iling
Ġco inc
Ġwork ers
Ġsle et
sw ept
Ġgu ide
Ġvis ions
Ġstraight er
Ġstop s
ene lope
Ġbur den
Ġri bb
Ġcomp ut
Ġexam in
Ġbright er
Ġcomple ted
Ġref uge
Ġru in
Ġins ulted
Ġpocket ed
Ġodd s
Ġsaf est
Ġrep orter
Ġshut ting
Ġdiffere ntly
Ġspr aying
Ġpur ch
Ġtri als
OU LD
Ġreg ain
Ġreg urg
Ġcoll eag
Ġquestion ed
Ġesc ort
Ġburn t
Ġemer ge
Ġve in
Ġwarn ingly
Ġign or
Ġinv iting
ĠSh op
Ġcons ult
IN KS
not us
Ġmention ing
Ġz oo
ĠEx pect
Ġfear fully
Ġir re
Ġtrans fer
Ġtrans fig
Ġdeser ves
Ex pelliarmus
Ġsister s
Ġbas ic
Ġbas ement
Ġguard ian
Ġshr unken
Ġabs ently
Ġabs olute
Ġsol ution
Ġclassroom s
Ġpol tergeist
ĠDis posal
Ġcount less
Ġfain ter
Ġpack ages
Ġimpati ence
Ġfixed ly
Ġhon ored
Ġdress er
Ġgrim ace
Ġrock ing
ĠWh ite
Ġdri ver
Ġgrave ly
Ġvill agers
Ġcompl ained
Ġappl aud
Ġink y
Ġexplo ding
Ġling ering
ĠRem embr
Ġnois ily
Ġexper t
Ġremain der
Mr s
Ġbrill iantly
Ġbrill iance
Ġswall ow
Ġdam aged
OO M
Ġsque al
Ġunf ocused
arr anged
Ġeight een
Ġstick y
gr ay
Ġgul ping
Ġperform ing
Ġscrat ches
Ġperm it
Ġgener ations
Ġstation ed
ĠHalf way
Ġchat ter
Ġsour ces
Ġlim it
Ġpump ing
Ġpump kins
Ġdev ast
ĠMo ony
Ġviol ence
Ġconst ric
Ġtort uring
ĠOF F
RY FF
Ġeng raved
Ġgrate fully
Ġcelebr ate
Ġcelebr ated
Ġfort night
Ġprodu cts
Ġbrief case
Ġgras ping
Ġdism issed
Ġcapt ured
Ġpred iction
Ġaband oning
Ġboat s
Ġscra pe
Ġcoat s
Ġtenn is
ĠUnder ground
ĠKn uts
Ġappreci ated
Ġban isters
Ġfrag ile
Ġweekend s
Ġaccus ing
De f
Ġhill s
Ġreck less
Ġequ ally
ĠConf und
Ġexamination s
aa aa
Ġ.. ..
Ġcack le
Ġsubst it
Ġrevol ted
ĠST INKS
Ġbull et
Ġwhee zed
Ġpup il
ĠWhe ther
Ġoccup ants
Ġbom b
Ġattend ed
Ġver tical
Ġbal ance
Ġdiv ided
ĠRu beus
Does n
Im pediment
vid ently
Ġvac ation
Ġtur quoise
ĠSk iving
Ġrad io
ĠInfer ius
Ġbark ing
Ġobsess ion
Ġpul se
Ġslipp ers
Ġincant ations
Ġpunct uated
Ġprow ling
Ġevent ually
Ġras ping
Ġremark ably
Ġcontempt uous
Ġcoward ly
Ġdefens es
Ġsurprising ly
Ġtempor ary
ĠRest ricted
sk i
then ing
Ġshaw l
Ġcomb ination
Ġbru ised
ĠPre fect
Ġrub ies
Ġrejo ined
ĠUnf ogging
Ġaddition al
Ġencourag ement
Ġinex plic
ĠPol tergeist
Ġextend ed
Ġsphere s
Ġskelet al
Ġcub icle
Ġdign ified
Ġvom it
Ġreassuring ly
Ġanticip ation
Min istry
Ġbol ted
Ġpine apple
Ġwhiz zing
ĠMon ster
Ġchallen ge
Ġsplin tered
ĠGu ide
iby ll
Ġleprechaun s
mar ked
Ġhed ges
Ġhaught y
Ġinsp ir
Ġaggress ively
Ġintrig ued
IND OR
Ġsoothing ly
Ġmill ion
ĠMir ror
Ġast ounded
Ġcleve rer
Ġflex ing
Ġexecution er
Ġcul pr
ĠThing s
ĠFen rir
Ġtwil ight
Ġresear ch
Rep aro
Ġwiz ened
Ġlem on
Ġsple ndid
Ġprob ation
Ġprogr am
Ġfurt ive
ĠSnackbox es
Ġdepos ited
Sec ond
Ġinhabit ants
Ġsacrif ice
Ġfab ulous
Ġgilly weed
Ġfrank ly
Ġvirt ually
Ġplung ing
Ġdisemb odied
belie vable
Abs olutely
tem pered
Ġtum ult
Ġapr on
Ġding y
ĠSus an
ĠCelest ina
Ġclums ily
Ġsnoo zing
Ġcob we
Ġindivid ual
Ġzig z
Ġfanc ied
ĠElix ir
Ġack now
Ġpamp h
Ġmoles kin
Ġemph as
Ġcolleag ues
RYFF INDOR
Impediment a
' ?
- ?"
A K
A Y
A a
A vada
B in
B it
C orrect
D udley
D ON
E h
E at
F Y
F ather
F rom
G eorge
G lass
H edwig
K new
L ong
L ily
M c
M ount
M udblood
O ff
O ho
R ID
S n
S ometimes
T HER
U CH
W HAT
a ign
b od
b stones
b ounds
c re
c old
c ap
d om
f act
f ish
g l
g en
g one
g ive
g my
g aph
h n
h is
h or
h ire
j ured
k ind
l ting
l ius
m ens
p ret
p osed
r us
s ize
s aid
t es
u k
u its
w all
w atch
y r
y our
y gmy
z ily
Ġ QU
Ġt attered
in qu
Ġs ly
Ġw ool
Ġw igg
on ies
er k
nd ane
Ġb i
Ġb on
Ġb rew
Ġb aw
Ġb ows
Ġf urs
Ġf its
ĠH erm
at isf
Ġto ssed
it led
it iously
it ary
Ġc ured
Ġc aptain
Ġhe y
Ġhe ars
Ġd om
Ġd anced
Ġd ash
Ġm arm
Ġm angled
Ġl ent
Ġl inked
Ġl oos
Ġl enses
Ġl udicrous
Ġth us
Ġp ained
Ġp ork
Ġg ou
Ġg agged
Ġg uts
Ġn ave
Ġn icked
Ġn urse
Ġn aked
Ġn agging
Ġn avy
le ction
Ġsa lt
om en
ot ions
Ġbe ech
ac ock
im ents
im med
im ply
us sed
Ġst y
Ġst itch
Ġst ee
Ġst owing
Ġst inking
Ġst ony
Ġst umbling
oo led
Ġit ems
et hing
et ched
ic it
ic ately
ro ken
ir c
ut es
ut ting
ĠM e
ĠM id
ĠM ull
ĠT oo
ĠT old
ĠT urn
ĠT roy
Ġwe ighed
Ġwe aving
Ġwe ighing
ent er
ad ually
ĠS ince
ĠS erv
ĠS ibyll
Ġre ly
ĠD im
ĠD umb
ĠD ID
ur pr
al ade
se mp
ag ne
st ood
st ant
Ġwit hered
ch ie
ĠP R
ĠP ull
ĠP udd
ĠP AT
ĠP ersonally
Ġnot ices
ĠA ge
Ġsh ack
Ġher d
em ed
Ġdo zed
un ities
ĠB it
ĠB ody
Ġme als
Ġme gaph
Ġkn ack
Ġkn itting
ĠG ET
Ġr ay
Ġr ue
Ġr aced
ĠC ream
ĠC ourt
ĠC oote
Ġshe er
Ġshe af
Ġshe pher
Ġso cc
Ġso aked
Ġwhe els
lo d
Ġback ground
ort s
Ġli ber
ide lius
ĠL ight
ĠL ine
ĠL ost
Ġv ase
Ġv iciously
Ġle nd
Ġle ered
ist ration
ra ight
ra ising
Ġro ot
Ġal m
Ġal ann
Ġal ike
Ġal together
Ġde br
Ġde pend
ff in
ul s
ul se
Ġover t
Ġsu ited
Ġpo ker
Ġdown right
Ġdown fall
iz zy
ĠN iff
Ġch ink
Ġch ipped
Ġch alk
el ine
Ġsp it
Ġsp uttered
Ġqu a
Ġqu iver
Ġus hered
Ġun p
Ġun he
Ġun rave
Ġun ique
are nts
Ġwor ries
Ġjust ice
Ġsc al
Ġsc rabb
Ġsc rawled
Ġbl ushed
Ġbl aze
Ġbl ustered
ĠV en
reat hing
Ġcl attered
Ġcl ues
ap or
Ġsl ime
Ġsl anting
Ġcom ments
Ġhead first
ĠE ight
ĠO ld
Ġsm ash
Ġvo s
Ġtr aced
Ġtr udged
au c
au gh
inn ings
pt itiously
Ġgr anted
Ġgr adually
Ġfl aw
Ġfl anked
idd led
Ġar ts
Ġar row
Ġar rows
Ġpre ten
Ġdis o
Ġdis hes
Ġpe pp
row ed
Ġbec omes
Ġmu ndane
Ġapp e
Ġlo oming
Ġlo lling
Ġspe c
Ġspe ck
Ġspe cul
mb er
Ġbr ush
ĠDe vil
Ġac id
Ġpro vo
act ory
Ġtry outs
Ġpr inting
Ġdes cent
Ġcont ent
Ġcont am
Ġatt racted
Ġtal es
Ġtal ented
Ġstr angle
ĠCh ampions
Ġwind s
Qu otes
Ġdr um
Ġcr ates
Ġcr unching
Ġcr onies
Ġimp ass
Ġimp ulse
Ġhur ts
Ġent itled
Ġsur ly
Ġhel m
ĠTh ank
Ġwr inging
Ġsecond hand
Ġword lessly
we et
Ġem an
Ġarm ed
ee ee
az ing
Ġhair cut
Ġper il
Ġret al
Ġret ching
Ġnothing ness
ĠJ an
bl iv
Ġair pl
ĠUn break
Ġsqu aw
Ġfire work
Ġstud ied
sh ould
sh op
ib uster
Ġunt r
pr ints
Ġpart ing
Ġgre ed
Ġrest lessly
Ġtre asures
Ġglass y
Ġfore arm
ĠAn th
Ġad vert
Ġexp anded
igg y
Ġpain t
Ġco bbled
rac ed
Ġind ex
Ġind istinct
ĠWhat ever
ĠY er
Ġfur rowed
Ġfour s
Ġgu est
Ġdec ip
Ġdet ached
Ġmar g
Ġdef lected
Ġlaugh s
ĠClo se
ĠFil ibuster
Ġref erence
Ġpat rol
Ġkit ten
imb ulus
Ġmis mat
Ġmist r
Ġins isting
Ġwatch ful
Ġswe ep
ĠSn ive
Ġfight ers
abb ling
Ġears plitting
Ġgas ps
Ġpur sed
Ġappro ve
Ġrun es
Ġrepe l
Ġreg ime
Ġev apor
Ġwrit es
ĠRe ally
Ġspl ashed
Ġspl ash
Ġint ention
Ġsun set
Be fore
Ġwarn ings
Ġbar rel
ub s
Ġcons ol
Ġvisit or
Ġreason able
Ġdisc omfort
Ġdoub ts
ĠEr ised
Ġsing ed
Ġcop ying
ĠPat rick
Ġchamp agne
Ġhast e
Ġglo ssy
ament i
Ġwild er
Ġhung er
Ġtight er
Ġtra ffic
ON S
ĠTr ue
blet onia
Ġform s
Ġview s
Ġproper ties
Ġsol itary
Ġpost p
ĠDad dy
Ġbound aries
Ġsmell y
Ġpassage ways
Ġeyeb row
Ġcirc led
ogra p
ĠGo bstones
Ġpow dered
Ġgen ially
Ġess ays
Ġtrick led
ceed s
Ġbew itching
ĠIm pro
Ġrece iver
Ġrece iving
Ġspark led
oss ibly
ĠWand s
Ġprep ar
Ġappre hension
Ġposition ed
Ġgra pef
ĠPh leg
Ġsnat ch
atter gro
Ġlur ked
Ġjinx ed
Ġinterrup tion
Ġfat al
Ġeffect ive
OO D
Ġfold s
ĠTw elve
Ġwra pper
Ġstri pped
ific ation
Ġconcern s
Ġunf ur
Ġconce aling
ĠYour s
Ġcharm ing
ĠGrind ylow
ĠDisappar ating
Ġwel coming
terbe ers
Ġsuit case
zz le
Ġcounter c
Ġplatform s
Ġbuild ings
Ġunw orthy
Ġpin ch
Ġenvelo pes
Ġlad ies
Ġbeaut y
For get
Ġaston ishing
Ġcontr act
Ġmurder ous
Ġrese mb
Ġreport s
Ġpred icted
que ly
Ġinterv als
Ġfal tered
Ġaccompan ying
Ġscra ped
Ġarr ange
Ġsniff ing
oc he
Ġpurs ued
hens ible
ĠBulgar ia
ĠBulgar ians
foot ed
Ġwar locks
Ġwithd rawing
Ġprick led
Ġwaist coat
Ġnecess arily
Ġenthusi astic
Ġblaz ed
Ġclamb ering
Ġlength s
Ġreass ured
Ġshield ing
Ġappo int
icis m
ĠMal adies
Ġsched ules
Ġhamm ered
Ġbeckon ing
Ġsmo ky
Ġacce pting
Ġresist ance
Ġfalse ly
Ġlaz y
Ġver ge
Ġdiv ide
ĠFrog s
Ġvol ume
Ġcurre nt
Ġvac ant
ĠOut side
Ġadmir ing
four th
Ġcra zy
Ġbeam s
Ġconfess ion
Ġhost age
Ġhost ages
Ġmal icious
ĠRom ania
Ġcrim inal
Ġdwell ing
Ġpul sing
Ġowners hip
Ġindiffere nt
Ġwise ly
Ġaward ed
Ġhar assed
Po or
Po int
Ġfascin ated
Ġsal am
Ġrot ten
Ġqual ities
Ġreco very
Ġens l
Un less
Ġsess ion
Ġwrigg led
Ġwrigg ling
Ġconceal ment
Ġperiod s
Ġapolog ize
Ġsip h
Ġrejo in
Ġshrewd ly
Ġentr ances
Ġperf umed
uber ant
Ġtact ics
Ġmim bletonia
Ġperfonn ed
Ġsympathe tically
Ġbully ing
Ġded uced
Ġdign ity
Ġclas ped
Ġresign ation
Ġrefer ring
Ġfreck les
Che ers
look ers
Ġcraw l
Ġcraw ling
ĠBas ilisk
Ġclam my
Ġelb ows
Ġmusc les
Ġskept ically
ĠSpe cial
ĠFort escue
Ġexhaust ion
Ġspo il
Ġtext book
Ġcris p
Ġreproach ful
Ġsid led
Ġniff ler
ĠTot alus
Ġsocket s
Ġchort led
Ġunner ved
Ġcritic ize
Ġintrud ers
Ġunnecess ary
Ġfulf ill
Ġpomp ous
iche ver
ĠWIT H
Ġrout e
ĠLo ony
Ġexer cise
Ġimpl oringly
Ġdisple asure
ĠGryffm dor
Ġunconvin cing
Ġmalevol ently
Ġoverwhel m
App arently
Ġest ab
Ġav idly
orp us
ĠIg notus
Ġsham rock
Ġquant ity
Ġgrind ylows
Ġaccur ate
Ġsubd ued
Ġinnoc ently
Ġeavesd ro
Ġthestr al
Ġlam pl
ĠDes p
Ġspi ked
Ġobed iently
Ġabsor bed
Ġobliv ious
omplete ly
ĠSin istra
Ġbutt ons
Ġbackf ired
Ġwaf ting
Ġsurre ptitiously
Ġcompre hension
Ġengulf ed
Ġdisconc erted
Mer lin
Ġanc est
ĠAB OUT
Ġterrif ying
Ġskir ting
Ġdisting uish
ĠDisillusion ment
Ġjudg ment
Ġphr ase
Love ly
gom ath
Ġdrill s
Ġlil ac
Ġec st
Ġeld est
ĠMain tenance
ĠSorc ery
Ġric oche
ĠFo e
Ġvic inity
bberw orm
ĠOlym pe
ectum semp
Ġimpenetra ble
Ġterse ly
Ġcomput er
ĠExpect ations
Ġapplaud ed
ĠRemembr all
Ġinspir ation
Ġculpr it
Ġmarm alade
Ġnave l
ĠMull et
Ġmegaph one
Ġsocc er
Ġdebr is
ĠUnbreak able
Ġmismat ched
ĠImpro per
Ġgrapef ruit
ĠPhleg m
ectumsemp ra
A U
A c
A cc
A IN
B r
B ig
B athilda
C are
D ementors
E A
E P
E ver
E AR
E VE
E asy
F if
F udge
G W
G ET
H orned
I Z
I KE
L adies
M ar
N ight
R os
R iddle
R ubb
S er
S aid
T il
T rying
U ST
W atch
b are
b ound
b age
b ility
c ary
c alled
d og
d inary
e er
e very
e ague
f r
f old
h ave
h inx
j usted
l ance
l ies
m akers
n old
n ie
n orm
o cle
o culars
p in
p id
p al
p ers
p ower
r al
s ir
s ight
s pecially
t ress
t urbed
t elling
v est
w ashed
y eah
Ġ iced
Ġt id
Ġt un
Ġt ire
Ġt ies
Ġt awn
Ġt aut
Ġt ipping
Ġt akin
he cary
Ġa iry
Ġs om
Ġs outh
Ġw retched
re mon
ou ble
Ġh ing
Ġh ither
Ġh ints
ing le
er b
ar gh
Ġb umping
Ġb isc
Ġf ame
Ġf ile
Ġf ried
Ġf rying
Ġo af
Ġo men
ĠH olding
ĠH ardly
is ons
is be
Ġto ads
Ġto ffees
it ro
Ġc ore
Ġc ord
Ġc ere
Ġc ages
Ġc aves
Ġc afe
as ion
as el
as ily
ll ab
id able
or i
Ġhe ave
en ior
Ġd art
Ġd angled
Ġd omed
Ġd arling
Ġd agger
Ġm asks
Ġl ic
Ġl od
Ġl ank
Ġth udd
Ġth irst
Ġp ad
Ġp ant
Ġp hy
Ġp ipes
Ġp iggy
Ġha w
Ġg or
Ġg aps
Ġg aining
Ġg amb
Ġin ad
Ġin se
Ġin ward
Ġn utter
Ġn ational
Ġsa le
Ġsa iled
Ġsa cks
om b
om ora
Ġwas p
Ġwas t
Ġbe f
Ġbe in
Ġbe an
Ġbe gged
Ġbe gging
Ġe arm
Ġe cc
im ps
Ġst ated
Ġst ale
Ġst inging
oo ps
oo peration
Ġon lookers
et ops
ic ation
Ġwh a
Ġwh irling
ir on
ir ingly
ĠM en
ĠM ist
ĠM ars
ĠT ears
ĠT EN
ĠT urning
Ġwe ars
ent ric
Ġas hes
ĠS H
ĠS U
ĠS lo
ĠS ho
ĠS orry
ĠS ectumsempra
Ġre arranged
ĠD er
ĠD iddy
ur st
ur ably
ur dy
al ers
al though
ag ons
ĠR ain
ĠR od
ĠR ipper
ke eping
ook s
am iliar
Ġse al
Ġse aling
Ġse ction
Ġse lected
um an
ĠP u
ĠP ow
ĠP enelope
ĠP ygmy
ter y
ĠA c
ĠA round
ĠA LL
Ġsh unted
Ġk icking
ĠHe l
ĠHe y
ĠHe alers
pe nding
ĠW OR
ĠW ait
ĠW ANT
Ġfr idge
ight y
Ġout b
ce ly
ce pted
ce remon
ĠB ra
ĠB ACK
Ġne phe
ĠG ames
il ized
Ġr auc
ĠC ress
ĠC ON
ĠC OME
ĠC ooperation
Ġfe athery
Ġall eg
ĠF ight
ĠF rench
ĠF idelius
Ġj umble
Ġgo at
ck les
Ġso ar
Ġso aking
Ġso pping
Ġso ciety
ell y
ast y
lo ding
qu al
Ġli ver
ĠL ies
ĠL ying
Ġex isted
Ġle athery
ink hard
Ġde g
Ġde ars
Ġover he
Ġover night
Ġsu p
Ġpo les
Ġpo ised
Ġoff ense
iz zing
ĠN aturally
ĠN OW
Ġch ap
Ġch int
Ġsp ared
Ġsp ine
Ġsp attered
Ġsp attergro
Ġsp hinx
Ġqu arters
Ġcon sequ
Ġcon venient
ick ering
ie val
Ġun ch
Ġun sure
Ġun seen
Ġun beat
Ġun ceremon
Ġhand y
ĠWe ather
Ġwor m
ĠPro bably
Ġcan non
Ġsc en
Ġsc abbed
Ġsc uffling
Ġsc hem
reat h
Ġpl ot
Ġpl um
Ġpl astered
Ġcl ang
up hor
Ġsl owing
Ġcom bat
Ġhead lights
ĠE vidently
ĠO cc
ĠO bviously
ĠO UCH
Ġtw elf
Ġsm acking
Ġstill ness
Ġtr und
Ġtr otting
Ġgl immering
Ġgr ade
Ġgr ues
Ġgr otes
Ġsw ap
Ġsw earing
Ġfl agon
Ġfl ourish
Ġman or
Ġen able
wn y
ft ily
th ought
Ġpre occupied
Ġim it
Ġdis ent
Ġpe acock
Ġlo ftily
Ġbet ting
Ġbr us
Ġbr ings
Ġbr aced
Ġpro ven
Ġpro ving
Ġsec urely
nt il
Ġpr int
Ġcont racted
Ġcont ented
Ġho ver
Ġho isting
Ġatt ach
udd ers
Ġflo ck
Ġflo bberworm
Ġwal rus
Ġstr ate
Ġwind sh
Ġwind swept
Ġopen ly
Ġcr ad
Ġcr imes
Ġcr ushed
Ġcr ushing
Ġcr ashes
Ġpass ers
ĠQu ite
Ġend ured
Ġstand ards
ĠIn ner
Ġgi ld
iet ies
Ġsound lessly
Ġem itted
Ġem otions
Ġarm ful
Ġper se
Ġset tling
ĠDeath stick
ip sed
Ġhelp lessly
ĠSt ay
ĠSt inks
Ġbook list
Ġmat tress
Ġfire side
Ġfire whisky
sh arp
Ġclass mates
ĠDark ness
Ġcare less
ĠPer ce
Ġunt ouched
ey ond
Ġexpe cto
Ġmut inous
ret ty
cl ot
Ġrest ore
Ġrest less
Ġrest ored
Ġtre mend
Ġtre etops
Ġrec oll
Ġrec ru
Ġrec ited
Ġrec alled
Ġdist ressed
Ġdist orted
ĠAn n
Ġad op
Ġexp ensive
ann y
ann us
Ġhour glass
Ġcontin ually
ci ence
Ġpar lor
Ġdet ected
Ġdet ailed
Ġann ouncing
Ġann ouncement
Ġhope less
Ġhit ched
ĠAl ways
ĠFl ore
cept able
Ġcomp osed
Ġtalk in
Ġbu zz
Ġrel ish
Ġrel inqu
Ġkind s
Ġinter pret
Ġinter cepted
Ġmon ocle
Ġref r
ĠBe g
Ġru by
Ġru bble
Ġins ults
Ġthick er
Ġheav ier
Ġblood stained
Ġstre wn
Ġinterest s
Ġpres um
Ġspr ung
Ġspr int
Ġspr outs
Ġappro pri
Ġtri es
Ġtri ple
Ġtri angular
Ġrun e
OU GH
Ġfa iry
str ing
Ġ1 1
Ġ1 7
Ġ1 9
Ġdraw led
Ġchest s
Ġwrit hed
Ġgiant ess
Ġspl attering
Ġcoll aps
Ġesc orted
Ġint act
Ġexpression less
Ġcreat e
Ġattack er
Be en
Ġsword s
Ġcons ulted
Ġcons ulting
Ġcons cience
Ġz is
Ġball oon
ĠEx actly
ĠEx pelliarmus
Ġdisc ern
ĠNot t
Ġrat tle
Ġcabin ets
Ġir res
Ġtrans fonn
Ġstom ped
Ex plain
Ex ceeds
Ġtor so
Ġshrie ks
ĠTH REE
ĠSec ond
Ġgrow l
Ġgrow ling
Ġfer oc
Ġchild hood
Ġprom pted
Ġtall est
Ġdem anding
Ġform er
Ġsol ve
Ġcrack s
Ġdest ruction
Ġtail ing
Ġdust bins
Ġpol ishing
Ġtow ered
Ġweak ened
Ġsecret ly
Ġconv iction
Ġpresent ed
Ġrepl acing
Ġsmell s
Ġpossess ing
Ġmag enta
Ġgray ing
ogra pher
Ġele phant
clock wise
Ġgard ens
Ġfist ful
ĠSee ing
Ġfinger tips
Ġcurtain ed
Ġaff air
Ġsmoot hing
AR GH
AR TS
Ġune art
Ġune ven
Ġune ase
Ġund o
Ġspect ators
ĠAny one
ias co
Ġwarm er
Ġwarm ly
Ġfil m
Ġcolor less
Ġthreat en
Ġdel ay
Ġdel icately
Ġbin oculars
Ġmer c
Ġsatisf ying
Ġrev ive
Ġmurd ering
Ġfold ing
Ġalarm ingly
Ġsurv iv
ST OP
Ġunf air
Ġtest ily
Ġeight y
Ġremo ving
Ġpriv ile
gr and
gr ate
sc ape
Ġmood ily
Ġstream ed
Ġperform ance
Ġcorre spond
ĠGrawp y
Ġva ults
Ġstation ary
Ġsuit able
Ġtreat ment
Ġaim s
Ġlim ited
omed a
ĠHad n
ĠSl inkhard
ĠPo or
ĠIs n
Ġchar ging
Ġtoile ts
Ġscree ching
Ġscree ches
Wh ile
Ġearn est
Ġrust led
AT E
Ġflick er
Ġwound ed
Ġcamp aign
Ġrisk y
Ġchuck ling
Ġcard board
Ġfort ress
Ġmod ified
Ġprodu cing
Ġamb er
Ġris ks
ĠExp loding
Ġwis dom
ĠSp orts
Ġembarrass ment
Ġdawn ing
ĠTW O
Ġforg iven
Ġopport unities
Ġweap ons
Ġdisappear ances
Ġband aged
ĠKn ut
ĠKn owing
Ġwrist s
Ġgarg oyles
Ġsuppor ter
Ġintrod uction
Ġvelve ty
Ġidi ots
Ġlump s
Ġneighb oring
Ġpurs ue
Ġblast ing
Ġdod gy
Ġsuccess fully
IT OR
Ġtear ful
Ġhill side
ĠPortkey s
Ġfail ing
Ġpuff s
ĠWar lock
Ġden ying
Ġmyster iously
Ġrecord s
ĠParse hn
Ġhorn s
Ġhorn ed
Ġbeet les
Ġpit iful
Ġpudd ings
Ġreb ounded
Ġresent fully
ball s
Ġtart ly
Ġclub s
Ġpenetr ated
fall en
Ġobl iter
Ġflower bed
ĠGet ting
Ġconcl uded
Ġloc ation
Ġretrie ved
Im per
Ġthread bare
Ġpenn itted
ĠEng land
Ġchess men
Ġtroub les
Ġdemonstr ating
Ġinvent ing
Ġgogg led
Ġteac hes
ĠSquib s
AA AA
Ġconfess ed
Ġpouch y
Ġnightmare s
Ġpati ence
Ġvig il
Ġpunct ured
Ġras p
Ġras ped
pelli annus
Ġjerk ily
Ġimprison ment
Ġsaus age
Ġaddress ing
Ġhicc up
Ġmor ale
Ġorn ament
Ġcream s
Ġredd er
Ġredd ening
Ġmaintain ed
Ġmaintain ing
Mugg les
Ġfish y
Ġscut tling
Ġrestr ain
Ġcust ard
Ġwhim per
ĠMand rake
Ġdish on
Ġcreep y
ĠWhee zy
RON UM
Ġmourn ful
ĠAm elia
Ġchoo ses
ĠON E
Ġcompan ions
Ġinqu iry
Ġinvol ving
Ġcongratul ate
Ġcongratul ations
Ġaver ted
Ġaver age
Ġstrict ly
Gr ind
Min erva
Ġstonn ed
sec ret
Ġdisag ree
Ġsilhouet ted
Ġsilhouet te
Ġparaly zed
Ġhyster ical
Ġrepresent atives
Ġcrest fallen
ĠDoxy s
Ġinde cent
Ġincident ally
Ġreproach fully
WE ASLEY
Ġwire less
Ġunin jured
Ġobst acles
rific us
magic al
Ġting ling
Ġsust ained
Ġcal cul
Ġprof ile
Ġwisp y
Ġprecaut ion
Ġvers us
Ġtil ted
Ġsan ct
ĠHO GW
Ġlun atic
Ġgar age
Ġramp arts
Ġentertain ing
Ġcorp se
ĠArt ifacts
Ġbenef it
Ġoppon ent
Ġadmire rs
Ġjew el
Ġcommunic ating
ĠMis use
ĠSy bill
ĠSPE W
ĠGol gomath
Ġjost ling
Ġremin isc
Ġblackm ail
Ġderis ive
Ġdwar f
Ġhan n
Ġplumm eted
Ġprem ises
Ġmisunder stood
XPE CTO
breed s
Ġdrows y
Ġunl ucky
Ġglimm ered
Ġbookshe lves
Ġincompre hensible
Ġmirac ulously
Ġtimet able
wit ness
Ġoo zing
ĠIgn oring
Ġwhir ring
ĠMuff liato
ĠMIN IST
Ġrect angular
Ġdisli ked
Ġcoinc idence
Def ense
Ġstee ly
ĠPAT RONUM
augh ing
ĠChampions hip
ĠJan uary
ĠAnth ony
Ġresemb lance
ĠDesp ite
Care ful
Rubb ish
Ġsom ber
Ġhing es
itro v
Ġphy s
Ġearm uffs
Ġecc entric
ĠSlo per
Ġnephe w
ĠCress well
Ġalleg iance
Ġchint z
Ġunbeat able
Ġtwelf th
Ġgrues ome
Ġwindsh ield
ĠStinks ap
Ġappropri ate
ĠParsehn outh
ĠHOGW ARTS
' ...
- '
A B
A g
A BLE
B E
B est
B reak
B oys
C rabbe
C oming
D igg
D ead
F ire
G u
G riphook
H any
H ope
H aving
I RE
I mp
L I
L upin
L ittle
M ac
M ight
M ine
M undungus
O o
O w
O bviously
P h
P ersonally
R R
R un
R ead
R UN
S m
S il
S ame
S ince
S ays
U h
V e
V iktor
W and
W ood
W ormtail
W HO
b um
b led
c ont
c ited
c ogn
c ibly
c omm
c ival
d r
f actly
f etched
g a
g ent
h omora
j ud
l ap
l ive
l ated
l ined
l ery
n ces
o lf
p o
p ane
p ole
r ace
r ite
r omeda
s ome
s kin
t il
t lap
u eling
v als
w y
w en
w ter
w ings
w arted
w itted
z ard
z il
Ġ ic
Ġ ounce
Ġt our
Ġt rif
Ġt rod
Ġt ub
Ġt icking
Ġt idy
he asant
Ġa er
Ġa rou
Ġa qu
Ġa ched
Ġa we
Ġa ura
in ch
in ate
Ġw ad
Ġw ove
Ġw icked
Ġw arily
Ġw add
Ġw rench
Ġw renching
re x
re aking
ou ghed
Ġh ord
Ġh ump
Ġh unch
er ro
er ting
er ving
er able
ar ity
Ġb er
Ġb id
Ġb ay
Ġb ers
Ġb og
Ġb ade
Ġb ord
Ġb anshee
Ġb ickering
Ġf est
Ġf ade
Ġf umbling
Ġf iddling
Ġf iasco
Ġo ven
Ġo ily
Ġo mens
ĠH ot
ĠH ung
at ured
is ure
Ġto ffee
it ious
Ġc abb
Ġc uffs
Ġc auses
id arkness
en a
en er
en sed
en ger
en cio
Ġd ough
Ġd ank
Ġd aw
Ġd ump
Ġd agg
Ġd angers
Ġd izzy
Ġm out
Ġm aimed
Ġl as
Ġl ick
Ġl icking
Ġl ament
Ġl yin
Ġth ri
Ġth warted
Ġp ell
Ġp est
Ġp ans
Ġp ets
Ġp imp
Ġp awed
Ġha lves
Ġg um
Ġg aw
Ġg arl
Ġg agg
Ġg oose
Ġg urg
ow ls
Ġsa ves
Ġsa uc
om in
Ġy ield
Ġy ew
Ġbe ans
gh orn
Ġe ard
Ġe ast
Ġe tern
im ate
Ġst ress
Ġst unning
Ġst ates
oo ling
et ing
ic a
ic orpus
ro ach
ro ying
ut in
ĠM ul
ĠM aking
ĠM uch
ĠM ummy
ĠT orn
ĠT roll
Ġwe ary
out ed
Ġas ce
Ġas tr
Ġu ckles
ĠS P
ĠS ame
ĠS itting
ĠS elw
ĠS igned
ĠS enior
Ġre un
Ġre ced
Ġre vis
Ġre cept
Ġre vision
ĠD ily
ĠD udders
al ator
se l
st ill
st op
ĠR ever
ĠR idge
ri ar
ch n
Ġan ived
Ġfor ces
Ġfor cibly
Ġse lection
Ġse ething
um ors
ĠP ur
ĠP ri
ĠP ast
ĠThe m
ĠA ss
Ġsh aft
ĠW ister
ĠW HA
ĠW illy
ĠW alk
ĠW ondering
Ġfr aud
Ġfr ayed
Ġup s
Ġdo gged
Ġout s
Ġout sk
ind le
and a
and ers
ĠB R
ĠB arry
ĠB reak
ĠB ott
ĠB eyond
Ġme lt
Ġkn itted
ĠG irl
ĠG houl
ĠG aunts
ĠG urdy
Ġr ud
Ġr ings
Ġr aging
ĠC ast
ĠC abin
ĠC ertainly
ĠC auld
Ġfe ature
Ġbut ter
ĠF ra
ĠF ord
ĠF ockhart
ĠF lying
ĠF riar
Ġj ing
Ġj abbing
Ġj owls
Ġgo lf
ck er
ast rous
Ġwhe eling
lo homora
ort ality
ĠL ess
ĠL ie
ĠL ock
ĠL IKE
Ġv ent
Ġv iv
ud ent
ud ents
Ġis ol
Ġab ashed
Ġab use
Ġab norm
Ġle v
Ġle vels
Ġle isure
our s
ist s
ist ically
Ġro g
ous ed
ong ratul
Ġde leg
ff it
Ġover st
Ġover fl
Ġover turned
ss ing
Ġsu nd
Ġsu ll
ep aper
Ġoff ensive
ĠN ose
ĠN ove
Ġch ip
Ġch ops
Ġsp an
Ġsp indle
Ġcon ver
ick le
Ġun se
Ġun imp
Ġun believable
Ġun grate
Ġhand ling
Ġsc ary
Ġsc ooping
Ġbl amed
ĠV ow
ĠV ect
ĠV ance
ĠV ampire
Ġpl astic
Ġpl aque
Ġcl ing
Ġcl unk
ĠHagrid s
up iter
Ġsl ice
Ġsl aught
Ġhead long
Ġmo pped
Ġmo ons
Ġmo ssy
ĠE lf
ĠE yes
Ġtw eed
Ġtw iddling
Ġdoor ways
Ġtr ot
Ġtr icked
Ġtr ash
Ġgl imps
inn ers
Ġgr umbling
ire ment
Ġsw ish
Ġsw erve
Ġfl ap
Ġfl inging
Ġfl urry
other s
ĠPot ty
Ġman ic
ab ility
Ġop eration
Ġop aque
ĠK iss
Ġpre car
Ġpre jud
Ġdis lod
Ġdis astrous
Ġhapp iest
Ġbeh aving
Ġbeh aved
Ġapp ly
Ġapp raising
Ġlet h
ĠPotter watch
te xt
Ġlit ter
Ġbr amb
Ġbr acket
ĠDe ad
Ġlast ing
Ġpro port
Ġpro pelled
Ġshould ered
ful ness
ugg ling
Ġpr aying
Ġpr udent
uck ily
Ġho ot
Ġflo at
Ġflo pped
Ġsn og
Ġsn uff
Ġsn ogging
Ġwal nut
Ġneed n
Ġneed le
Ġstr ayed
ĠCh ief
Ġdr ooped
Ġdr oop
Ġdr unken
Ġche ap
Ġmust y
Ġcr iss
Ġcr unch
pl ussed
Ġent ry
Ġday break
Ġwr ath
Ġcur t
Ġcur ls
Ġnight fall
Ġnight shirt
Ġnight dress
Ġside board
we led
Ġnew com
Ġra ven
Ġwhis kers
ĠJ oke
Ġhelp s
Ġhelp ings
Ġfin est
Ġreal ization
Ġsk ipped
Ġsk illed
Ġsk inned
Ġsk irt
Ġair born
ĠUn like
Ġmat es
Ġmat ched
av a
Ġwait ress
Ġfoll ows
ten n
Ġquiet er
ib ilities
ĠPer cival
Ġmut il
pr oof
Ġres isted
Ġres ulted
Ġpast y
Ġbo il
Ġgre edy
Ġtre sp
Ġinst ructed
ĠAr nold
Ġscar cely
Ġcar ol
Ġrec ounted
ĠGr an
ĠBlack s
head s
Ġfore ann
Ġfore bod
Ġhor rific
Ġcomm it
raw l
Ġexp ressed
ĠSe er
ĠSe lf
Ġco in
Ġco ach
Ġco iled
Ġmem os
Ġfoot prints
Ġgirl ish
Ġfour teenth
ci ber
Ġpar ked
Ġmother s
ird s
Ġstraight en
Ġri ff
Ġhope lessness
Ġact ual
Ġdef iant
Ġstay s
Ġsort ing
Ġcloak ed
Ġext racting
Ġdi agr
Ġbu ry
Ġbu bot
Ġbu bbling
Ġrel ative
read ful
Ġbag gy
sp ons
Ġce ased
Ġser ving
Ġdesk top
Ġfle cks
Ġpat rolling
ĠBe iby
Ġmist reat
Ġmist aking
Ġins erted
Ġins ulting
Ġlay er
Ġspeak s
Ġmay hem
Ġsub m
Ġburst s
Ġrep ress
br own
Ġdeath day
Ġstair cases
Ġsoft en
Ġchest nut
ount ered
ĠRe asonable
ren ce
Ġstupid ity
Ġcoll eague
Ġesc alator
Ġton ic
Ġap ology
Ġbar gain
ĠProphe cy
Ġrememb ers
Ġcut lery
Ġrecogn izable
Ġthro bbed
Ġbat like
inky p
Ġcons umed
Ġdisc our
imm er
Ġinform ing
Ġtor re
Ġgri zzled
Ġadm ired
Ġadm itting
Ġobject ion
Ġhung rily
Ġposit ions
Ġthroat s
ĠFr isbe
Ġfield s
Ġplan et
ĠSke le
blood s
Ġfer re
Ġchild ish
Ġnice ly
Ġhuge ly
Ġproper ty
Ġdest roying
Ġpol it
Ġpan icking
Ġlisten ers
Ġfain ted
Ġbound ing
Ġbound ary
Ġpossess or
Ġspir aling
Ġhesit ation
Ġeyeb all
Ġdoubt fully
Ġble ed
Ġble ak
Ġremind s
Ġremind er
LE D
LE S
Ġje ers
Ġenc irc
Ġenc ountered
Ġphot ographer
ĠBur bage
Ġeart hy
Ġrock s
Ġsevent y
ĠLe ague
Ġsy c
Ġemb race
Ġcand y
Ġcand id
wizard s
Ġfool s
Ġimm ortality
OR D
OR T
Ġdread ed
Ġbusiness like
Ġinj ust
Ġmoon stone
ĠSpell ot
Ġdra ft
Ġdra ught
Ġund et
Ġirrit ating
Ġgra ffit
Ġclot hing
Ġcour te
Ġdel ayed
Ġcompartment s
ĠSm all
Ġbitter ness
Ġwhist led
ĠKeep ing
Ġrev olved
Ġrev ulsion
OO L
Ġalarm ing
Ġfo am
Ġwra pping
Ġunf amiliar
Ġpersu ading
Ġstick s
Ġserv ices
Ġserv ants
Ġva ulted
Ġexch anging
Ġplain er
Ġcas c
Ġsad ness
zz er
Some body
Some where
aun ting
Ġlim ply
ĠCon j
Ġunw illing
aj or
ĠMur tlap
ĠBr ut
Ġdesp ised
Ġslo ped
Ġslo pping
Ġdistinct ive
Ġthunder ous
Ġconst ricted
ENT S
Ġshif ty
do ing
Ġdeli very
Per fect
ĠAd mitted
Ġchuck le
Ġerup t
Ġamb itious
Ġtot ally
Ġris ked
Ġincre ase
kn itted
Ġcapt ioned
Ġpred icting
ĠSp inner
Ġexh ilar
post s
Ġcous ins
ĠTW EL
Ġscra wny
Ġprison er
Ġshape less
Al bus
Ġband y
asc ots
ĠUnder secret
ĠKn arl
Ġspeech less
Ġregret ted
Ġban ished
Ġrespect able
Ġnon verbal
Ġnon plussed
ĠDec oy
Ġpassword s
Ġtransp orted
ĠTed dy
Ġaccus ations
Ġargum ents
Ġsuccess ful
Ġwar lock
Ġstorm ing
Ġwithd rawn
Ġprick le
Ġinterview ed
iment al
Ġimpress ively
Ġwo e
Ġwo bbled
Ġden ied
Ġpublic ity
ĠBoy s
Ġcompet ing
Ġrevol ting
ĠST OP
Ġbra ver
Ġdescri be
Ġripp led
Rem us
Ġencour aged
Ġmed d
ĠComm on
Ch arlie
Ġland scape
Ġloc ate
Ġloc ated
Ġharm less
Ġsilk ily
Ġvac ated
Ġobsc ure
Ġtroub ling
Ġdazz led
HER MIONE
Ġtur rets
Dad dy
Ġet c
Ġvibr ate
Ġrepro vingly
Ooo oo
cr ack
Ġstal king
Ġchim ed
Ġunb al
Ġorgan ization
Ġdisp ir
fe w
fe ather
Ġpunct ure
Ġremark s
Ġremark able
Ġdisturb ing
Ġcontempt uously
Ġunmistak ably
Ġtelesc opes
Ġnin eteen
Ġfever ish
Ġsarc asm
Ġmor ose
Ġreco vering
ĠAnimag i
Ġdevelo p
Ġens ured
Ġgovern ment
Ġcomb ined
Ġbru ise
Ġskill s
Ġrestr aining
Ġinterf ering
Ġinterf ere
Ġinterf erence
Ġsprout ing
Ġteacup s
Has n
Ġrou sed
Ġcust omers
Ġyel ping
Ġstif ling
Ġfrequ ent
Ġapolog ies
Sc abbers
Ġmourn fully
ĠGold stein
Ġexcl aimed
Ġunre cogn
Ġteen agers
Ġprocess ion
Pr otego
Ġmaterial ized
ĠDet on
Ġglist ened
Ġinterrog ated
Ġinvol ve
Ġachieve ment
Pet rificus
Ġcub icles
Ġrein st
Ġvom iting
Ġclas p
Ġimper iously
Ġregard ing
Ġanticip ated
Ġwhiz zed
ĠRow ling
ĠOther wise
Ġhearth rug
Ġhyster ically
eag led
pri l
Ġbun ches
Ġdumb struck
Ġblunder ing
Ġreflect ing
Lo ads
UD LEY
Ġniff lers
Ġonward s
Ġreli able
Ġvap our
Ġunner ving
ĠOR DER
Ġintens ity
Ġintens ified
Ġintrud er
Ġunnecess arily
Ġtack le
Ġsem idarkness
Ġblot ch
Ġflatten ing
Ġimmob ile
Ġcavern ous
Ġprecaut ions
Con f
ĠSC ORE
ĠSupp ort
Ġgoss ip
Ġscandal ized
Ġrelent less
Ġaccompl ished
Ġfav ors
ĠChe ering
Ġjog ged
Ġintern ational
Ġdisco very
Ġhumil iation
Ġvolunte ered
Ġassoci ated
Ġtro dden
itt any
Ġunsc athed
Ġcance led
Ġelabor ate
Ġtarn ished
Ġunbl inkingly
Ġimperson ating
Ġdiam ond
Ġintellig ence
Ġmirth less
ĠVoldemor fs
Ġove rex
Ġscorn fully
Ġplac idly
Ġdisdain ful
Ġrail ings
Ġribb on
Ġexamin er
Ġdevast ated
Ġsubstit ute
Ġinexplic able
Ġacknow led
Aa ah
Ġsly ly
ĠPull ing
Ġrue fully
Ġalm ighty
uls ively
Ġscrabb ling
Ġpreten se
Ġimpass ive
Ġadvert is
Ġevapor ated
ograp hy
every one
Ġtawn y
llab ary
omb ie
Ġwast epaper
ĠDer rick
Ġoutb urst
ĠBra zil
Ġrauc ous
Ġspattergro it
Ġunceremon iously
ĠWeather by
Ġschem es
uphor ia
Ġbrus quely
clot hes
ĠFlore an
ĠMINIST RY
Ġphys ical
Digg ory
wen og
erro ff
Ġbers erk
ĠHung arian
Ġdagg ers
Ġthri lled
Ġpimp les
Ġgagg le
Ġeard rums
ĠMul ciber
ĠSelw yn
ĠDily s
ĠRidge back
ĠWister ia
Ġoutsk irts
ĠGurdy ro
ĠCast le
ĠCauld rons
ongratul ations
ĠNove mber
Ġungrate ful
ĠVect or
ĠVampire s
Ġglimps es
Ġprecar iously
Ġdislod ged
Ġbramb les
Ġcriss cross
ĠAdmitted ly
ĠTWEL VE
ĠUndersecret ary
A LL
A IT
B ind
B ell
D I
D et
D ark
D iff
E M
E l
E EP
E XPECTO
F ind
F OUR
F ancy
G ro
G od
G reg
G lad
H ear
H UFF
I gn
J ames
L P
L ater
L ooking
L ucius
M ove
M inister
N ick
O g
O i
P ar
P at
P UFF
R igh
S l
S ear
S een
T W
T w
T ow
T oday
T ACK
U U
U nd
U se
V ENT
W ot
a os
b as
b right
c iously
c onscious
c hest
d i
d ors
e v
e ches
f le
f ronted
g at
g ie
g ian
h ap
h anging
i able
i ating
k iss
k ov
l ang
l ished
l aze
l ava
m o
m ark
m ering
m aybe
m ony
n ine
n ants
o cious
p ow
p art
p our
p ick
p iece
r ot
r ack
r ise
r aged
s b
s pe
s ions
t um
u cc
u ishing
v ag
v ius
w ear
w ined
w inked
y sm
z or
Ġ \
Ġ iv
Ġt ame
Ġt ang
Ġt ape
Ġt umbling
Ġt inkle
in als
in arily
Ġs urn
Ġs orcerer
Ġs omers
Ġw en
Ġw ow
Ġw ars
Ġw ages
Ġw inner
Ġw agging
Ġw innings
re m
re ally
ou st
ou ch
Ġh u
Ġh un
Ġh ired
Ġh ooking
er d
er ous
ar acter
Ġb ud
Ġb old
Ġb ough
Ġb anks
Ġb umped
Ġf et
Ġf aking
Ġf uming
Ġf ooled
Ġo g
Ġo ption
ĠH im
ĠH unt
ĠH OU
ĠH over
ĠH IS
ĠH oping
ĠH inkyp
at urn
is her
it uary
Ġc her
Ġc ant
Ġc od
Ġc ity
or is
or ous
or ked
or ph
or rible
Ġhe aling
en ious
Ġd ent
Ġd ies
Ġd umped
Ġd ummy
Ġd otted
Ġm ic
Ġm ould
Ġm ul
Ġm idd
Ġm orn
Ġm ush
Ġm illing
Ġm ummy
Ġl ured
Ġth inned
ry ce
Ġp ra
Ġp iling
Ġp ane
Ġp heasant
es irable
Ġha ul
Ġha ired
Ġha vin
an es
an ent
Ġg ushed
Ġg ash
Ġn ail
Ġn umer
ow ling
ot hed
ot ection
Ġy anked
Ġe bbing
ac u
ac ting
ac lava
im al
im ated
im sy
us ively
Ġst ains
Ġst ooping
Ġst abbing
Ġit ching
ĠI F
et am
Ġwh iff
Ġwh ichever
ro pe
ut y
ĠM ed
ĠM ess
ĠT ook
ĠT est
ĠT reat
ĠT able
ĠT aking
ĠT iny
Ġwe bbed
ent ially
ad os
Ġas hen
ĠS it
ĠS li
ĠS HE
ĠS IRIUS
Ġre n
Ġre pt
ĠD est
ĠD AR
ĠD ueling
ur ther
ur able
al uff
ag ra
?" '
st le
ĠR umors
ri p
ri ers
ri ved
ri be
Ġwit s
ch a
ch ard
ch ten
Ġfor ks
Ġfor ged
um per
ĠP ut
ĠP uff
ĠP rew
ĠP res
ĠP ossibly
pp et
all ing
all ows
Ġnot ed
ĠA G
ĠA ct
ĠA ward
ĠA cross
ĠA pot
ĠA pril
ard ium
Ġsh ins
Ġsh atter
Ġsh irt
ĠHe art
pe c
pe l
em ing
em ade
ce nd
un ey
un ately
ge l
ge y
ind o
ind ict
and o
ĠB L
ĠB Y
ĠB u
ĠB on
ĠB at
ĠB es
ĠB an
ĠB ert
ĠB rilliant
ĠB reathing
ĠB ryce
Ġme rest
Ġme asured
Ġme chan
Ġne ared
ĠG I
ĠG RYFFINDOR
il ess
Ġr ally
Ġr hy
Ġr ump
Ġr ash
Ġr idden
Ġr ammed
ĠC rou
ĠC omet
ĠC ons
ĠC ourse
ĠC aps
ĠC omp
ĠC ards
ĠC atch
ĠC ohn
ĠC issy
ĠC ompletely
Ġbut to
to ed
to ld
ĠF ind
ĠF ear
ĠF ab
ĠF oot
ĠF una
ĠF IVE
ĠF IF
ĠF ungi
Ġshe lt
Ġj angling
Ġj ogging
Ġj umper
umb ered
Ġgo ate
ck le
ell ed
ast s
lo ad
lo ved
lo ving
ĠL ia
ĠL umos
Ġv ote
art ial
ant astic
Ġab ilities
Ġab laze
Ġab ysm
Ġex act
Ġle ak
Ġno sy
Ġag rees
Ġro d
Ġro le
Ġro sy
Ġal tered
Ġal anning
Ġal che
Ġde ck
ff ect
ul ate
ul ated
ul ating
ace ful
Ġover pow
oy ant
Ġpo ck
Ġpo isons
Ġknow in
Ġoff ices
Ġoff end
ĠN on
ĠN ice
ĠN ich
ĠN INE
Ġch ute
Ġch anning
Ġsp awn
Ġsp ik
Ġsp ades
Ġsp urt
Ġqu een
Ġcon sp
ick s
Ġun ison
Ġun ste
Ġhand les
Ġby e
Ġwor ms
Ġsc re
Ġsc or
Ġsc ampered
Ġbl aming
Ġbl undered
ĠV icky
Ġcl un
Ġcl ipping
Ġcl aimed
ap able
Ġsl unk
Ġsl ashing
Ġsl aughter
Ġsl iver
Ġcom ical
Ġwand less
Ġor bs
Ġor chard
Ġmo lt
ĠE ar
ĠE ve
ĠE LE
ĠE mm
ĠE IGHT
og s
ĠO b
ĠO UR
ĠO tter
ĠO bliv
Ġtw inkled
Ġdoor mat
Ġtr ance
Ġtr ump
Ġtr aged
Ġtr acing
Ġface less
Ġgl ide
Ġright ly
Ġright ful
ath om
Ġsw itched
Ġsw anning
Ġsw ipe
Ġfl our
Ġfl avor
Ġfl ute
Ġfl agged
ol as
ol ished
Ġbefore hand
Ġen ab
Ġwill ow
ab out
Ġar c
ĠK ILL
ĠK indly
ĠK EEP
Ġpre ced
Ġpre text
Ġwat ers
Ġwat ered
Ġte chn
Ġte eming
Ġsomet ime
Ġdis reg
Ġlo in
Ġlo ving
Ġlo af
Ġlo cks
Ġlo fty
Ġlet s
ĠAnd romeda
Ġrem nants
Ġac he
ĠHog w
Ġpro fess
Ġpro ced
Ġpro ject
Ġmoment ary
ord er
Ġfirst ly
Ġpr un
Ġpr ince
Ġpr inted
ish op
les h
Ġcont ains
Ġcont acts
Ġho ist
Ġho bbled
Ġdark est
Ġmight a
Ġtal ons
Ġflo pping
Ġsn ee
Ġwal t
Ġneed les
Ġstr ung
ĠCh arity
Ġfeel in
Ġdr ooping
Ġdr ooling
Ġche ese
Ġcr umble
Ġcr unched
Ġimp artial
Ġhur ric
ĠQu est
ĠQu iet
unn ers
Ġsur ged
Ġsur ging
Ġter ribly
Ġsupp l
ĠTh ief
ĠTh inking
Ġcur few
Ġkeep in
we gian
iet h
Ġra zor
Ġwhis key
Ġwindow less
Ġlau ndered
Ġel ong
Ġloud est
get ic
Ġper cent
Ġret irement
ip ment
ĠJ us
ĠJ ets
ĠJ ane
ĠJ udging
ĠJ unior
ĠJ elly
ĠJ upiter
ĠSt ation
bl ins
Ġsk ins
Ġsk immed
Ġlif eless
Ġsat in
Ġsqu ir
Ġsqu irmed
ump ent
Ġfire crack
ten ham
os ity
os ition
Ġmagic ked
riend s
Ġple a
Ġple as
Ġple aded
Ġelse where
Ġkill in
Ġhold s
urs ing
Ġmut e
cl aimed
Ġres ur
Ġres erved
Th ird
Ġpart ially
Ġbo a
Ġbo bbed
Ġbo asting
Ġgre ase
Ġread ers
Ġtre ading
Ġtre pid
Ġtre stle
Ġtop s
Ġtop ic
Ġob tain
Ġob ituary
Ġinst ruction
Ġfull est
Ġrec apt
Ġlist s
Ġwond ers
Ġfore seen
Ġdist racting
ĠSlu g
Ġad o
Ġad ults
raw ling
Ġpain s
Ġco ils
ere st
sw er
ĠY orks
Ġposs ibilities
Ġsight ed
Ġdet ection
Ġsign ing
Ġvis ual
Ġred headed
Ġaw a
Ġcat ast
ĠSc ream
Ġri ot
Ġri val
Ġact ions
ĠAl ice
ĠAl ong
Ġdef lect
Ġdef iance
Ġplay ground
Ġbreak s
Ġext ent
Ġext ric
Ġdi ver
Ġdi ving
Ġsurpr ises
Ġhall uc
Ġrel ive
Ġhat ching
sp oken
Ġarri vals
Ġacc ounts
Ġinter pre
Ġexc ruci
ĠBe ing
ĠBe en
Ġfast en
vent h
Ġsent enced
Ġins cri
Ġconf ett
esc ent
Ġprot uberant
Ġport ly
Ġport ion
ĠSn arg
Ġvan qu
Ġmur ky
terest ing
Ġrep ay
Ġrep orting
Ġfree ze
Ġexpect s
Ġexpect antly
ĠOr dinary
Ġtou g
Ġspr inging
ĠSo ciety
Ġappro ved
Ġtri ps
Ġrun s
OU CH
Ġ1 6
Ġsumm ons
Ġev as
My rtle
Ġspl uttering
Ġmad am
Ġburn s
Ġap iece
Ġint ake
Ġpict ured
Ġcertain ty
Ġbar ric
Ġlead ers
ĠProphe ts
ĠAg u
ĠAg es
Ġthro b
Ġmiss hap
Ġinv inc
ĠSh all
ĠSh ort
ĠSh aking
Ġcons ented
Ġz ey
Ġshow ering
Ġthrow s
Ġball ed
ĠEx cellent
Ġled ge
Ġscr uff
Ġscr amble
Ġscr utin
Ġsky ward
ane ously
St ep
St udents
ipp ers
Ġfro gs
Ġgri ffin
Ġglo ve
pell ing
Ġwild est
Ġposit ive
Ġtight ening
Ġtra ipsed
Ġmark et
Ġfer ocious
Ġdem and
Ġdrink er
Ġcre ase
Ġsol ved
Ġdest iny
Ġextra vag
Sh ow
Sh ame
Sh ouldn
Ġpol ish
Ġpan icky
ĠDis arming
Ġconvers ing
Ġdeal t
Ġconv ulsively
Ġenjoy ment
Ġtrust worthy
Ġhesit ate
Ġhesit antly
Ġmag got
Ġpri zed
Ġble arily
Ġele ment
Ġinf in
Ġinf ur
Ġur ging
LE T
LE PUFF
Ġje weled
Ġglad ly
Ġphot o
ĠNor wegian
Ġsevent eenth
Ġgro aning
Ġdep ressed
ĠWh iz
Ġconversation ally
ĠLe vel
Ġsy st
Ġsy mpt
Ġyer self
Ġpret ence
Ġsqueak ily
Ġbew itch
Ġimm ortal
Ġimm inent
Ġpu ppet
Ġcloud less
OR M
Ġcro ak
Ġwin ter
ott ages
Ġmoon lit
Ġsuff icient
Re ckon
ĠPe pper
Ġund erest
ĠRem emb
ĠWor ple
Ġinterested ly
Go ing
Ġnois elessly
Ġsnat ches
Ġbre ast
ĠSm iling
Ġpatch work
Ġsatisf actory
Ġswall owing
Ġcool er
Ġbelong ing
Ġrev iew
OO K
Ġstri king
Ġstri ped
Ġstri pping
Ġstri ps
Ġkid ney
Ġincred ulous
Ġhood s
Ġpill ar
Ġpriv ately
Ġpoison ing
Ġben ign
mer ized
Ġdim in
Ġdu kes
Ġcounter clockwise
Ġtoad stool
ĠMer ry
co ver
Ġkeen ly
Ġstrid es
Ġunw elcome
Ġbul b
ache ry
ĠBr others
Ġdev otion
Ġfan cies
Ġbrave ly
Ġtemper ature
Ġstare s
Ġindic ate
Ġillumin ate
ĠAN Y
Ġglow ered
Ġcontr ast
ĠDelacour s
Ġweird ly
Ġsepar ately
Ġconj uring
Ġprevent ing
Ġdue led
Ġanim atedly
Ġscri bble
Ġskull s
Ġdry ly
Ġcard igan
Ġmotion ed
Ġclock wise
Ġris king
Ġrap id
AS TER
Ġrequ ested
Ġdecis ions
Ġtransform ing
cut ed
Ġident ify
ĠGreg ory
Ġsteal th
Ġtenn s
Ġrele asing
Ġflight s
ĠImperius ed
Ġartic les
Ġpet ty
Ġcandle lit
oc om
Ġpurs uit
Ġagree ing
Ġheight s
Ġthud s
Ġdod ges
Ġaccus ation
Me aning
Ġhill top
Ġgate way
Ġlab or
Ġlab el
Ġequ ipment
ĠWar locks
Ġbree zy
Ġdut ies
Ġknot ted
Ġcompet ition
Ġilleg ally
ĠST U
Ġreass ure
ĠIN QU
Ġdescri ption
Ġdescri bing
Ġripp le
Ġexplan ations
Ġpainting s
Ġpenetr ating
tin ent
ĠHA VEN
Ġencour aging
Ġmed ieval
Ġcomplain ts
Ġtim id
Ġborn e
Ġtopp ling
Ġland l
go ing
Ġharm ed
Ġbal aclava
Se ven
Ġgall oped
Ġadmir able
Ġdemonstr ated
Ġfus sing
Ġfus sy
Ġstamp s
Ġrad ish
Ġgogg les
Ġeyel ashes
Ġdispl aying
upp orted
Ġhy p
ĠVan ished
Ooo oh
Ġmal ice
.... "
Ġunb ear
Ġorgan ized
Ġorgan ize
Ġdisp osed
En ter
glass es
Ġcong reg
Ġpati ent
Ġindiffere nce
Ġguilt ily
ĠSE C
ĠSE VEN
ĠSE VENT
ĠBook s
Ġcoward ice
Ġcruel ty
Ġhicc oughing
Ġpod ium
Ġreco iled
Ġunwra p
Ġunwra pping
Pre fect
inc ip
Ġwann th
Ġeer ily
icol ored
Ġredd ish
Ġdevelo ping
Ġsuspect s
ĠTHIR TEEN
Ġexasperated ly
Ġlangu ages
Ġpal omin
Ġlegend ary
izz ling
Ġcommun icate
ĠVol kov
Ġsandw ich
Ġweed s
Ġart ifacts
Ġperf ume
ĠLev ios
ĠLev ski
ĠLev icorpus
Ġtact less
Ġtooth less
Ġsmart ly
Ġswive ling
Pet unia
iven ess
Ġtu ft
Ġtu fty
Ġhom emade
Ġbould ers
Ġheir lo
ribut ion
Ġmeal times
Ġproceed ings
Ġreappear ance
Ġintense ly
ĠSkrew t
Ġbol ts
Ġbreed ing
ĠMon sters
ĠRow le
Ġscru bbed
Ġelb owed
Ġconfisc ate
ĠGobl ins
ĠPeverell s
With out
Ġtant al
ĠHas n
Ġgif ts
Ġreflect ions
TH REE
Ġhaught ily
ĠWH Y
Ġvap or
Ġaggress ive
Ġchort ling
Ġsmugg le
ĠInc ant
Ġmarry ing
Ġpomp ously
Ġshred ded
Ġneg lect
Ġflu id
ĠGryffm dors
Ġinterven ing
Ġimmob ilized
Ġfortun ate
Ġfortun ately
Ġunconvin ced
Ġmalevol ent
ĠNEWT s
Ġoverwhel med
Tr ue
Ġou ch
Ġtil ting
ĠDI ED
umer able
Ġdeb ating
Ġoper ating
Ġoppon ents
Ġjew els
Ġbump s
Ġloop y
Ġforb id
Ġforb idding
ĠAL B
ĠAnt i
ĠFif teen
Ġconqu er
Ġdisco vering
ĠSmelting s
Ġconnect ing
Ġfant astic
ĠSIX TEEN
ĠFOUR TEEN
Ġdiscipl inary
Ġimpost or
Ġsquirm ing
Fil ch
Pass word
Ur gh
Ġnick name
ĠMan or
ĠSens or
ĠFam ous
Ġroset tes
Ġblunt ly
ĠEle ven
Ġremed ial
Ġguarant ee
Ġrefus al
STU PE
Ġperman ently
Ġcontrad ict
ĠKnock turn
Ġoblig ed
Ġintimid ating
grow th
Ġopt ions
Ġmix ing
Ġecl airs
Ġwhoos hing
Ġplug s
Ġirre spons
Ġtransfer red
Ġtransfig ured
Ġconstric tor
Ġtumult uous
Ġcobwe bs
Ġpamph let
Long bottom
Ġwool en
ĠDim itrov
Ġunhe lp
Ġdiso bey
Ġappe aling
should ered
Ġkitten s
Ġunfur led
Ġcounterc urse
Ġappoint ments
Ġoverwhelm ing
Ġricoche ted
Ac ceptable
Fif ty
Ros merta
pal ott
Ġcord s
ori ented
Ġthudd ed
Ġpant ry
Ġinad vert
ĠMist ress
ĠPu king
qual ified
Ġconsequ ences
Ġunch aracter
Ġgrotes que
Ġstrate gy
Ġcrad ling
Ġgild ed
Ġtremend ous
Ġrecru iting
Ġpresum ably
Grind elwald
witness es
Mac nair
Ph ineas
Ġtrif le
Ġaqu iver
Ġhord e
Ġmout hing
ĠTorn ados
Ġrecept ion
Ġshaft s
ĠWHA M
Ġrud eness
Ġjing ling
ĠLie chten
Ġviv idly
Ġoverfl owing
Ġsull en
Ġslaught ered
Ġairborn e
Ġtresp ass
Ġforebod ing
Ġbubot uber
Ġinjust ice
ĠBrut us
Ġunbal anced
Ġdispir ited
Ġunrecogn izable
Bell atrix
Greg orovitch
HUFF LEPUFF
Ign ore
Sear ch
TW O
Wot cher
Ġiv y
Ġsurn ame
ĠHOU SE
Ġcant ered
Ġmidd ay
Ġmush room
ĠDAR K
agra ph
ĠApot hecary
ĠFIF TEEN
Ġshelt ered
Ġgoate e
ĠLia ison
ĠNich olas
Ġspik y
Ġmolt en
ĠELE VEN
Ġtraged y
ĠQuiet ly
Ġtrepid ation
ĠYorks hire
Ġexcruci ating
Ġconfett i
ĠSnarg aluff
Ġmisshap en
Ġinvinc ible
Ġsympt oms
ĠRememb ering
ĠSEVENT EEN
Ġirrespons ible
ĠLiechten stein
" ),
- ,
. ?"
? )
A ct
A unt
A mos
B ag
C L
C Y
C lo
C oll
C issy
C ongratulations
D Y
D am
D ementor
D rop
D awlish
D UDLEY
E re
E ng
E ither
E LL
F e
F ight
F air
F aw
F ORE
F IVE
G RID
H im
J inx
L ock
L ead
L iar
L udo
M P
M or
M ade
M any
M eanwhile
M imbulus
N ine
N OT
N arcissa
N OOOO
O ther
O IN
P retty
S k
S ho
S chool
S uch
S IX
S IRIUS
T s
T on
T ook
U L
U m
U nder
U RE
U ntil
V is
V ernon
W he
a unch
b in
b reaking
c er
c lo
c ake
c up
c ieties
d is
d es
d ening
d arkness
e c
e z
e ight
e nder
f ed
g ressed
g ency
g iving
h ab
h ins
h uman
j awed
k i
k ie
k now
k irk
l ore
l aw
l aid
l asting
m ust
m ate
m ath
m ple
m ity
m atch
m ortal
n al
n inny
n atured
o id
p it
p ool
p ering
p ies
p ans
p ical
p ipe
p ension
p arents
r ings
s atisf
t able
t te
t ip
v ant
v ated
v ised
v ald
v iew
w at
w ould
w ire
w orth
z zy
Ġ *
Ġ 6
Ġ ickle
Ġt as
Ġt iled
Ġt icked
Ġt aunt
Ġt abby
Ġt ailed
Ġt inge
Ġt ampered
Ġt att
Ġt aunting
he nd
he nded
Ġa in
Ġa pt
Ġa ft
in ces
Ġs um
Ġs ill
Ġs ardon
Ġs izzling
Ġw ry
Ġw art
Ġw ist
Ġw ins
Ġw ince
Ġw aming
Ġw agg
Ġw iry
Ġthe ories
ou ching
ou ple
ou gat
Ġh ush
Ġh inted
Ġh ike
Ġh oney
Ġh omes
ing ton
ing ardium
ar ked
ar ition
ar water
nd ry
Ġb ated
Ġb ale
Ġb erth
Ġb oos
Ġb onds
Ġf u
Ġf und
Ġf ren
Ġf rill
Ġf aked
Ġf olk
ĠH op
ĠH air
ĠH undred
ĠH AS
ĠH appy
ĠH ands
at em
at ching
is ion
it able
it ty
Ġc ot
Ġc ri
Ġc ig
Ġc uff
Ġc ooked
Ġc ottages
as ions
or por
Ġhe ated
Ġhe aps
Ġd an
Ġd app
Ġd arn
Ġd ens
Ġd aily
Ġd reg
Ġd abbed
Ġd izz
Ġm igh
Ġm oody
Ġm umbling
Ġm ounds
Ġm ajor
Ġm ascots
Ġm oust
Ġl u
Ġl oo
Ġl ame
Ġl ashed
Ġl ids
Ġl idded
Ġth rees
Ġth ieves
ry one
Ġp ed
Ġp our
Ġp ond
Ġp awn
Ġp ens
Ġp inning
es y
es ters
Ġha y
Ġha ck
Ġha ff
Ġha unting
Ġha unts
an a
an us
an oid
Ġg al
Ġg ag
Ġg na
Ġg agging
Ġin fect
Ġin nit
Ġn ause
Ġn ip
Ġn uth
Ġn aught
Ġn uts
Ġn iche
Ġn ursing
le ased
Ġsa gged
Ġsa mple
om uk
ot or
Ġbe ad
Ġbe head
Ġbe adily
Ġbe loved
Ġe ve
Ġe et
Ġe uphoria
ac led
ac ula
us es
us to
Ġst ark
Ġst ile
Ġst ored
Ġst ores
Ġst oop
Ġst umping
Ġst ubs
oo sh
ĠI ce
et ering
ic ine
ic ip
ic iently
ion al
ion ately
Ġwh ining
Ġwh ooping
Ġwh acking
Ġwh oosh
ro red
ro bed
ir ke
ir teenth
ut ed
ĠM erm
ĠM ust
ĠM ake
ĠM ug
ĠM arsh
ĠM ORE
ĠM etam
ĠT AL
Ġwe eping
ent al
ent hus
ent ials
ent acula
ad er
ĠS M
ĠS N
ĠS et
ĠS ur
ĠS to
ĠS pl
ĠS ER
ĠS ub
ĠS top
ĠS uch
ĠS CH
ĠS angu
ĠS ixty
ĠS aturn
Ġre ent
Ġre ind
Ġre aring
Ġre eled
Ġre edy
Ġre ndered
ĠD ist
ĠD erv
ĠD uring
ĠD ora
ĠD ARE
ur sed
ur ances
al thy
al ties
al entine
Ġ- ?
se nd
ag m
ag ious
st y
st ead
ĠR ID
ri age
ch and
Ġan gel
red ict
Ġse am
Ġse ating
ĠP an
ĠP erm
ĠP ass
ĠP ock
ĠP enn
ĠP uffs
all ic
ĠRon nie
ĠA R
ĠA S
ĠA b
ĠA ut
ill s
ack s
rou ble
ard ing
Ġsh y
Ġsh ine
Ġsh ards
Ġsh attering
Ġsh rug
Ġk ing
Ġk ip
erm int
Ġlook outs
ĠW ard
ĠW idd
ĠW ord
ĠW ish
ĠW ON
ĠW itches
ĠW rack
Ġdo ll
Ġdo le
Ġdo se
Ġdo ck
Ġdo zing
ight ed
Ġout c
Ġout n
Ġout er
Ġout come
Ġout stri
ce iling
un ction
ge ance
ĠB ed
ĠB ro
ĠB ung
ĠB ridge
ĠB ank
ĠB irth
ĠB OR
ĠB anges
ĠB letchley
ĠB OY
Ġme nding
Ġkn ick
ĠG as
ĠG um
ĠG RE
ĠG wenog
ĠG omuk
il ize
Ġr om
Ġr unn
Ġr ained
Ġr aged
Ġr ays
Ġr aked
ĠC R
ĠC or
ĠC arry
ĠC ount
ĠC oming
ĠC AN
ĠC ouldn
ĠC enter
Ġbut terbeers
to on
if oot
ĠF ar
ĠF ull
ĠF rance
ĠF anged
ĠF irs
ĠF urious
ĠF izzing
ĠF urther
ĠF lesh
Ġj ail
Ġj abb
umb ed
umb ly
Ġso ap
Ġso ggy
Ġso cieties
ell ow
ast e
ast ily
lo st
lo ise
ort us
own ing
ĠL red
ĠL oud
ĠL arge
ĠL ET
ĠL EA
ĠL aughing
Ġv indict
ant ula
rid ges
Ġle er
Ġag on
Ġro ved
Ġro cked
Ġro ses
ct uous
Ġal erted
Ġal bum
Ġde ce
Ġde are
Ġde lu
ul ner
ul chan
Ġover c
Ġover large
oy ages
ers hins
ig o
hat er
na ble
na bas
Ġpo x
old ering
Ġdown pour
ĠN in
ĠN ight
ĠN ear
ĠN arg
ĠN ational
ĠN urm
Ġch ant
Ġch arts
Ġch iv
Ġch anced
Ġch illing
Ġch urning
Ġch aos
el vald
Ġsp ur
Ġsp ines
Ġsp angled
Ġqu arry
Ġqu aking
Ġqu oting
Ġqu izz
Ġcon ge
Ġcon ced
Ġcon vey
Ġcon co
ass o
Ġun le
Ġun set
Ġun bidden
Ġun pre
Ġun rolling
Ġun occupied
Ġun enthus
Ġun ctuous
ĠWe re
ĠWe rew
are tte
Ġsc aven
Ġsc off
Ġsc reen
Ġbl ouse
Ġbl iss
Ġbl istered
ĠV alentine
ĠV ulchan
ĠV oyages
Ġpl ucked
Ġpl ait
Ġpl umed
Ġcl amber
Ġcl ustered
ap sed
up l
up s
Ġsl ab
Ġsl iced
Ġsl umping
Ġor chest
Ġhead dress
Ġmo or
Ġmo ans
ĠE ile
ĠE IGH
ĠE VER
Ġtw iddled
Ġsm oldering
Ġhow ls
Ġvo iced
Ġtr aces
Ġtr ays
Ġtr otted
Ġthan ked
au bles
Ġgr udge
Ġsw oop
Ġfl aring
Ġfl ies
Ġfl ags
Ġfl anking
Ġfl ailed
ol ving
ol ph
Ġevery thin
fter s
Ġen h
Ġen qu
Ġen quired
Ġen mity
ĠK app
ĠK ept
Ġlong ed
Ġlong est
th ink
Ġim b
Ġte nder
Ġte ash
Ġte nding
Ġte nded
Ġunder cover
Ġunder growth
Ġdis pose
Ġpe g
Ġpe as
Ġpe el
Ġpe wter
Ġafter math
row ing
Ġmu ck
Ġlet tering
ect ions
Ġspe w
Ġbr ace
Ġbr anded
Ġbr ittle
Ġbr imming
ĠDe v
Ġac quired
Ġpro fessor
Ġpro ves
Ġpro gressed
ks ome
Ġsil enced
Ġsec l
Ġsec recy
ugg ish
Ġpr im
Ġpr one
Ġwa xy
Ġwa vy
Ġdes ired
Ġcont rolling
Ġwell ed
Ġho se
Ġatt ent
Ġatt raction
udd ing
udd led
Ġsn ored
Ġsn arl
Ġstr anded
Ġstr angling
ock roach
per ate
per haps
xt ra
Ġcr inkled
me re
Ġimp act
Ġent wined
ĠQu ality
Ġend lessly
Ġsur f
be ing
Ġbit es
Ġsupp er
Ġbed sp
Ġhard est
Ġhard ened
Ġlight ened
ĠIn vis
Ġgi bb
Ġkeep ers
Ġnight cap
ĠBl owing
ĠBl aise
we re
oot h
Ġboy friend
ank ers
Ġra ving
Ġra pping
Ġra ided
Ġra fters
Ġlau ndry
Ġel ated
Ġhair pin
Ġper using
Ġhouse hold
ement ed
arm s
arm y
Ġhelp ful
ĠSt icking
ĠSt atus
ĠSt raight
Ġfin er
Ġreal ity
Ġreal izes
Ġjo v
Ġsk ipping
ĠUn ited
Ġbook cases
Ġquick ened
Ġsqu ash
Ġsqu ashing
udge on
Ġcor ked
sh aven
Ġang les
Ġang uish
aster s
Ġunt id
Ġste ad
Ġkill ings
li a
li o
li est
urs ion
Ġmut ual
Ġmin ce
Ġyell owing
Ġres ort
Ġres idence
Ġres olution
Ġres erve
Ġres ounding
Th ough
Ġpart icle
Ġpart icip
Ġbo ast
Ġbo ars
Ġbo iled
Ġbo oms
Ġtre ad
Ġtre asured
Ġtre achery
ĠAr chie
Ġcar ving
Ġcar toon
Ġgive away
Ġrec on
Ġrec om
ĠGr and
ĠGr inning
Ġsto pper
Who se
Ġdist antly
Ġdist raction
Ġdist aste
ult aneously
Ġhor rors
Ġdeep ened
Ġad justed
Ġexp an
Ġpain less
ĠSe nd
Ġco ated
Ġfather ly
Ġbes pect
Ġfoot fall
Ġfoot stool
Ġsle eps
ĠY ear
ĠY EAR
Ġfur the
Ġpar anoid
Ġsight ings
Ġvis ibility
Ġvis ibly
Ġmar vel
Ġheart string
Ġcat c
Ġann ounce
Ġact s
ĠAl most
ĠAl bert
Ġdef ined
Ġunderstand s
Ġcomp ost
Ġcomp osition
rel s
rel ated
Ġdi pping
Ġbu rying
Ġpower less
Ġhat ched
Ġbright est
Ġbright ness
Ġkind er
Ġce ase
Ġacc omm
ĠCloak s
Ġinter ior
Ġexc ess
Ġmon key
Ġfle cked
Ġref illed
Ġpat rolled
ĠBe w
ĠBe aky
Ġfast est
Ġed ition
Ġmis ted
vent een
Ġmet allic
Ġsent ences
Ġins ol
Ġins ub
Ġins ider
Ġspeak er
ash io
Ġwatch in
Ġconf using
Ġpocket ing
Ġswe aters
HA GRID
Ġwrong ly
Ġunc o
Ġunc anny
Ġunc orked
Ġprot ested
Ġprot ests
but e
Ġsub jected
Ġsub mitted
Ġexpl ore
Ġsim pered
Ġsim mering
Ġsim pering
Ġrep ul
Ġinc on
Ġinc ensed
Ġinc orpor
oun ting
ĠFire whisky
br other
Ġtou ches
Ġbell ow
Ġspr ay
Ġpur se
Ġappro vingly
Ġtri bute
Ġrepe ating
Ġclut ch
Ġclut ches
Ġfa ults
str icken
Ġ1 2
Ġshock ingly
Ġev ade
vo c
vo ked
vo iced
Ġcoll ide
Ġsix teenth
Ġmad dening
ĠHer bs
off ee
Ġsun rise
Ġpict uring
Ġcreat ing
Ġear rings
Ġemer gency
Ġthr one
Ġthr ashed
Ġve iled
Ġluck ily
Ġshad owed
Ġass ent
Ġass igned
Ġrecogn izing
ub ble
Ġbat hed
Ġbat ty
ĠSh ame
ĠSh ouldn
Ġflat tering
Ġcons ent
IN K
IN S
not hing
Ġreason ed
Ġecho es
ĠEx per
Ġill ness
Ġill ustr
Ġdisc ord
Ġdisc arded
Ġmir rored
ĠWell ington
ĠEr umpent
Ġsing led
Ġhum med
Ġir ksome
St r
St an
St upid
St urgis
Ex cept
Ex pelliannus
Ġfro ck
Ġcalm ing
Ġhast y
ĠTH INK
Ġdifficult ies
Ġbow ls
Ġtight en
Ġnote book
ON D
ĠTr ust
Ġnarrow ing
Ġdem olished
Ġform idable
Ġtip toed
Ġforget ful
Ġenorm ously
ĠDiggory s
Ġcrack er
Ġcrack led
Ġdest ab
Ġsnow ball
Ġbang les
Ġpol icy
Ġtow ers
Ġpan el
Ġsecret ary
Ġenjoy s
Ġwondering ly
Ġlibr arian
Ġtouch y
Ġsick ened
Ġele g
Ġinf usion
eng ard
Ġincl ining
Ġincl ination
Ġreve als
Ġgro pe
ĠGo ing
Ġdep ressing
ĠWhere ver
ĠSee kers
Ġjump y
fig ure
Ġsy ll
org ive
Ġdri p
Ġdri pped
Ġsho ppers
oph antically
Ġsqueak s
Ġcompl ac
Ġcompl iment
ĠEven ing
Ġappl ic
Ġsoul s
Ġworth while
Ġcro aky
Ġink ling
Ġpoor ly
Ġsuff ice
Ġexplo sions
Ġune asily
Ġund ers
ĠTHE M
Ġguess work
Ġwarm ing
Ġprotect ing
Ġirrit ation
Ġgra zing
Ġgra vy
ĠWor se
ĠWor st
Ġcour sing
Ġthreat s
Ġdel uded
Ġchampions hip
Ġbirthday s
fin ished
Ġbre ach
Ġmer ry
Ġmer chand
ĠSm eth
Ġexper iment
Ġexper iments
Ġpatch y
Ġlur ching
Ġbeat s
Ġinterrup ting
AN CE
Ġthank ful
Ġthank fully
VE D
Ġrev ived
Ġeffect ively
Ġspectac ularly
Ġwra p
Ġgoal posts
Ġdefe nding
Ġhood winked
Ġremo val
sc ri
Ġclean er
Ġstream s
Ġstream ers
Ġpou ff
Ġblind ed
Ġindign ant
mer ic
Ġjourney s
Ġjourney ed
Ġdu els
Ġpen cil
Ġpen alties
Ġgrand son
Ġgrand parents
ov a
Ġfair ies
Ġant lers
Ġpop ulation
Ġtired ness
Ġunw anted
Ġmagn et
Ġsuggest ions
Ġslo pped
ĠPo inting
Ġhandle b
ĠOW N
Ġsweat shirt
ĠSqu inting
Ġchar red
Ġdeli vering
ĠImper vius
Ġstiff ened
Ġval entine
Ġexperi ences
Ġexperi encing
Ġpick led
Ġvar ied
AT HER
Ġcamp ing
Ġchuck ing
Ġgreet ings
Ġstreng then
Ġbust le
Ġclen ch
Ġamb ush
Ġtot tered
Ġcapt ion
ĠCare ful
ĠFe ast
ĠFe int
Ġwis er
Ġwis ps
Ġaut umn
Ġsav oring
Ġscra p
Ġtransform ation
ĠHigh ly
Ġstu pend
Ġimpro ving
Al as
ĠUnder neath
Ġregret ting
ĠMaraud ers
Ġban qu
Ġcarp ets
Ġcomment ating
ĠDec ember
Ġcrump et
Ġextraord inarily
Ġpurs u
Ġsitu ations
Out er
olo g
Ġstorm y
Ġprick ly
Ġfocus ing
Ne w
Ne xt
Ġlab yr
Ġnecess ity
Ġflow ered
Ġwo bble
athe tic
Ġscrew ing
Ġcarpet ed
Ġfart hest
ĠSil ver
ĠSil ently
Ġuns m
Ġuns urpr
Ġuns ucc
Ġuns upported
Ġpurpose fully
Ġbra vest
Ġbull ied
Ġreb u
Ġsched uled
Ġripp les
Ġgentle man
IS ITOR
Ġrever ie
Ġrever sed
ĠPl enty
Ġsteady ing
Ġrelax ing
fl akes
Ġorph ans
Ġoccup y
Ġmagnific ently
Ġmed i
Ġpeace fully
Ġconcl ude
Ġloc ations
Ġdisgu ises
Ġbal anced
Ġbal ancing
Ġdiv iding
Ġridicul ously
rons ki
Ġhid in
Ġpenn it
ĠBar nabas
Ġprov oke
Ġprov iding
Ġduel ers
Ġfus sed
Ġrad ishes
Ġdiss olving
Ġleaf y
UR N
Ġsou ven
Ġbark s
Ġcra b
Ġcra ving
Ġmil ky
Ġcrit icism
Ġadmitted ly
Ġdeliber ate
Ġsen ior
ĠBrit ish
Ġcrim inals
Ġtrolley s
Ġbill owed
Ġlung ing
ĠBE FORE
Ġhandful s
Ġscroll s
Ġexception al
Ġwrest le
Ġstack s
Ġobser ve
Ġfleet ingly
Ġimprison ing
ĠMA D
Ġrespond ed
SE VEN
Ġtit les
Ġhicc u
ĠHER MIONE
Ġmor on
Ġsal ute
Ġsal mon
ĠCle arwater
Ġpod s
Ġsteep ly
whe ther
Ġbann ers
Ġens uring
Ġinsist ence
Ġvenom ous
sk inned
Ġaud ience
Ġbund led
Ġrequire s
Ġarrog ance
Ġrestr aint
Ġrou se
Ġtin sel
Ġfog gy
ĠHar pies
Ġtomb stone
Ġcust om
Ġtrem ulously
ĠDr oo
ĠAT TACK
ĠAcc ident
Ġfruit less
Ġfruit cake
Ġexcl usively
Ġchann els
Ġsnout like
Ġjeal ousy
eal ous
uct or
Ġmim ed
Ġinqu ired
Ġinqu iringly
see king
Ġextend ing
ĠQuick ly
Ġperfonn ance
Ġmouthful s
Ġinvol unt
Ġinfl icted
Ġachieve ments
Ġskelet ons
ĠDungbom b
IL EN
Ġ3 1
Ġtown s
Ġvampire s
Ġhandwrit ten
Ġclaim ing
Ġimper tinent
Ġsnigg er
Ġstrang ers
Ġfreck led
Ġaffection ately
Che ck
Gr anger
gu ised
Ġlat eness
sec urity
ĠBas il
Ġscru bby
Ġsmug ly
Ġsmug ness
Ġmusc ular
Ġskept ical
Ġinhab ited
Dr agon
Dr agons
Ġtant rum
Ġmes merized
ĠFort unately
Ġtext books
Ġcris ply
Ġhed ger
ĠTe am
ĠTot tenham
Ġreli ving
ĠWH O
Ġjoy fully
Ġclaw ing
Ġsmugg ling
Ġintrig uing
Ġcritic izing
Spe aking
Spe cial
jinx es
Ġta unted
ĠRed uctor
ĠWIT CH
ĠBel ow
ĠBel by
Ġneg lected
ĠGO ING
Ġrout ine
Ġexer c
Ġdisple ased
Ġcleve rest
Ġinterven ed
Ġflex ible
ĠSnorkack s
Ġparent age
Ġcourtroom s
Turn er
did n
Ġav ailable
Ġsan ity
ĠSw itching
ĠSupp lies
Ġquant ities
Ġentertain ment
Ġadvis ing
Ġadvis able
Ġrelent lessly
Ġflee ing
Ġsubd ue
Ġinnoc ence
Ġdescend ants
ĠMAGIC AL
Ġcommunic ation
Ġeavesd rop
ĠSy llabary
Ġreread ing
ĠAng lia
ĠGol palott
ĠFif ty
Ġjost led
Ġrocket s
Ġconqu ered
Ġremin is
ĠStr ong
Ġintern al
Ġdwar fs
GG ER
Wizard s
Ġfant as
Ġfidget ed
Ġfidget ing
Ġmerm aid
Ġmull ioned
Ġlumb ered
Ġlumb ering
Ġpony tail
Ġjubil ation
Ġlect ure
Ġunsc rew
Ġtradition al
ĠUr anus
Ġstragg lers
Ġsuffoc ating
SH UT
Ġted ious
Ġted dy
Ġmult icolored
Ġguff awed
Ġnest led
ĠTer ror
ĠSer p
Ġshove ling
ĠBet ween
Ġsheep ish
Ġagg ra
Ġroset te
ĠEu an
ĠEu rope
Ġbrist ling
Ġshortcut s
Ġrefus es
Ġkidna p
Ġrebell ion
Ġreverber ating
Cr ookshanks
van ova
Ġnut ters
Ġhistor ian
Ġunst able
Ġpref ers
Ġregurg itating
Ġignor ant
Ġignor ance
ĠConfund ed
Ġzigz agged
Ġzigz agging
Mc Gonagall
Ġbaw ling
Ġdash board
Ġloos ening
Ġsty le
ĠServ ices
ĠPudd ifoot
Ġliber ty
ĠNiff lers
Ġqua vering
Ġunrave led
Ġscal p
Ġspecul ation
Ġhelm et
Ġairpl ane
Ġmarg in
ĠSnive llus
Ġconsol ingly
Ġpostp one
Ġprepar ations
Ġensl aved
Ġeavesdro pping
Ġancest ors
IZ ARD
Mar volo
Ġhither to
Ġbisc uits
Ġgor ill
Ġinse ct
ĠSho oting
ĠPow der
Ġdeg rees
Ġsup reme
Ġscen es
Ġflobberworm s
Ġpassers by
Ġrecoll ections
Ġadop ted
Ġrelinqu ished
ĠBeg inners
Ġcollaps ing
Ġirres ist
Ġferoc iously
Ġuneart hed
Ġmerc ifully
Imper io
Ġvigil ance
Ġrasp berry
Ġreminisc ently
Ag rid
Ġaer ial
Ġfest ive
Ġgaw ping
Ġgurg ling
Ġasce nded
Ġreun ited
ĠPast illes
ĠGhoul s
ĠCabin et
Ġlev itating
ĠNose bleed
Ġmutil ated
Ġcarol s
Ġmistreat ed
Ġdiscour aged
Ġtorre nt
Ġsyc ophantically
Ġcandid ate
ĠSpellot ape
Ġundet ected
Ġcourte ously
Ġreinst ated
ĠSCORE S
Ġoverex cited
Ġadvertis ement
Det ention
Og warts
Par vati
sb ane
Ġsomers ault
erd ash
ĠHinkyp unk
Ġmorn in
Ġpra ise
ĠDest iny
ĠPres ident
ĠAG AIN
ĠBL ACK
ĠBes ide
ĠBert ie
Ġrhy th
ĠCatch pole
ĠFoot steps
Ġabysm al
Ġoverpow ered
Ġpock marked
Ġunste ady
ĠEmm eline
ĠOb ject
ĠOtter y
Ġflour ishing
Ġloin cloth
Ġproced ure
Ġhurric ane
Ġsuppl ied
Ġelong ated
Ġobtain ed
Ġrecapt ure
Ġcatast ro
Ġhalluc ination
Ġevas ively
ĠAgu amenti
Ġscrutin izing
Ġsyst em
Ġdimin ished
ocom otor
Ġlandl ord
incip les
ĠIncant atem
ĠALB US
STUPE FY
Ġunhelp ful
Ġinadvert ently
Ġuncharacter istically
Faw kes
Mor fin
satisf ied
Ġtatt oo
Ġwaming ly
ĠHop kirk
Ġcot ton
Ġcri b
Ġcig arette
Ġdreg s
Ġmoust ache
Ġnuth in
ĠMerm ish
ĠTAL K
ĠSCH OOL
ĠSangu ini
Ġreind eer
ĠDerv ish
ĠPock et
ĠWidd ershins
ceiling ed
ĠBirth day
ĠBOR N
Ġjabb ering
Ġdeare st
ulner able
ĠNarg les
ĠNurm engard
Ġunenthus i
ĠVulchan ov
Ġorchest ra
ĠEile en
ĠEIGH TEEN
olph us
Ġteash op
Ġbedsp read
Ġbespect acled
Ġfootfall s
Ġfurthe st
Ġaccomm od
Ġincorpor ating
Ġmerchand ise
Ġstupend ous
Ġlabyr inth
Ġunsucc ess
' !
' ..."
- !"
A w
A ur
A dd
A ARGH
A lohomora
B u
B us
B out
B less
B uckbeak
B ring
B arty
B ode
B OL
C C
C ow
C all
C orn
C ause
C OME
C ouple
D O
D U
D es
D ep
D readful
E H
E v
E le
E ve
E ur
E ight
E lf
E ST
E IGHT
F E
F er
F arewell
F orgive
G O
G RYFFINDOR
H ard
H ome
H ull
H omed
H OW
I G
I g
J ordan
K inn
K illed
K ingsley
K indly
L F
L ist
L ie
L AND
M is
M id
M om
M et
M other
M arge
M ars
M ere
M mm
M ENT
N onsense
N AM
N oooo
N asty
O F
O dd
O oh
O liver
P ri
P ity
P OTTER
P athetic
R ed
R unning
R avenclaw
S ure
S pect
S leep
S ounds
T er
T is
T ry
T ut
T ongue
T rick
T alking
T uney
U s
U GG
V ot
V ING
W ater
W ands
W AY
Y e
Y ears
Y ES
] "
a i
a ur
a iry
b u
b or
b et
b ore
b ull
b ank
b reath
c at
c are
c ame
c ile
c les
c ourse
c ony
c omed
d ate
d ling
d ock
d ream
d eep
d rawn
e ur
f at
f ine
f ric
f ounded
f olded
g own
g irl
g asted
h as
h ly
h ome
h olding
i ing
i am
i vers
i ations
k ily
k ens
l ice
l ate
l ating
l ict
l ooked
m ble
m orning
n og
n ever
o es
o here
o ons
o bs
p ill
p ass
p ling
p ress
p aper
p oon
p assed
r ant
r ots
r usted
r non
s le
s ent
s al
s omething
s aving
t ell
t aking
t rave
u h
u um
u icy
v ious
v illes
w orn
w arn
w isher
x es
x im
y a
y t
z ied
} .
Ġ :
Ġ erm
Ġ icing
Ġ uttering
Ġt s
Ġt ad
Ġt umbled
Ġt acked
Ġt ax
Ġt inkled
Ġt aunts
he ar
he ll
he ment
in en
in ching
Ġs i
Ġs in
Ġs ed
Ġs ite
Ġs ine
Ġs ings
Ġs ipped
Ġs ane
Ġs orrow
Ġs izes
Ġw est
Ġw int
Ġw anning
Ġw anna
Ġw reath
Ġthe en
Ġthe ft
re cted
re spond
Ġh ips
on ge
ing ed
er ole
ar ison
Ġb am
Ġb art
Ġb ass
Ġb ile
Ġb iding
Ġb onn
Ġb alm
Ġb rows
Ġb aked
Ġb anning
Ġb ait
Ġb ums
Ġb ishop
Ġf ou
Ġf ut
Ġf inn
Ġf ans
Ġf anged
Ġf ishing
Ġf asc
Ġf ungi
Ġf athom
Ġo st
Ġo aken
Ġo tter
ĠH it
ĠH am
ĠH um
ĠH ill
ĠH IGH
ĠH astily
at ius
at ched
at iously
at ement
at form
at ures
is ly
Ġto b
Ġto en
Ġto ssing
it ored
Ġc ass
Ġc aring
Ġc act
Ġc ater
Ġc rave
Ġc ooped
Ġc aved
Ġc ode
Ġc asket
as uring
id ated
id ery
or ice
or king
or ient
Ġhe n
Ġhe ed
Ġhe aped
Ġhe nce
en cr
en alty
Ġd ess
Ġd itched
Ġd ented
Ġd ucking
Ġd yin
Ġd ittany
Ġd upl
Ġm a
Ġm ah
Ġm aps
Ġm ashed
Ġm aid
Ġm aker
Ġm akin
Ġl ull
Ġl est
Ġl oun
Ġl akes
Ġl isted
Ġl amb
Ġl ashing
Ġl ads
Ġl inks
Ġl inen
Ġth irt
Ġth wart
Ġth irteenth
Ġp ry
Ġp oo
Ġp ir
Ġp ud
Ġp ep
Ġp hen
Ġp umm
Ġp ug
Ġp als
Ġp ian
Ġp asted
Ġp itching
Ġp yr
es ley
Ġha il
Ġha gg
Ġha mb
Ġha unt
Ġha ph
Ġha uled
Ġha lting
Ġha zard
Ġha voc
an ched
an ity
an uts
an cies
Ġg rid
Ġg au
Ġg orm
Ġg rie
Ġg ale
Ġg ush
Ġin ched
Ġin ade
Ġin ept
Ġn ic
Ġn am
Ġn udging
Ġn ailed
le e
le ading
le mere
Ġsa ge
Ġsa iling
Ġsa int
Ġsa bot
ly head
Ġy a
Ġbe a
Ġbe es
Ġbe ach
gh om
Ġe ts
Ġe ased
Ġe ez
Ġe rected
ac iated
im eter
im inal
us ions
us tering
ve ling
Ġst im
Ġst up
Ġst itches
oo o
Ġit em
ĠI nt
ĠI vanova
et le
et ers
et ition
ion e
Ġwh iled
Ġwh acked
Ġwh oop
ro se
ro bes
ro ps
ir ies
ĠM ary
ĠM AR
ĠM uttering
ĠM asons
ĠM imbulus
ĠM imsy
ĠM UGG
ĠT all
ĠT ab
ĠT rave
ĠT ask
ĠT ON
ĠT ibb
ĠT RA
ĠT rees
ĠT entacula
Ġwe asel
ent e
ent ury
ent atiously
ad ding
Ġas pect
ĠS up
ĠS pect
ĠS orted
Ġre ign
Ġre pr
Ġre eling
Ġre open
ĠD unno
ĠD uddy
ĠD ouble
ur us
ur iously
ur ger
Ġ- '
se at
ag o
ag ement
st o
st ed
st aking
st ains
ĠR at
ĠR ise
ĠR ose
ĠR ON
ĠR iver
ĠR oyal
ĠR UN
ri ven
ri pping
Ġwit hering
ch art
ch ant
Ġan the
am ation
am aged
Ġse w
Ġse ed
her bet
um sy
ĠP ain
ĠP ell
ĠP ius
ĠP ump
ĠP ier
ĠP ushing
ĠP LE
ĠP roud
ĠP ausing
ĠP ops
all op
ĠA M
ĠA qu
ĠA band
ĠA PP
ĠA CC
ĠA fric
Ġsh ore
Ġsh ard
Ġsh ark
Ġsh unting
Ġk etch
erm ent
ĠHe aring
ĠHe avy
!" '
!" ),
... ?
... ''
ain ted
em en
em ius
em pt
em ies
ĠW ant
ĠW imb
ĠW rit
ĠW ays
ĠW atch
ĠW RON
ĠW ronski
ĠW IZARD
ĠW esley
Ġfr ay
Ġfr inge
Ġup coming
Ġdo l
Ġdo ct
Ġdo ze
Ġdo dge
Ġout right
Ġout ward
Ġout do
Ġout cast
un ct
and ly
ĠB in
ĠB art
ĠB right
ĠB arn
ĠB inky
ĠB RE
ĠB ring
ĠB ED
ĠB IR
ĠB UT
ĠB anshee
Ġme and
Ġme ekly
Ġme lting
Ġme asuring
Ġne aring
Ġne got
ĠG ry
ĠG lo
ĠG eor
ĠG org
ĠG inger
ĠG iving
ĠG lad
ĠG OOD
ĠG adding
Ġr anged
Ġr uth
Ġr hin
Ġr iddikulus
ĠC o
ĠC ed
ĠC ar
ĠC old
ĠC ru
ĠC akes
ĠC ounter
ĠC ockroach
Ġfe ign
Ġall y
Ġbut tering
if iable
ĠF er
ĠF ree
ĠF upin
ĠF ail
ĠF uming
ĠF IRE
ĠF antastic
ĠF ATHER
ĠF ancies
Ġj ury
Ġj aunt
Ġj unior
Ġj uicy
umb ing
Ġgo ats
ust omed
Ġso fter
lo g
lo ps
lo gged
Ġback p
Ġback yard
Ġback seat
qu er
qu ate
qu arter
ort ant
ide o
ĠL or
ĠL ower
ĠL iving
ĠL iber
ĠL osing
ĠL AST
Ġv ot
Ġv ine
Ġv ines
Ġv oted
Ġv andal
Ġv ulnerable
Ġv ideo
ud es
ud ges
Ġab using
Ġex ten
Ġex its
Ġex tern
our g
our ne
ist ine
ra p
lf ig
Ġro ads
Ġde eds
Ġde emed
Ġde pending
ff le
ul king
ul ity
Ġover looking
Ġover sized
Ġover long
Ġover bal
Ġover look
Ġover looked
Ġwould a
Ġsu g
ig ious
ig ible
Ġpo em
Ġpo sing
Ġknow ingly
old s
Ġdown cast
Ġoff ers
Ġoff ence
Ġoff hand
iz ingly
ĠN ah
ĠN IN
ĠN arrow
ĠN UM
ĠN ougat
Ġch unk
Ġch amb
Ġlike wise
Ġsp utter
Ġsp attering
Ġsp uttering
Ġsp asm
Ġsp onge
urn ed
Ġqu ilt
Ġcon c
Ġcon tend
Ġus hering
Ġun lo
Ġun ite
Ġun th
Ġun pr
Ġun lock
Ġun int
Ġun heard
Ġun pro
Ġun acc
Ġun marked
Ġun shaven
op ular
Ġhand led
ĠWe nd
Ġcan s
Ġcan ary
Ġcan tering
right ened
Ġsc ent
Ġsc ald
Ġsc oring
Ġsc ope
Ġsc oop
Ġbl ister
Ġbl urs
Ġbl andly
ĠV old
Ġpl un
Ġpl ann
Ġpl oughed
Ġcl ashed
Ġcl anging
Ġcl uster
Ġcl anked
Ġcl umsy
ap idated
Ġsl ot
Ġsl ur
Ġsl ap
Ġsl ouching
Ġmy th
Ġmy steries
Ġhead board
ĠE ric
ĠE ey
ĠE ither
ĠE vil
ĠE loise
og any
ĠO p
ĠO dd
ĠO uch
ĠO CTO
Ġtw irled
ang s
Ġsm ock
Ġsm attering
Ġsm udged
Ġvo icing
Ġtr ade
Ġtr amped
Ġthan king
Ġseem ingly
pt ions
Ġgr ime
Ġgr ins
Ġgr unts
Ġgr isly
ire ct
Ġsw an
Ġsw ished
Ġsw ings
Ġsw amp
Ġsw apping
Ġfl ing
Ġfl it
Ġfl are
Ġfl ier
Ġfl ushing
The ir
ĠU mb
ĠU nable
ĠPot ente
Ġman ure
Ġen v
Ġen vy
Ġen viously
Ġen raged
Ġclo cks
Ġwill ingly
Ġroom y
ab s
Ġar ched
Ġop al
Ġop als
ĠK it
ĠK een
ĠK ING
ĠK new
ĠK IL
ĠK irke
th an
th reat
th rough
Ġwat chers
Ġte ens
Ġte asing
Ġte etering
Ġunder foot
Ġdis e
Ġdis arm
Ġdis ann
Ġdis arr
Ġdis par
Ġdis oriented
Ġdis orient
Ġpe op
Ġpe gs
Ġpe bbles
Ġpe aky
Ġpe anuts
row ded
Ġke p
Ġlo sers
Ġlit tering
ect able
Ġspe ar
Ġspe ars
Ġspe cks
Ġspe cially
Ġbr at
Ġbr ats
Ġbr ackets
ĠDe eper
Ġac qu
Ġac ne
ĠHog wart
Ġpro long
Ġpro claimed
ĠBut terbeers
Ġtry out
oll owed
He ard
ress ive
Ġyear ning
Ġyear ned
Ġsil ken
Ġsil ky
Ġsec ured
Ġtwo s
Ġpr istine
ped ed
Ġwa vering
Ġwa ils
Ġgood s
Ġwizard ry
Ġdes igned
Ġcont acted
Ġcont agious
ĠNe villes
Ġho pping
Ġho vel
ple ts
room ed
Ġtal ents
Ġflo p
Ġsn aked
Ġsn uffed
Ġstr and
Ġstr utting
ĠCh aring
ĠCh uck
ĠCh ines
ock s
ĠMc Gonag
ĠMc Kinn
rie ved
Ġwind y
Ġwind ed
Ġdr umming
Ġopen mouthed
Ġche ating
Ġmust a
Ġcr umbled
Ġcr inging
Ġcr ush
Ġcr amming
ung ry
pl ace
pl ish
pl ott
ign ific
ced ented
ons ol
ons ciously
Ġput rid
Ġimp osed
Ġhur tle
Ġpass enger
Ġbel ching
Ġend uring
Ġend urance
be nd
be en
be es
be ck
Ġgreat ness
Ġbed clothes
Ġbed stead
ĠIn k
ĠIn n
ĠIn s
ĠIn v
ĠTh us
Ġgi vin
ern ess
Ġkeep er
Ġschool boy
Ġside lines
Ġlarge ly
Ġem aciated
Ġnew born
Ġfound er
acher ous
Ġel usive
Ġel apsed
az ardly
ne ed
Ġper ches
Ġper turbed
Ġret ched
Ġret ribution
ip ly
ĠJ ack
ĠJ ump
ĠJ UST
ild ered
Ġhelp less
ĠSt ink
ĠSt aring
ĠSt upef
ĠSt ubby
ĠSt unners
aw k
Ġreal ms
bl in
Ġhalf heartedly
Ġsk ive
Ġsk imming
Ġbook case
Ġbook shop
Ġlif el
av ored
Ġcast les
Ġsqu ared
Ġbeing s
ng thening
Ġcor ks
sh awk
ĠDark est
ib ited
Ġcare ssed
ĠPer u
Ġple ad
Ġste er
Ġste el
Ġste eling
Ġexpe lling
Ġkill s
li pped
Ġhold er
amp ering
Ġmin ister
ĠAs k
pr int
Ġres uming
Ġres idents
Ġpast ies
Ġgold fish
Ġbo ards
Ġbo ssy
Ġrest ricted
Ġtre acherous
Ġtop ics
Ġreturn s
Ġsna ils
Ġrec iting
Ġrec ipe
ĠGr ay
ĠGr unn
ens itive
ither wings
Ġcou nts
Who a
Ġdro plets
Ġdist ress
Ġad ol
Ġad ept
Ġad just
Ġexp anding
Ġdead ened
igg s
igg ling
ĠSe emed
Ġco il
Ġco ax
Ġwork load
iv ity
Ġmem o
Ġind ul
Ġind isting
Ġbes ee
Ġfoot ball
Ġpers ons
Ġpers istent
Ġcontin ues
ER O
Ġgu iding
Ġstra p
Ġstra pping
Ġstra ps
Ġdec ay
Ġowl ery
Ġpar agraph
Ġsight less
Ġwhole heartedly
Ġdet our
Ġdet ach
Ġvis or
ĠWhen ever
Ġmar bles
Ġask in
Ġstraight for
Ġred oub
Ġcat hed
Ġcat ches
Ġann y
ĠSc ar
ĠSc owling
Ġbur ly
Ġbur ial
Ġ( '
Ġact ive
Ġpot ted
Ġpot ential
Ġpot entially
ĠAl gie
Ġdef lated
Ġshort s
Ġsort a
Ġfall s
Ġnose bleed
cept ibly
Ġcomp ass
Ġcomp ens
Ġcomp ressing
Ġcomp arison
Ġbus ied
tend ing
ĠAt t
Ġbu bbled
Ġbu oyant
ĠFil ius
Ġstuff s
sp urt
Ġfly away
ĠFor ce
ĠFor get
ĠFor give
Ġacc ustomed
Ġexc ursion
Ġmon um
Ġmon ks
Ġmon itored
Ġfle xed
Ġspot light
Ġref illing
Ġwater logged
Ġfast ening
ĠMy st
Ġed itor
Ġru ining
Ġmis d
Ġmis be
Ġmis fortun
Ġmis giving
Ġmis leading
Ġperson ality
Ġsent in
Ġins cr
Ġins ignific
Ġthick et
Ġthick ened
Ġblood stains
Ġconf ined
Ġconf ronted
HA N
Ġexpl ains
Ġsim pl
Ġsim ultaneously
Ġfight s
Ġrep acked
abb er
abb led
abb itty
Ġexpect ant
Ġinterest ingly
Ġnumb ly
Ġnumb ness
Ġinc apable
Ġinc ohere
ĠGreat er
Ġdiffere nces
Ġhundred th
Ġcorn ering
Ġcorn flakes
tail s
ĠOr b
Ġpres ume
Ġbell s
Ġspr ayed
ĠPr om
ĠPr act
ĠPr otego
ĠPr otection
Ġpur red
Ġpur pos
Ġappro aches
Ġtri lled
ĠEvery where
Ġclut ter
ald erdash
Ġreg aining
Ġ1 3
Ġsus pension
Ġdraw l
Ġev acu
Ġwrit he
ĠRe f
vo id
Ġspl utter
Ġspl ashes
Ġcross es
Ġpract ically
Ġmid riff
Ġmad man
Ġburn ished
Ġcreat ion
Ġattack ers
Good ness
Ġeff ing
Ġeff ic
ident ally
Ġear ring
ask ets
bus hes
Ġthr ot
Ġve hement
Ġcho col
Ġbar red
Ġbar riers
ĠCr iminal
Ġlead en
Ġtrain s
ĠCharm ing
Ġcut e
Ġass orted
Ġass urances
pect ing
Ġrecogn ition
Ġpale ly
Ġbat ch
Ġmiss es
Ġinv ention
Ġegg nog
Ġball et
Ġball oons
An gelina
Ġill usion
Ġought a
Ġdisc onsol
Ġpun ishing
orrow ed
Ġsing ularly
Ġeag erness
Ġfre s
Ġtrans lation
St raight
Ġtor ment
Ġrose bushes
Ġadd led
Ġcalm er
Ġadm on
Ġbottle brush
Ġobject ions
by es
ĠTH ING
Ġglo ved
medi ately
ĠSec ure
ourn al
Ġord eal
Ġbas is
Ġappear ances
Ġbath robe
Ġshr unk
Ġprom oted
Ġstrong est
ote cted
RE AT
joy ing
Ġform ation
Ġview ed
Ġbottom s
Ġoppos ition
col m
ĠWho ever
Ġpost ed
Ġpost man
Ġnone x
Ġdest ined
Ġdust bin
imp ies
Ġweak er
Ġsecret ive
Ġconv ict
ĠTom orrow
Ġrepl ay
Ġbound s
Ġspir aled
Ġnotice able
Ġeyeb alls
Ġtom ato
Ġble ary
Ġsend s
In to
In side
In teresting
Ġpath s
inct ively
Ġhon ible
enn ent
Ġinf irm
Ġafterno ons
Ġenc rusted
pic able
Ġbeard s
Ġrock er
Ġreve rence
Ġbathroom s
Ġgro ggy
ĠGo bbled
ĠGo shawk
Ġexcit able
Ġglit ter
ĠPatron um
Ġess entials
ĠLe vels
Get ting
Ġdri bbled
Ġsho e
Ġgrass y
centr ating
Ġemb oss
Ġemb raced
Ġstat us
Ġfool hard
ĠIm agine
ĠIm mediately
Ġvill ages
Ġpu ce
Ġpu zzle
Ġsplit ting
ĠTrans yl
ĠTrans port
ĠSpell man
Ġsuff iciently
Ġexplo sive
ĠXen o
Re g
ĠWand ering
Ġappre hended
Ġcupboard s
Ġhide out
Ġund amaged
ĠRem over
Ġplat ters
ĠTHE Y
ĠTHE IR
Ġmen ace
Ġpay ment
Ġsens itive
Ġfil tering
Pot ions
Ġgra pp
Ġclot hed
ĠStone wall
Go blins
ĠWas n
Ġdel usion
io cre
Ġdisappo inting
Ġfit ting
Ġexper ts
Ġannoy ingly
ĠTransfig ured
Ġlur id
ĠReg istration
ait ing
Ġjinx ing
ruct ive
Ġaware ness
Ġsolid ified
Ġsque als
Ġhorror struck
Ġfo als
Ġsurv ival
.' ''
Ġwra ppings
Ġconcern ing
Ġunf olding
Ġfinal ity
Ġincred ulity
Ġpriv acy
gr ass
Ġgul ps
Ġweight less
Ar agog
Ġcharm ed
Ġgener osity
Ġpou fs
Ġwel comed
Ġindign ity
ĠLovegood s
Ġdim med
Ġgrand eur
Ġdragons kin
res ent
res pec
Ġtriump hed
Ġsour ly
Ġflash light
Ġbul k
Ġbul ky
Ġpin ts
Ġpin ching
ĠBr ain
Ġdev ice
Ġdev ised
Ġdesp ise
Ġsuggest s
Ġlad ling
Ġbeaut ifully
ĠSl ightly
ĠFaw c
Ġcryst all
Ġconst it
Ġmuff ling
do es
Ġsweet shop
Ġval iant
Ġval iantly
ibb ering
Ġbald ly
Ġrese mble
Ġtunn els
ĠAd am
ĠAd rian
Ġconsider ation
Ġrum ored
Ġcelebr ity
Ġcelebr ations
Ġing enious
Ġbod ily
Ġself ish
Ġclen ching
Ġhorse less
Ġamb led
omm on
Ġlip less
Ġdism al
Ġdism ay
Ġdism ally
Ġdism ounted
Ġpred e
ĠRos ier
ĠCan ary
ĠOcclum ens
Ġdiscuss ions
Ġbewild ennent
AS H
ĠSp iders
ĠOw ls
ĠInst ant
ĠInst antly
ĠInst inctively
Ġsav ior
ĠRo bes
ĠRo bins
Ġtransform ations
Got ta
Got cha
Ġident ifying
Ġident ification
Ġfoolish ly
Ġpubl ished
Al ready
Ġband age
Ġpajam a
Ġrele vant
OW ARD
Ġban king
Ġmeaning ful
Ġmeaning fully
Ġrespect s
Ġnon stop
Ġcomment ator
Ġcollect ive
Ġtransp ired
Ġstrength s
Ġblast s
Ġloss es
Ġcheek b
Ġsuccess or
Ġsuccess ion
Ġingredi ent
Me et
Mad ame
Ġtick led
Ġtear fully
Ġoutst anding
Ġwaist band
ET EEN
Ġfail ure
Ġequ als
rop hes
ĠWar beck
Ġdecor ation
ĠConf isc
Ġwo bbling
Ġrecord ed
ES S
aa ah
Ġcond em
Ġboot h
Ġfond ness
ĠHE LP
ĠST ILL
ĠSil encing
Ġreass urance
Ġshield s
Ġuns us
Ġuns atisf
Ġfles hy
Ġpurpose ful
uthor ity
Ġbull dog
Ġhedge h
Ġpit iless
Ġpudd le
ĠMal colm
ĠMore over
PE EVE
vin ced
ĠHor rified
ĠPl ank
ĠPl impies
Ġapolo getic
Ġmountain side
fl ies
ĠHA D
Ġoccup ant
Ġserpent ine
Was n
Ġbom bs
Ġmed icine
Ġmed iocre
ĠComm ission
Ġscur ry
Ġflower pot
Ġcomplain t
Ġauthor ities
Ġattend ing
Ġshare s
Ġshame ful
Ġloc al
Ġobs erv
Ġdisappro ved
Ġbal cony
Ġvol umes
Ġimpr int
ĠStud y
ĠFour teen
Ġven geance
Ġvac uum
Ġexting uishing
Ġque ued
Ġque uing
Ġque asy
Ġobsc uring
Ġdetenn ination
Ġumbrell as
HER E
Ġwre cked
Ġph ase
Ġph ial
ĠSumm on
ĠBo b
Ġrad iant
Ġdispl ays
Ġleaf lets
Ġinfonn ed
Ġcourt esy
ascin ating
UR DER
Ġcra ved
Ġsand y
Ġblur ring
Ġcrit ically
Ġdeliber ation
cr ombie
Ġstal act
ĠRom ulus
ĠCat ching
Ġnod s
Ġunb locked
Ġunb roken
Ġwandering s
Ġhonest y
fe it
Ġdwell ed
Ġdwell ings
Ġhab its
ĠCad wall
Ġrig idly
Ġpopular ity
Ġwrest led
Ġpron ouncement
?' "
Ġhar p
Ġhar ness
Ġpalm istry
Ġnin th
ĠMA KE
Ġstring y
Ġstring ent
Ġdiscover ies
Ġfashion ed
Ġdefense less
Ġdespair ingly
First ly
de cker
uish able
Ġbann an
Ġinh aled
ĠCl ankers
Ġsuspect ing
Ġdisgr ace
ĠSneakosc opes
handed ly
mpt y
ats head
Ġpal p
Ġpal ace
Ġinn umerable
Ġshrive l
Ġshrive lfig
Ġrepres ented
Shh h
Ġdepartment s
Ġfonn ing
Ġstif le
Ġreward ed
Ġener getically
Ġtrem ulous
Ġconscious ness
Ġdazed ly
Ġdismiss al
Sc ared
Ġsinister ly
Ġmourn ing
Ġstock ing
Ġstraw berry
ĠDr ink
ĠDr agon
ager ie
ĠAm ong
ĠWE ASLEY
Ġexcl amation
Ġchann s
Ġunre asonable
Ġentr usted
Ġriver bank
Ġjeal ously
Ġsleek ly
Pr ince
Ġais les
Ġtooth brush
Ġinex press
ĠDet erm
see ing
ĠPol kiss
Ġattract ive
Ġinterrog ate
Ġinterrog ation
Ġinterrog ating
Ġspring y
Ġinfl ated
Ġinfl ating
Ġscreech y
Ġskelet on
Even ing
IL Y
Pet tigrew
con ut
Ġtu be
Ġded icated
Ġcondu cted
ĠStre ngthening
Ġregard ed
Ġaffection ate
Ġbreed s
ĠRow ena
Ġforth coming
Ġclam oring
Ġdisag reement
Ġamid st
Ġsignific antly
Ġskept icism
Ġrepresent ing
ĠLegilim ens
Dr ink
lad en
Ġtant rums
Ġdumb founded
Ġnet tles
ĠGu ess
Ġspo iled
ĠUN DER
Ġinde pend
Ġveget ables
Ġplatfonn s
ĠBowtr uckles
EL Y
Lo ony
UD ENTS
Ġinsp ired
Ġslack ened
Ġsmugg led
Ġtragic ally
ĠInc urably
Ġboss ing
Ġactiv ities
Ġaccord ance
Ġsust ain
Ġfulf illed
Ġcal med
Ġthrill ing
ĠMir anda
stand ard
Ġrecall ing
Ġmemor ial
Ġcontempl ation
Ġcontempl ated
Ġcontempl ating
ĠCleanswe eps
ĠEgypt ian
Tr ust
Ġvers ions
Ġcul min
ĠIg or
ĠSw ed
Ġgoss iping
Ġdeb t
Ġtwil it
Ġgrind ylow
Ġoper ate
Ġoper ated
Ġcorp ulent
Ġmutter ings
Ġabsurd ly
Ġautograph s
Ġsuperior ity
Kn owing
eg ook
Ġthestr als
Ġfav ored
ĠHo lyhead
Ġloop hole
acc ord
Ġwhit eness
ĠSte am
ĠAL ONE
ĠWil bert
Ġdecl are
Ġspi kes
Ġflag ons
Ġfloorboard s
Ġpattern s
Ġpattern ed
Ġhumil iated
Ġdisbelieving ly
Ġobliv ion
Ġvolunte er
Ġassoci ate
Tom orrow
Wizard ing
Ġbuff eted
Ġtoler ance
Ġmerm an
Ġmull ed
Ġjubil ant
Ġcance lled
Ġplumm eting
Ġtramp ling
Ġprem ature
Ġtend ency
Ġdiscipl ine
Ġstragg ly
Ġimpost er
Ġmisunder stand
Ġuncertain ty
Cle ar
Ġtarn ish
Ġdil apidated
Ġmult iply
Ġguff aw
Ġsauce pan
ĠTon ight
ĠTer rible
ĠSens ors
ĠRel uct
ĠBet ter
ĠFam ily
ĠEN OUGH
Ġdisrup tion
Ġremed ies
Ġbrood ing
Ġproc ure
Ġproc uring
Head master
Ġgenuine ly
Ġkidna pped
Ġperman ent
Ġbloss oming
Ġbloss omed
ĠKnock tum
Ġbetray al
Ġrebell ions
Ġreverber ated
Ġacceler ated
ĠVoldemor f
LY THER
Slu ghom
grow ing
Ġfret fully
Ġopt im
ĠHand book
ĠHope fully
Ġmort ified
Ġleng thy
Ġleng thening
Ġgun shot
Ġwhoos hed
Ġsquel ch
Ġsquel ching
Ġcoup led
Ġcoup les
Ġpurch ased
Ġexpert ise
Ġpamph lets
Ġemphas is
Ġwigg ling
Ġbi ography
Ġbaw led
ĠHerm y
Ġpork y
Ġgou ge
Ġgou ging
ĠMid gen
ĠTurn s
ĠPudd lemere
ĠLight s
Ġdepend s
ĠNiff ler
Ġunp opular
ĠVen us
Ġpepp ermint
Ġprovo ked
Ġcontam inated
Ġdrum med
Ġeman ating
Ġairpl anes
Ġsquaw ked
Ġgreed ily
Ġdecip her
Ġmarg ins
Ġmistr ust
ĠSnive lly
Ġpostp oned
Ġprepar ation
Ġastonishing ly
Ġsalam ander
Ġestab lish
Ġlampl ight
Ġancest or
Ġecst atic
Acc ident
Ever ard
Ser iously
Ġtire lessly
erb ock
Ġcere al
asion ally
Ġlic ense
Ġthirst y
Ġhaw k
Ġhaw thorn
Ġgamb ling
Ġinward ly
ĠMen agerie
ĠSH OULD
ĠSU PP
ĠRod olphus
ĠAc id
Ġoverhe aring
ĠOcc asionally
Ġtrund led
Ġtrund ling
Ġimit ate
Ġimit ations
Ġrefr ain
Ġsurviv or
Ġsurviv ors
Ġprivile ges
Ġcorrespond ent
Ġobliter ated
Ġobliter ating
Ġornament al
Ġdishon or
BE FY
Fire nze
Gu ess
RR GH
Sil encio
Ve il
cont rol
pane led
Ġarou n
Ġwadd ling
Ġhunch backed
Ġbord ered
Ġcabb ages
Ġdaw dled
Ġpest le
Ġgarl ic
Ġsauc ers
ĠTroll s
Ġastr ide
Ġrevis ing
ĠRever sal
Ġdogged ly
Ġouts ider
ĠBR OOM
ĠGirl s
Ġisol ated
Ġabnorm ally
Ġrog ue
Ġdeleg ation
Ġunse ated
Ġprejud iced
Ġleth al
Ġsnog ged
Ġsnuff box
Ġdrunken ly
Ġnewcom ers
Ġdiagr am
Ġsubm it
ĠFrisbe es
Ġplanet ary
Ġferre ting
Ġbleak ly
Ġencirc led
Ġgraffit ied
ĠKnarl s
Ġmorose ly
ĠDeton ators
Ġblotch y
ĠGurdyro ot
Ġcrisscross ing
Diff indo
fle cked
mo ving
spe ak
Ġtang les
Ġnumer ous
ĠSli pping
ĠPrew ett
ĠBon accord
ĠCrou ching
ĠFab ian
Ġrod s
ffect s
Ġconsp ic
Ġscre ening
Ġclun king
ĠObliv i
Ġenab led
Ġprun ing
Ġfirecrack ers
Ġmute ly
Ġdiver ted
Ġvanqu ish
Ġrepay ment
Ġinfur iating
ĠINQU ISITOR
Ġunbear able
Ġpalomin o
ĠLevios a
Ġtantal izingly
Bag man
Clo se
Dam n
Ton ight
hab ited
Ġapt itude
Ġsum pt
Ġwist fully
Ġwagg ling
ĠHundred s
Ġdapp led
Ġloo sen
Ġlame ly
Ġhay wire
Ġnaught y
Ġbehead ing
ĠMetam orph
ĠSur rey
ĠSto atshead
Ġreent ered
send ium
Ġoutn umbered
Ġknick erbock
ĠCor respond
ĠCount ry
Ġvindict ive
ĠNin eteen
Ġquizz ical
Ġconge aled
Ġunset tled
Ġunpre cedented
Ġscoff ed
ĠKapp as
Ġsecl uded
Ġprim ary
ĠInvis ib
Ġjov ially
Ġbooms lang
Ġrecom mend
Ġexpan se
Ġmarvel ous
Ġcatc alls
ĠBew ildered
Ġinsub stant
Ġrepul sed
Ġincon ven
Ġmaddening ly
ĠExper imental
Ġeleg ant
Ġsyll able
Ġunders ide
Ġhandleb ars
Ġbanqu et
Ġunsm iling
Ġmedi wizards
ĠDroo ble
ĠAccident al
Ġinvolunt ary
ILEN CE
Ġgorill a
Ġrhyth m
Ġcatastro phe
Ġunsuccess ful
Aur or
Corn elius
Eur gh
Hull o
Mid night
Trick y
sent ence
wisher s
Ġsings ong
Ġwint ry
Ġbart ender
Ġfasc ination
Ġost entatiously
Ġcass erole
Ġcact us
Ġcater pill
Ġhence forth
encr usted
Ġmah ogany
Ġloun ge
Ġthirt ieth
Ġpud gy
Ġphen omen
Ġpumm eling
Ġpian o
Ġhamb urger
Ġhaph azardly
Ġgorm less
Ġgrie v
Ġsabot age
ĠTab oo
ĠTrave ls
ĠTibb ies
ĠSpect respec
ĠPell ets
ĠPump kin
ĠPLE AS
ĠAband oning
Ġketch up
Ġoutdo ors
ĠBart emius
ĠFIRE BOL
Ġexten sive
Ġextern al
ĠNIN ETEEN
ĠNUM BER
Ġunth inkingly
Ġunpr otected
Ġplann er
ĠEey lops
ĠOCTO BER
ĠUmb ridges
ĠKIL LED
ĠChines e
ĠMcGonag al
plott able
ĠStupef ied
Ġindisting uishable
Ġstraightfor ward
Ġmisfortun e
Ġmisgiving s
Ġinscr ut
Ġinsignific ant
Ġpurpos es
Ġchocol ates
Ġinfirm ary
ĠGobbled egook
Ġemboss ed
PEEVE S
ĠCadwall ader
ĠSpectrespec s
" '
" .
" :
' "
) ...
. !
1 1
4 5
8 1
? ...
A W
A b
A p
A nt
A ye
A TER
A zkaban
A VE
A PE
A FF
A hem
A KE
A gu
A gain
A GE
B B
B o
B ed
B as
B oy
B el
B oth
B eaky
B ertha
B RID
B alderdash
C aught
C aptain
C OM
C ormac
C ompletely
D one
D own
D el
D est
D og
D LE
D ivination
D ean
D arling
E VER
E xtra
F r
F am
F ort
F ull
F ound
F oul
F irs
F riends
F rightened
G old
G ave
G rim
G erroff
H erm
H ide
H igh
H orcrux
H anging
H ING
H IND
H orrible
H allows
H uh
I O
I P
I EN
I ED
I BLE
I di
J ORD
J ealous
K ILL
L S
L ight
L ost
L ER
L ets
L ibr
M o
M ed
M ist
M ap
M agic
M uff
M uch
M ummy
M ASTER
N orm
N icked
N umber
N INE
O ops
O LD
O bliv
P or
P ur
P ay
P ig
P os
P ED
P ossibly
R om
R el
R ather
R ookwood
S C
S O
S P
S on
S al
S ort
S ettle
S HE
S upp
S LEY
S aint
S afe
S weet
S LYTHER
S ILENCE
T y
T re
T ri
T relawney
T HAT
T HE
T alk
T urning
T ogether
U P
W P
W it
W ent
W rite
W AIT
X en
Y axley
Z ERO
a er
a ising
b est
b ird
b oth
b odied
b reathing
b aiting
c it
c ould
c ard
c reat
c ation
c age
c ured
c ouldn
c urd
d le
d um
d one
d ep
d ance
d ens
d ict
d ale
d thy
d rop
d rops
e art
e ers
e ven
e ks
e nding
e cked
e vin
e bore
f it
f ly
f ur
f led
f ted
f ull
f ound
f ord
f udd
f orce
f rom
f olk
g i
g ic
g um
g ering
g ies
g ilim
g liest
h r
h ad
h ill
h ide
h op
h arts
h iv
h idden
h undred
h ub
h austed
h ooks
h ungry
h ibited
i y
i very
i ors
i pl
i be
i ably
i ased
i bbled
i ography
i ione
j acket
k id
k able
k indly
k need
l ar
l orn
l isted
l idded
l iction
l aughing
l hiv
m ag
m ind
m ell
m iss
m aid
m ando
m iione
n ate
n ee
n erv
o k
o ors
p u
p is
p ast
p ink
p ie
p icked
p acked
p ants
p etr
p erson
p ipes
r un
r ud
r age
r ated
r ans
r agg
r ayed
r ags
s l
s um
s ie
s chool
s ating
s cent
t ry
t ot
t al
t ight
t est
t ried
t ale
t rait
t ively
t uce
t urb
t hens
u u
u ation
u cio
u fact
v ice
v ation
v ise
v ial
v ailable
w a
w and
w est
w ump
w ulf
w inded
x ious
y an
y th
y ellow
Ġ 9
Ġt at
Ġt us
Ġt ink
Ġt ous
Ġt ong
Ġt ure
Ġt ier
Ġt aped
Ġt esters
he w
he ld
he ast
he art
he av
he eled
Ġa x
Ġa ust
Ġa val
Ġa rose
in ter
in to
in ating
in ously
in cent
in formed
Ġs izing
Ġs ipping
Ġs izable
Ġs herbet
Ġw ick
Ġw ade
Ġw ont
Ġw akes
Ġw aded
re U
re o
re p
re ary
ou ng
Ġh umb
Ġh ous
Ġh ating
Ġh ipp
Ġh ushing
Ġh ides
Ġh oof
Ġh ilar
Ġh iber
Ġh oused
Ġh ollowed
ed ded
on in
ing ery
er an
er ts
er by
er hooks
ar b
nd urable
Ġb out
Ġb led
Ġb rid
Ġb aking
Ġb os
Ġb ins
Ġb idden
Ġb oun
Ġb icy
Ġb aubles
Ġb askets
Ġf ri
Ġf arm
Ġf iss
Ġf anning
Ġf ogging
Ġf dled
Ġf dthy
Ġo cked
Ġo oh
Ġo intment
Ġo xy
Ġo live
ĠH i
ĠH ag
ĠH ide
ĠH ass
ĠH ug
ĠH enn
ĠH OW
ĠH ags
ĠH urry
ĠH AND
ĠH iggs
at in
at ant
is al
is to
is king
is man
is lation
Ġto er
Ġto sh
Ġto aster
Ġto ga
Ġto kens
it he
it ate
it ory
it ors
it ten
Ġc u
Ġc ate
Ġc ue
Ġc arts
Ġc ove
Ġc ower
Ġc av
Ġc rouch
Ġc upp
Ġc herry
Ġc ogs
as poon
ll o
id or
id an
id ue
id ays
id otes
or ley
or ation
or ily
or age
or iously
or used
or ters
or ium
Ġhe wn
Ġhe ft
en ance
Ġd ome
Ġd ood
Ġd ink
Ġd ab
Ġd ip
Ġd ict
Ġd aught
Ġd ivination
Ġd iction
Ġd andel
Ġd oused
Ġd emented
Ġd reary
Ġm ous
Ġm ers
Ġm au
Ġm alf
Ġm ach
Ġm ish
Ġm ater
Ġm ops
Ġm unching
Ġl icked
Ġl acked
Ġl ooped
Ġl agged
Ġl acy
Ġl asso
Ġl oung
Ġth orn
Ġth igh
Ġth ither
Ġth uggish
Ġp um
Ġp ust
Ġp ap
Ġp ate
Ġp ite
Ġp ung
Ġp ins
Ġp ince
Ġp ored
Ġp int
Ġp ounced
Ġp iping
Ġp onder
Ġp ondering
Ġp imply
Ġp yth
es maid
Ġha iled
Ġha vers
Ġha zy
Ġha cking
Ġha zily
an ied
an che
Ġg w
Ġg ut
Ġg ust
Ġg ull
Ġg uttering
Ġg abbling
Ġg erroff
Ġg usto
Ġg ills
Ġg ingery
Ġin app
Ġin aud
Ġin ert
Ġin att
Ġin ev
Ġin laid
Ġn ag
Ġn uff
Ġn ipped
Ġn icking
Ġn iece
Ġn ursed
Ġn ibbled
Ġsa il
Ġsa ils
om ir
om ous
ot ic
ot est
ot ect
Ġbe ars
Ġbe acon
Ġe w
Ġe bb
Ġe els
ac us
ac iously
ac ement
ac co
ld a
im on
im en
im um
im ble
im ple
im ony
us ual
ve re
Ġst ow
Ġst ain
Ġst ake
Ġst ings
Ġst aining
Ġst unted
Ġst umble
Ġst ench
oo red
oo sters
ĠI D
ĠI d
ĠI nd
ĠI RE
ĠI ckle
et ts
ic um
ic ized
ic ament
ic emen
ion ing
Ġwh ites
Ġwh iter
Ġwh oops
Ġwh ipl
ro c
ro cks
ir ch
Ġhad dock
ut ching
ut ions
ut inous
Ġthat T
Ġthat ched
ĠM a
ĠM ade
ĠM od
ĠM ove
ĠM outh
ĠM oon
ĠM AN
ĠM aj
ĠM IST
ĠM ASTER
ĠM URDER
ĠT ow
ĠT ut
ĠT ap
ĠT ER
ĠT iber
ĠT alking
ĠT rouble
ĠT offee
ĠT HAN
Ġwe nd
Ġwe nding
Ġwe athered
Ġwe arer
out heast
ent ines
ad ill
ad able
ad owed
Ġas ph
Ġas yl
Ġu pending
Ġu gliest
ĠS ay
ĠS ort
ĠS aw
ĠS ays
ĠS leep
ĠS weet
Ġre nd
Ġre em
Ġre ven
Ġre op
Ġre side
Ġre aw
Ġre aping
Ġre born
ĠD ot
ĠD am
ĠD ust
ĠD ud
ĠD iff
ĠD ement
ĠD raw
ĠD read
ĠD inner
ĠD OW
ĠD IS
ĠD UR
ĠD raft
ĠD ANG
ĠD AD
ĠD readful
ĠD oris
ur ge
al t
al og
al th
al ia
se ll
se led
se venth
ag n
ag omir
st ream
st ruct
ĠR et
ĠR ep
ĠR ather
ĠR oll
ĠR unning
ĠR uddy
ĠR ET
ĠR aising
ĠR yan
ri pp
ri ate
Ġwit her
Ġfor ked
Ġfor lorn
am y
am id
am ity
am ount
Ġse ep
Ġse iz
Ġse wn
Ġse lves
Ġse eping
um ents
um ption
um ero
ĠP E
ĠP L
ĠP ick
ĠP ure
ĠP ost
ĠP ee
ĠP ower
ĠP ye
ĠP retty
ĠP redict
pp ost
pp osed
all ied
Ġnot ing
Ġnot ion
Ġnot able
Ġnot ified
Ġnot ify
Ġnot orious
ĠA head
ĠA ging
ĠA ren
ĠA ustr
ĠA UN
ĠA lohomora
ĠA meric
ĠA uthority
ill ingly
rou bled
Ġsh oo
Ġsh ru
Ġsh abb
Ġsh akes
Ġsh roud
Ġsh irts
Ġsh ivery
Ġk ipper
erm ark
ĠHe miione
ĠHe llo
pe nded
pe rer
!" ;
Ġher bs
ain ess
ain ting
em on
em pl
ĠW it
ĠW ent
ĠW ay
ĠW el
ĠW orm
ĠW anted
ĠW ater
ĠW ild
ĠW ha
ĠW ales
ĠW onder
ĠW AND
ĠW alking
ĠW OULD
ĠW AY
ĠW olf
ĠW AIT
ĠW ingardium
ĠW atching
ĠW itherwings
ĠW HERE
Ġfr on
Ġfr othed
Ġup sw
Ġup take
Ġup hold
Ġup holding
Ġup tight
Ġdo om
Ġdo cile
Ġout lined
Ġout spoken
ce aled
ce ived
un c
un es
un ias
ge o
ind ling
and ra
ĠB le
ĠB ad
ĠB and
ĠB od
ĠB less
ĠB IN
ĠB eth
ĠB OT
ĠB ilius
ĠB ouncing
ĠB addock
ĠB ett
ĠB rock
ĠB OOM
ĠB roken
ĠB army
ĠB ubble
ĠB orage
Ġme wing
Ġme llow
Ġkn it
Ġkn ots
Ġkn ob
Ġkn uckle
ĠG R
ĠG ide
ĠG round
ĠG ree
ĠG orn
ĠG ene
ĠG arr
ĠG lass
ĠG lit
ĠG RA
ĠG IC
ĠG iven
ĠG ONE
ĠG rip
ĠG udgeon
ĠG ripping
il f
il ted
il arly
il ian
Ġr ant
Ġr ice
Ġr ans
Ġr iddle
Ġr aces
Ġr anting
Ġr gotol
Ġr acking
Ġr hod
Ġr iches
Ġr hub
Ġr oosters
Ġr allied
ĠC all
ĠC ass
ĠC ather
ĠC ere
ĠC aut
ĠC OM
ĠC ode
ĠC HE
ĠC RA
ĠC rock
ĠC ARE
ĠC enta
ĠC urious
ĠC oughing
ĠC OULD
ĠC entury
ĠC OWARD
Ġfe aring
Ġall e
Ġbut tered
to pped
to ise
to othed
ĠF E
ĠF ro
ĠF all
ĠF lo
ĠF ace
ĠF ine
ĠF light
ĠF aces
ĠF ub
ĠF ollow
ĠF ountain
ĠF RON
ĠF riends
Ġj umbled
Ġj ig
Ġj ol
Ġj udd
Ġj uggling
Ġj ournal
umb ering
hing ed
Ġgo aded
ust ly
ust worthy
Ġso les
ast rophes
one l
Ġback up
Ġback tr
Ġback drop
qu es
qu est
qu iet
qu hart
Ġli ken
Ġli zard
Ġli kable
ĠL le
ĠL ur
ĠL ib
ĠL awn
ĠL orest
ĠL ots
ĠL AD
ĠL uckily
ĠL ORD
ĠL ocomotor
Ġwho lly
Ġv at
Ġv ice
Ġv est
Ġv ary
Ġv estig
Ġv ases
ud s
ant ul
Ġab ide
Ġab ated
Ġab used
Ġex ile
Ġex ped
Ġex ceed
Ġex iting
Ġex agger
Ġex uberant
Ġle pt
Ġle ash
Ġle gged
Ġle eches
Ġle etle
Ġno on
Ġno sing
ist ant
ist urbed
ra b
ra ff
ra bell
ra isal
Ġag ility
Ġag itation
Ġro ving
Ġro bbed
ct ic
Ġal as
Ġal ter
Ġde arly
Ġde pic
Ġde jected
Ġde wy
Ġde pended
ul ing
ul ge
ul ty
ul ations
ace ls
Ġover th
Ġover ru
Ġover work
Ġover rode
Ġover turn
Ġover cast
Ġover take
oy ed
Ġthere by
Ġthere after
ig ley
na ke
Ġpo le
Ġpo cus
Ġoff ic
Ġoff ending
iz er
iz tic
ĠN ept
ĠN ature
ĠN IGHT
ĠN ICK
ĠN asty
ĠN umero
Ġch op
Ġch unks
Ġch ips
Ġch ival
Ġch urned
Ġch orused
el in
el tering
Ġlike li
Ġsp out
Ġsp aring
Ġsp ies
Ġsp aces
Ġsp ike
Ġsp rawling
Ġsp idery
Ġqu er
Ġqu iz
Ġqu ake
ting ed
Ġcon idor
Ġus ur
ie nd
ass ionately
Ġun g
Ġun ass
Ġun per
Ġun cl
Ġun read
Ġun mas
Ġun stick
Ġun used
Ġun reg
Ġun kn
Ġun iver
Ġun gain
Ġun kind
Ġun spoken
Ġun qualified
Ġun finished
Ġun obs
Ġun moving
Ġun hinged
op ortus
Ġey eless
ĠWe asel
Ġwor s
Ġwor ship
Ġjust ify
ĠPro be
ark s
ark ing
Ġtoo ls
ake ably
Ġsc umb
Ġsc rup
Ġsc uffle
Ġsc ores
Ġsc orp
Ġsc uffing
Ġsc rawl
Ġbl ah
Ġbl ows
Ġbl ush
Ġbl ades
Ġbl uish
Ġbl uster
Ġbl anched
Ġsee in
Ġsee ks
est ruct
ĠV iolet
ĠV aise
ĠV incent
Ġpl unk
Ġpl ucking
Ġcl ar
Ġcl amp
Ġcl ipped
Ġcl imate
ap et
ap ted
ap ier
Ġsl ing
Ġsl ung
Ġsl ash
Ġsl umbering
Ġcom ic
Ġwand lore
Ġhead ache
Ġhead stones
Ġmo b
ĠE nd
ĠE mp
ĠE mpty
og ue
ĠO live
ĠO lhiv
Ġsm acked
Ġsm arting
Ġvo c
Ġtr immed
Ġgl utinous
ath s
Ġgoing s
Ġseem ing
gg er
gg ily
Ġgr it
Ġgr oo
Ġgr umbled
Ġgr ubs
Ġgr aciously
Ġsw oon
Ġsw oos
Ġsw igging
Ġsw erving
Ġsw eltering
Ġfl a
Ġfl air
Ġfl uff
Ġfl owed
Ġfl ip
Ġfl owing
Ġfl itting
Ġfl ipping
Ġfl ounced
Ġfl ashy
Ġfl ippers
Ġfl abber
ol ing
ol ored
ol idays
The str
ĠU tter
ĠU ntil
ling s
Ġevery day
Ġman s
Ġman ia
Ġman ufact
Ġen vis
Ġclo pping
Ġclo gging
Ġhere by
Ġop era
ft ainess
ĠK ent
ĠK ne
ĠK ey
ĠK evin
th us
th irty
th ousand
th irds
od d
od end
Ġpre gn
Ġpre occup
Ġpre amble
Ġim peded
Ġwat ches
Ġte h
Ġte ab
Ġte aspoon
ts ying
Ġunder wear
Ġunder pants
Ġdis eng
Ġdis armed
Ġdis quiet
Ġtell in
Ġpe aked
Ġpe eled
Ġpe pper
Ġpe cking
Ġbeh alf
Ġkne el
Ġafter thought
Ġapp alling
Ġlo ll
Ġlo ver
Ġlo ser
Ġlo ony
Ġlo bbed
Ġlo ses
Ġlo ading
Ġlet tin
Ġlet tuce
Ġeven ly
Ġrem edy
Ġrem otest
Ġspe ared
Ġspe eches
Ġbr ide
Ġbr acing
Ġbr ute
Ġlast ly
Ġac rid
Ġac cuse
Ġac rom
Ġpro se
Ġpro xim
Ġpro hibited
act orily
act acus
Ġmom in
ine a
oll owing
ord inary
ching ly
ĠYou ng
Ġsil ences
ful s
Ġpr ise
Ġpr ints
Ġpr inciples
We ird
Ġwa ver
Ġwa ft
Ġwa ffle
ish y
Ġwizard kind
Ġdes irable
Ġdes picable
Ġcont ra
Ġcont est
ber ries
Ġho bby
Ġho bbling
Ġmight n
Ġmight y
ross ed
Ġatt ribut
Ġtal isman
Ġsn ive
Ġsn owing
Ġsn ug
Ġsn orting
Ġsn acks
itch y
Ġstr ut
ĠCh air
ĠCh anning
ĠCh orley
Ġfeel ers
Ġwind mill
Ġam use
Ġam end
Ġam ended
Ġam ok
Qu iet
Qu irrell
Ġdr one
Ġdr oned
ise lda
Ġche at
Ġche ated
Ġcr ook
Ġcr am
Ġcr aned
Ġcr ane
Ġmean est
me led
pl aced
pl ucked
Ġimp re
Ġimp osing
Ġown s
Ġpass eng
Ġbel ch
Ġbel ched
Ġent angled
ĠQu igley
Ġcle ars
Ġsur lier
be e
Ġsupp le
Ġbed time
Ġbed ecked
Ġbed ragg
ater n
Ġlight ed
Ġlight en
Ġlight ening
Ġlight hearted
ĠTh a
ĠTh irteen
Ġwr ing
Ġwr ung
ost ed
Ġcur rant
Ġcur tsying
Ġnight mar
Ġnight clothes
Ġschool work
Ġschool books
ĠBl ibbering
we ek
Ġboy ish
Ġem it
Ġem blem
Ġnew t
Ġra ids
Ġfound ed
Ġfound ation
Ġwhis k
Ġwhis ked
Ġwhis perer
Ġarm adill
Ġwindow pan
Ġwindow pane
acher s
Ġel im
Ġel ation
Ġhair brush
Ġhair sty
ne ck
Ġper used
Ġper imeter
Ġper petr
Ġret ained
Ġret elling
app ened
Ġsit tin
ĠJ im
ĠJ imm
ĠJ AM
ild ing
Ġhelp ers
ĠSt ar
ĠSt upid
ĠSt upefy
ĠSt aggering
aw ake
Ġreal iztic
Ġjo kin
bl er
bl ow
bl icized
ĠDo bb
Ġsk it
Ġsk ating
Ġsk iing
ĠUn noticed
ĠUn speak
Ġwall ed
Ġwall paper
Ġmat ure
Ġmat ron
Ġbeg ins
Ġbeg innings
Ġfell in
Ġquick est
Ġsqu al
Ġsqu igg
Ġsqu int
Ġsqu irt
Ġwait in
Ġwait ers
unt il
Ġcor rup
sh all
sh aft
sh adowed
ister ous
ib ble
ib ition
Ġmind ed
riend ly
ĠPer fect
ĠPer plexed
Ġunt ie
Ġunt roubled
lu cent
ric t
Ġste reo
Ġfam ously
Ġeye witnesses
li v
li able
Ġhold up
Ġmut ters
Ġmut inously
ret ching
pr act
cl ass
Ġres il
Ġres iding
Ġres orting
Ġres pected
Ġres idue
Th irty
awn ing
Ġfriend less
Ġpast e
ĠPet unias
Ġbo om
Ġbo isterous
So on
Ġread in
Ġread justed
Ġrest oring
Ġrest aur
Ġsna pp
ĠAr mando
Ġscar ab
Ġcar rots
Ġfull er
Ġrec ount
Ġrec ruit
ĠGr angers
ĠGr iselda
Ġcold ness
Who ever
Ġfore told
Ġfore warn
Ġdist raught
ph ies
ĠAn gelin
ĠAn swer
ĠLord s
Ġad orned
Ġad apted
Ġexp and
Ġpain staking
ĠSe v
ĠSe ers
ĠSe venteen
ĠPercy s
Ġco co
Ġco ffin
Ġco conut
form ing
form ation
Ġwork men
der ick
rac ing
Ġind is
Ġind uce
Ġind igo
Ġind oors
Ġind estruct
Ġbes ides
Ġfoot ing
Ġsle nder
ere nt
sw allop
Ġfur led
ron ting
ron uses
Ġcontin ual
Ġfar away
Ġgu inea
Ġdec ree
Ġdec ides
Ġdec ency
Ġdec oys
Ġpar ade
Ġpar rot
Ġpar apet
Ġsight s
Ġdet est
Ġsign aling
Ġsign post
Ġvis age
Ġleg islation
Ġmar chers
Ġmar riage
Ġlow ly
rest r
rest ed
Ġempt ier
Ġempt iness
Ġheart ened
Ġheart beat
umm er
umm ies
Ġaw ry
Ġaw ak
Not hin
Ġcat like
Ġbest ows
Ġann ed
ĠSc ott
ĠSc riven
Ġsupposed ly
Ġbur gl
Ġri pe
Ġri ps
Ġri gging
Ġsir s
Ġhit ching
Ġact or
ĠAl one
ĠAl ready
Ġdef ied
Ġfing ering
Ġshort est
Ġshort ened
Ġbreak f
Ġbreak neck
ĠFl ames
ĠFl utter
Ġext inct
Ġunderstand able
Ġcomp aring
so aked
Ġbus es
ĠSlughorn s
Ġdi ves
Ġdi als
Ġten ible
ĠCedric s
ĠHow lers
Ġpoint lessly
Ġspell ed
Ġspell ing
Ġspell work
Ġrel ations
Ġrel ieving
read ing
ĠBill y
Ġbright ened
sp un
sp awn
sp ersed
ĠFor ces
Ġteam mates
Ġacc osted
Ġinter spersed
Ġcomple ting
Ġmon ot
Ġspot less
Ġref ere
Ġpat tered
ĠBe aming
ĠBe asts
ĠBe fudd
no on
Ġed ible
Ġru led
Ġmis heard
orc a
Ġins ight
Ġins pected
Ġins erting
Ġins anity
vers kin
Ġthick ness
Ġthick ening
Ġthick set
Ġdirect ing
Ġblood less
esc ri
HA GGER
Ġwrong doing
Ġunc overed
Ġunc ompre
Ġunc onsciously
Ġunc ommon
Ġprot racted
Ġport ents
Ġport holes
ĠFle et
Ġsub mer
Ġsub scri
ĠSn itches
icul arly
Ġexpl icit
got ten
ĠTrelawney s
terest ed
Ġrep osed
Ġrep ressed
Ġrep otting
Ġrep orters
Ġexpect ations
ĠNo ble
ĠNo bility
Ġinc omplete
ĠFire ball
ĠFire works
Ġyoung sters
Ġdeath bed
ping ton
ye es
Ġwitch craft
Ġsleep in
Ġshar per
ĠPr ang
ĠPr ote
ĠPr inces
Ġpur ge
Ġpur plish
Ġappro ving
Ġtri angle
Ġtri gger
OU N
OU S
Ġfa ulty
uth fully
Ġreg ion
Ġreg row
Ġreg rets
Ġreg istration
Ġreg ener
Ġreg ulations
Ġsoft est
Ġsoft ened
Ġ1 4
Ġ1 8
Ġdraw back
Ġdraw string
Ġsumm ers
Ġsumm oning
Ġev ident
Ġev illy
Ġwrit er
ĠRe c
ĠRe ve
ĠRe cent
ĠRe ckon
vo idable
Ġspl ayed
Ġcoll ision
Ġcross ings
Ġquestion ingly
Ġopp osed
Ġesc orting
stick s
Er rol
Ġmad der
eed s
Ġap ot
Ġtent h
Ġtent ative
Ġtent acle
Ġtent erhooks
ĠHer bert
Pro ve
Ġcreat es
Ġeff icient
Ġer ror
Ġthr ice
Ġve ined
Ġcho pping
Ġcho ices
Ġbar ring
ĠCr aning
kes kin
Ġwood lice
Ġass a
Ġass u
Ġass uring
Ġass ault
ĠAg ripp
Where as
Ġcir cus
Ġhang man
Ġrecogn ised
Ġbat on
Ġinv olves
ĠSh ut
ĠSh ivering
ĠPar lor
ĠPar acels
Ġflat ter
Ġflat tery
Ġweek ly
Ġegg ing
Ġcons iders
Ġcons uming
Ġvisit in
Ġz ombie
Ġshow ers
Ġshow ered
Ġdragon ish
ĠEx pelliannus
ĠEx cit
ĠEx hausted
An swer
Ġimag in
Ġdisc omf
Ġdisc omp
Ġdisc redit
Ġdisc olored
Ġreckon ed
Ġdoub ling
Ġblue bell
Ġhappen in
ooksh a
ĠEr m
Ġtruth ful
Ġforest s
Ġforest alled
Ġsing er
Ġcop se
Ġcop iously
Ġtrans lucent
Ġdeser t
St ag
St ick
St ab
St uff
St unned
Ġstom ping
ipp ings
Ġtor toise
Ġadm its
Ġobject ive
Ġwonder fully
Ġhast ening
ĠApp raisal
wh ist
Ġnews print
Ġtem pting
Ġtem pers
Ġbow led
Ġbow ling
Ġbow els
Ġbow tr
host s
ĠFr ag
ĠFr owning
ĠSec urity
Ġdinner time
ĠTr uth
Ġgrow th
Ġgrow ls
Ġbas king
Ġbas ics
ĠSke eters
Ġnarrow er
Ġguard in
Ġfer til
Ġmess enger
Ġabs ences
Ġprom ising
Ġdem ean
Ġadv ance
Ġform al
Ġform ally
Ġaf resh
Ġforget s
Ġbottom most
col or
ĠWho se
Ġsol idly
Ġsol itude
Ġsol icit
Ġpost card
Ġstaff ing
Ġuna vailable
Ġuna voidable
Ġtail coat
Ġdust pan
Ġhospital ity
Ġtow els
Ġpan es
ĠDis anning
Ġcount ries
Ġfain ting
Ġfavor ably
Ġpack et
Ġpack aging
Ġrepl ic
Ġrepl ace
Ġrepl acement
Ġcoun cil
Ġsmell ing
Ġspir ited
Ġhesit ating
ha ving
Ġcirc ulating
Ġpri zes
Ġstep lad
Ġgray er
Ġjoin ts
Ġble nd
Ġble nded
Ġele ction
Ġele venth
Ġremind ers
Ġbedroom s
Ġhon ors
enn ath
Ġinf est
Ġinf ern
Ġinf ilt
ĠOlliv anders
Ġprophe cies
ĠAppar ation
LE M
LE AVE
Ġenc oun
Ġbeard less
omp anied
Ġlocket s
Ġreve lio
Ġgro ggily
Ġdep rive
Ġdep uty
ĠMiss ing
ĠWh izz
Ġeat s
ĠDep uty
ĠLe ave
Ġsy rup
org ement
Ġdri er
Ġdri vers
Ġdri bbling
Ġsho el
Ġtrick ery
centr ate
Ġtrave ls
Ġemb ers
Ġemb edded
Ġcheer ily
Ġyer selves
Ġfool proof
Ġbew are
ĠIm m
ĠIm ps
Ġcompl icate
Ġcompl iments
Ġrow dy
Ġappl ication
Ġinvis ibly
Ġcloud ing
Bl ast
OR S
Ġcro pped
Ġcro aking
Ġcro pping
Ġcro oned
Ġcro oning
Ġnervous ness
Ġrain bow
Ġmoon stones
Ġfun ction
Ġsuff used
Ġexplo its
AR Y
AR ATE
Ġdra fty
Ġlunch times
Ġspeed y
Ġjer ky
Ġgoblet ful
Ġune ndurable
ĠDel iber
Ġund e
Ġund ressed
Ġplat ter
Ġsens ational
Pot ty
Ġgra zed
ĠWor ried
ĠLongbottom s
ding er
ĠWas ps
Ġcomfort s
Ġrefle xes
Ġbre ached
Ġmer its
Ġmer person
ĠSm ile
Ġcarri es
Ġannoy s
Ġgloom ier
ĠTransfig ure
cess or
Ġbird cage
Ġpure ly
Ġpure st
Ġsatisf y
Ġsatisf actorily
ĠKeep ers
ĠAber crombie
OO O
OO KS
OO SH
Ġfold er
Ġspectac le
well ing
Ġfo e
Ġfo es
Ġfo aming
Ġsurv iving
Ġwra ppers
Ġfier cer
ific ations
Ġunf riendly
Ġpersu asion
Ġdefe ating
Ġdefe nded
Ġtest imony
Ġring ers
Ġring lets
Ġserious ness
Ġeight eenth
ĠYour self
Ġrubb ery
Ġclean ly
ĠMost e
Ġfeast s
Ġgener ation
ĠGrind ylows
ĠGrind elvald
ĠCol onel
Ġfee bler
Ġblind fold
Ġblind folded
Ġplain tively
Ġwave red
ĠFin al
Ġinstruct ing
Ġinstruct ive
Ġcounter arg
Ġtoad less
ĠMer chie
Ġlock ing
Ġbroad cast
co vers
Ġlim bo
Ġenonn ously
Ġkeen er
Ġunw itting
Ġunw illingly
Ġkey holes
Ġmagn itude
Ġmagn ifying
Ġunpleasant ness
Ġwet ter
Ġbul ge
Ġbul bs
Ġpin ched
ĠWill iam
Ġjud ged
Ġdev il
Ġdev ote
Ġprefer ring
Ġtriumph s
ĠHat s
Ġgest ures
Ġgest icul
ĠPo ppy
Ġslip stream
Ġsneak in
Ġsneak ers
ĠMo ving
Ġmuff ler
ED S
For got
Ġphoenix es
Ġurg ency
ĠImper turb
Ġlap sed
Ġval ued
Ġboard ing
Ġcrystal ized
Le ft
Le gs
Le gilim
Ġpick s
Ġearn ing
Ġweird o
Ġweird os
Ġsepar ation
Ġupset ting
Ġvar iously
Ġvar ieties
Ġeng age
Ġeng agement
Ġbattle ments
AT H
AT ING
Every body
ibb on
Ġbald er
Ġrese aled
Ġcoo ling
Ġcoo peration
Ġcoo perate
Ġhell ebore
ĠAd vis
Ġstudy in
Ġstreng thens
Ġcow ered
Ġsucc inct
Ġsucc umbed
urb an
Ġmod els
Ġmod estly
Ġerup ting
Or der
Ġamb ushed
Ġamb itions
ĠTO LD
Ġcapt or
Ġcapt ive
Ġpred icament
ĠBogg arts
AS S
Ġwed ged
Ġwid en
Ġwid est
Ġfal ter
Ġrequ ests
Ġexh ibition
ĠOw ing
post ers
Ġaut ob
Ġforg ave
Ġvast ness
Ġscra ps
Ġsong s
Ġhex ing
Ġbear able
use ly
Ġstar ved
Ġarr ay
Al ong
Al most
Al though
Ġaccept s
Ġaccept ance
Ġregret fully
Ġappreci ation
Ġappreci ative
OW ED
OW LS
Ġach ieving
Ġban el
Ġknowledge ably
Ġmeaning less
Ġrespect ful
Ġbuck le
Ġbuck ets
Ġintend s
quis her
ĠDec iding
Ġcrump ling
oc rite
Ġpurs uits
ustr ade
Ġsuper st
Ġsuper cil
Ġsuper vise
ĠEn id
ĠEn chant
ĠEn emies
Ġsitu ated
tr ay
Ġaccus atory
Ġsuccess ive
IT CH
Ġtick ling
Ġtear stained
Ġfoul est
Ġgate au
Ġreck lessly
Ġlab els
rop riate
Ġalley ways
Ġdeaf ened
ĠConf using
ĠCaptain s
ĠLook s
Ġclip s
aa a
Ġknot grass
Ġnostri l
Ġrevol ve
Ġrevol ution
ĠHE AD
Ġhero es
Ġopin ions
Ġbetr aying
Ġbra ke
Ġbra ided
Ġbull ets
ĠIN J
Ġreb irth
Ġreb ounding
Ġsteam y
IS E
Ġhamm er
ĠPl an
ĠPl ay
ĠPl atform
Ġsmo ked
Ġsmo other
Ġsuspe nd
Ġcutting s
Ġmotor way
fl ap
Ġdrive way
Ġsack ing
Ġstool s
ĠWhe eling
Ġspend s
Ġenclo sing
Ġmed dled
Ġmud like
Ġscur vy
Ġparce ls
Ch oo
Ch apter
Ch arms
Ġtim ing
Ġtopp le
Ġhem s
Ġconcl usions
Ġarrest s
Ġloc ating
black ened
Ġmagaz ines
Ġver dict
Ġbal ustrade
Ġdiv ine
Ġdiv ulge
Ġloose ly
Ġfeat ured
poster ous
HE CY
Ġgall ant
Ġfrustr ating
ĠFour th
Ġuseless ly
ĠEng orgement
Ġchess board
Ġresc uing
Ġobsc ene
Ġexpress ing
Ġadmir ingly
Ġment ally
Ġment ions
Ġmixt ures
Ġph ials
Ġinvent ions
ĠFrid wulf
Ġsoot he
Ġeyel id
Ġdispl ayed
UR R
Ġtast y
ĠFirst ly
Ġvibr ant
Ġvibr ated
Ġvibr ations
Ġunmist akeably
Ġcrit ical
Ġrepro ving
Ġobsess ive
VEN CL
Ġgown s
ĠCat astrophes
Ġorgan izing
Ġdisp ersed
Ġdisp assionately
Ġcasual ties
En nerv
Ġfi ber
Ġming ling
Ġpul p
Ġpul sed
Ġpul sating
Ġpity ing
Ġpati ents
ĠDO ING
ĠBE LI
ĠBE HIND
Ġinstinct s
Ġinspect ing
ĠSneak o
RA VENCL
Ġwrest ed
ites imal
Ġevent ful
Ġpron ounce
Ġanti que
Miss ing
Ġhar bor
Ġpalm s
ĠSE E
Ġbrut ally
Ġintr ude
Ġintr uding
Ġinvestig ation
Ġinvestig ating
Ġinvestig ations
IC E
Po lyjuice
ais ley
Ġhicc ough
Ġhicc oughed
Ġmor al
Ġrot ter
Ġrot ating
ĠCle arly
Ġqual ify
Ġmyst ical
Ġreco il
Ġautom atic
Ġpatronum V
gn oming
Ġty r
Ġty ke
Ġlaun ching
Ġsaving s
ĠAugust us
ĠCl uster
ĠCl utching
Ġunh urt
Ġcliff s
Ġinsist s
OP HECY
UN G
bell ied
hood ed
Ġaud ibly
Ġwrigg le
Ġbund les
Ġinn keeper
Ġrequire ments
Ġantic s
Ġshrive lled
emb ered
Ġlegend s
Ġbru ising
Ġbru ises
Ġemotion al
Ġrestr ained
Ġprotr uded
Ġpiercing ly
Ġdazzling ly
Ġrou n
Ġrou sing
ĠHar old
Ġyel ps
ĠPre tending
Ġcomplex ion
Ġcomplex ity
Ġrub ied
Ġdamn ed
Ġapolog ized
Hmm m
Sc ourg
Wonder ful
forc ements
ĠDr agons
ĠAmy ous
Ġfruit lessly
Ġexcl usive
Ġchann el
Ġentr ust
Ġperf ected
Ġforeign ers
Ġbuz zed
Ġunaware s
mat ured
uber antly
Ġtooth ily
Ġmim icked
Ġinex per
ĠPol ish
Ġexe cuted
Ġstew ed
Ġinfl amed
bal ance
con nected
Ġ3 0
Ġturb ulent
Ġferv ent
Ġinher it
ĠMom ent
Ġrein forcements
Ġclaim s
Ġimper vious
Ġimper ceptibly
Ġdetect s
Ġdetect ors
Ġfreck ly
ĠBox ing
Gr an
Ġca ul
Ġlace wings
Ġstonn y
sec ond
ĠBas ic
Ġchallen ging
Ġscru b
Ġscru bbing
Ġtwit tered
Ġdisag rees
Ġelb owing
Ġparaly sed
Ġparaly ze
Ġparaly zing
Ġeduc ated
Ġaffect ing
Ġdisapproving ly
Ġder anged
Ġnet tled
ĠSpe aking
Ġspo kes
Ġclick s
Ġflin ch
ĠUN S
Ġemplo yees
Ġskul ked
Ġprior ities
Ġoutrage ous
Ġchimney s
UD DY
ubb er
Ġ2 2
Ġdw indling
Ġmoth s
Ġstreak s
Ġstamped ed
ĠTe a
ĠTe ams
ĠTe achers
ĠWH OOSH
Ġsport s
Ġunin v
Ġcompr om
ĠInc identally
Ġobst acle
Ġconfid ences
Ġfrost ed
ĠEduc ation
!' ),
BER S
Fl oo
Fl int
Spe ak
dor r
Ġting ed
Ġting le
Ġtut ting
Ġtack ling
Ġhind quarters
Ġfreak s
Ġcock ro
Ġcock tail
Ġpall or
Ġstall s
ĠSA Y
ĠSA VED
ĠRE M
ĠRE AL
Ġneg l
ĠFR IEN
Ġblot ches
Ġprof usely
Ġmemor able
Ġmemor ized
Ġmemor izing
Ġinterven e
ĠSnat cher
Ġcharacter istic
Ġcontempl ate
Ġsucceed ing
App arition
Cru c
Fin ally
Fin ite
Fin ished
ĠHO LD
Ġlun asc
Ġpix ie
Ġwhirl pool
Ġsham rocks
ĠCann on
Ġbless ed
Ġbless ing
ĠNew t
ĠDoes n
Ġaccur ately
Ġaccompl ice
Ġbenef its
Ġdescend ant
Ġresear ching
Ġmotorcy cles
Am azing
Kn ock
Kn ows
Ġboo ed
Ġboo st
Ġlam ppost
Ġlog s
Ġlog ic
Ġpark ing
Ġwhit en
Ġwhit ened
ĠSte wart
ĠDE M
ĠAnt onin
ĠAng ry
ĠWil kie
Ġrapt ly
Ġrocket ing
Ġdecl ared
Ġscare s
Ġgran ite
Ġflag stones
Ġprod igious
Ġprogr ams
Ġblackm ailing
ĠStr out
Ġobed ience
Ġfurt ively
Ġtorch light
Ġconnect ions
Ġtarget s
Ġderis ively
Ġuniform s
Cho colate
Cho sen
after noon
Ġtro phies
Ġtoler ant
Ġtoler ate
itt al
Ġmerm en
Ġstout ly
ĠSin us
Ġreact ions
ĠDown stairs
sequ ently
ĠGl ory
ĠGl ancing
Ġjubil antly
Ġbackf iring
Ġlect uring
Ġunwise ly
Ġtramp led
ĠUr gent
ĠUr quhart
Ġwaf ted
Ġstragg ling
Ġsurre nder
Ġelabor ately
Ġcompre hend
Ġcolumn s
Ġsuffoc ate
Ġpureblood s
Ġconvincing ly
Ġdisconc erting
Cle arly
Dis app
Dis sendium
Fil th
Ur n
Ġfarewell s
Ġmarsh m
Ġnick n
Ġsauce pans
Ġbeef y
ĠSer iously
ĠSix teen
ĠRel ashio
Ġselect ing
Ġsheep ishly
Ġagg ression
Ġagg rieved
Ġunbl inking
ĠEver lasting
Ġdisrup ted
Ġproc ured
Ġchew ed
Ġguarant eed
Ġdiam onds
Ġreferee ing
Ġbookshe lf
Ġintellig ent
Ġthrong ing
Ġmirac ulous
Ġnoticeboard s
STU BEFY
ATION S
Ġbloss om
Ġacceler ation
Ġacceler ator
Ġoblig ingly
Ġtimet ables
Ġunconcerned ly
Slu g
Slu ghorn
Te a
Te ach
Ġsore ly
Ġinit ably
Ġinit ial
Ġinit ials
Ġhistor ical
Ġrob ustly
Ġunst ead
ĠUnd oubtedly
ĠUnd esirable
Ġcontribut e
Ġcontribut ion
Ġstartling ly
Ġguide lines
Ġribb ons
Ġexamin ers
Ġregurg itated
Ġconsult ation
ĠConfund us
ĠPrefect s
Ġinexplic ably
Ġindividual s
Ġacknow ledge
Mc Laggen
ĠQU AFF
Ġbon us
Ġloos ened
Ġludicrous ly
Ġsalt y
ĠMid night
ĠServ icing
ĠDim ly
ĠPR OPHECY
ĠCream s
Ġshepher d
Ġshepher ded
Ġovert ook
Ġovert aking
Ġqua very
Ġunhe althy
Ġappe aled
Ġspec imen
Ġprovo cation
Ġhelm ets
Ġeman ated
eeee e
Ġsquaw k
Ġuntr ustworthy
Ġuntr uthfully
Ġforearm s
Ġdecip hering
Ġmistr usted
Ġunfur ling
Ġcounterc urses
Ġsalam anders
Ġensl avement
Ġsiph ons
Ġsiph oned
Ġestab lished
Ġlampl ike
Ġdistinguish able
Ġecst asy
Ġricoche ting
AU GH
Acc ording
IZ E
fr amed
Ġtid al
Ġtun ing
Ġtaut en
Ġbisc uit
Ġcere mony
Ġlod ged
Ġlank y
Ġpad locked
Ġgor ge
Ġgamb oling
Ġwasp ishly
Ġbef uddled
ĠSH UT
ĠALL OWED
ĠHel ena
ĠWOR K
ĠWOR RY
ĠCON ST
Ġdeg ree
Ġoverhe ar
Ġscen ery
Ġplum age
ĠOcc asions
Ġdisent angled
Ġdisent angle
Ġcontented ly
Ġrecoll ection
ĠAnn ando
Ġinterpret ation
Ġrefr ained
Ġ19 45
Ġ19 81
Ġdiscern ible
Ġirres olute
Ġferoc ity
Ġuneart hly
Ġundo ing
Ġmerc iful
Ġsatisfying ly
grand son
Ġflowerbed s
Ġcalcul ating
Ġcalcul ations
Ġsanct uary
Ġsanct imon
AB BERS
Sm all
Sil ence
comm ittal
dr unk
po int
wy ck
Ġic ily
Ġic icles
Ġtub ers
Ġwadd led
Ġber ries
Ġbog ies
Ġcabb age
ener ations
Ġdough y
Ġpell et
Ġgarl ands
Ġsauc er
Ġyield ed
Ġetern ally
Ġastr ay
Ġreced e
ĠAss istant
Ġups urge
Ġouts iders
ĠBreak fast
Ġbutter flies
cker ley
ĠLock harts
Ġvent ured
Ġisol ation
Ġoverst uffed
Ġsund own
Ġunimp ressed
Ġunimp ortant
Ġprejud ice
Ġproport ions
Ġproport ioned
Ġdroop y
Ġnewcom er
Ġriff led
Ġriff raff
Ġdiagr ams
Ġrepress ively
ĠFrisbe e
Ġferre ty
Ġpolit eness
Ġbleed in
LES S
Ġencirc ling
Ġgraffit i
Ġfoam y
Ġcasc ade
Ġcasc aded
Ġexhilar ating
Ġwoe fully
ĠDeton ator
Ġblotch ily
Ġacknowled ged
ĠGurdyro ots
Ġcrisscross ed
ALL Y
EM ORT
El phias
Pat ronuses
Ġhun ied
Ġfet ching
Ġog ling
Ġcher ub
Ġcod es
Ġdent ists
Ġmic key
Ġmould y
Ġpane led
ĠTreat s
Ġrept ile
Ġrept ilian
cend o
cend io
Ġmechan ically
Ġrally ing
Ġrump led
ĠCons ider
ĠComp etition
Ġbutto ck
Ġbutto cks
Ġleak s
Ġalche my
Ġalche mist
Ġtrump et
Ġpreced ed
Ġdisreg arding
Ġprofess ional
Ġsnee ze
Ġsnee zed
Ġwalt zing
Ġsquir ted
Ġvisual ize
Ġawa ited
Ġawa its
ĠScream s
Ġextric ate
Ġextric ated
Ġinterpre ted
Ġinscri bed
Ġbarric ade
Ġleaders hip
ĠShort ly
Ġextravag ant
Ġextravag antly
Ġmaggot s
Ġinfin itesimal
ĠWhiz bees
Ġcroak ily
Ġunderest imate
Ġbenign ly
Ġtoadstool s
ĠMerry thought
Ġbulb ous
Ġhyp ocrite
Ġcongreg ated
ĠSEC OND
Ġheirlo om
Ġheirlo oms
Ġdispirited ly
Ġmushroom s
Ġexcruciating ly
Act ually
Coll oportus
Fe eling
Jinx es
Lock er
OIN T
Whe ther
clo sed
Ġ6 6
Ġaft ennath
Ġsardon ically
Ġbale fully
Ġfu zzy
Ġfren zied
Ġfrill y
Ġdarn ing
Ġdens er
Ġdizz ying
Ġmajor ity
Ġlu x
Ġped est
Ġpens ions
Ġgna wing
Ġinfect ious
Ġnause ated
ĠMug wump
ĠSM ELL
ĠRID DLE
ĠPass word
ĠPenn y
ĠWrack spurt
Ġdole fully
Ġoutstri pped
unction ing
ĠBro derick
Ġrom antic
Ġrunn er
ĠCR ASH
ĠLEA VE
Ġdelu ged
Ġoverc rowded
ĠNear by
Ġchiv v
Ġspur ted
Ġunle ashed
ĠWerew olves
Ġscaven ging
Ġenh ance
Ġenqu iringly
Ġtender ly
ĠDev ils
Ġsurf aces
Ġuntid ily
Ġstead ied
Ġparticip ating
ĠYEAR S
Ġinsol ent
Ġunco iling
Ġillustr ations
Ġdestab ilize
Ġapplic ant
ĠSmeth wyck
Ġpouff e
Ġpursu ers
olog ize
Ġunsurpr ised
Ġsouven irs
Ġhiccu pped
Ġhedger ows
Ġexerc ised
Ġreminis cent
Ġunscrew ed
ĠSerp ent
Ġaggra vated
Ġirresist ibly
ĠObject s
Ġunenthusi astically
Ġaccommod ate
Bus y
Cow ard
Dep artment
Ele ven
Home work
Ig or
List ening
Mis chief
Mere ly
Red ucio
Ye a
trave ling
hear sed
Ġsine w
Ġtheen k
Ġbonn et
Ġbalm y
Ġfut ures
Ġfinn ly
ĠHum dinger
Ġtob acco
Ġtoen ails
Ġdess erts
Ġpir ouet
Ġpyr amid
Ġinade quate
Ġnic er
Ġsage ly
Ġsaint ly
Ġbea verskin
Ġstim ul
Ġstup or
ĠTON IGHT
ĠSup reme
Ġrepr im
sto pping
ĠAqu a
ĠWrit ten
ĠWRON G
Ġdol ph
Ġdoct ors
ĠBRE AK
ĠBIR D
ĠGeor ges
ĠGorg ovitch
Ġruth lessly
ĠCru cio
ĠFree zing
Ġbackp ack
ĠLor bidden
Ġoverbal anced
Ġchamb ers
Ġconc ert
Ġunlock ing
Ġunacc ompanied
Ġscald ing
Ġblister ing
Ġplun ge
threat ening
Ġdise ased
Ġdisarr ay
Ġdisorient ated
Ġprolong ed
ĠMcKinn ons
Ġlifel ong
ĠGrunn ings
Ġadjust ing
Ġindul g
Ġredoub led
Ġcathed ral
Ġsentin el
ĠPract ical
Ġevacu ating
Ġeffic acious
Ġthrot tle
Ġnonex istent
Ġfoolhard y
Ġpuzzle ment
ĠTransport ation
.''' '
ĠFawc ett
Ġcrystall ized
Ġconstit utes
Ġprede cessor
Ġcheekb ones
ĠConfisc ation
Ġcondem ned
Ġunsatisf actory
Ġscurry ings
Ġobserv ation
Ġstalact ites
Ġinexpress ible
ĠSwed ish
Ġoptim istic
Ġconspic uous
ĠOblivi ator
Ġsumpt uous
Ġknickerbock ers
Ġinsubstant ial
Ġphenomen on
ĠPLEAS E
ĠFIREBOL T
ĠMcGonagal Ts
Ġinscrut able
Agu amenti
Bo gey
Bel ieve
BRID GE
Captain s
COM ING
Dog breath
Horcrux es
JORD AN
Libr ary
OLD EMORT
Por pington
Pos itive
Son orus
SLYTHER IN
Ty pical
Xen ophilius
aer as
curd ling
kid ney
pu blicized
trait or
Ġtus sle
Ġtous le
Ġtong ues
Ġaust ere
Ġaval anche
Ġhipp o
Ġhilar ity
Ġhiber nate
eran ium
Ġbrid esmaid
Ġbos om
Ġfiss ure
Ġoxy gen
ĠHass an
ĠHug o
ĠHenn es
Ġcate g
Ġcupp a
Ġdaught ers
Ġdandel ion
Ġmers ong
Ġmau ve
Ġmalf unctioning
Ġpum meled
Ġpust ules
Ġpung ent
Ġhavers ack
Ġinapp ropriate
Ġinaud ible
Ġinev itable
Ġnuff ink
ĠIRE LAND
Ġwhipl ike
ĠMaj orca
ĠTiber ius
Ġasyl um
ĠSleep ing
Ġreem er
ĠDOW N
ĠDANG ER
alog y
ĠRET URN
Ġseep ed
Ġseiz ure
ĠPredict ably
ĠAustr alia
ĠAUN T
Ġshroud ed
ĠWel sh
ĠWolf sbane
Ġupsw ing
ĠBeth nal
ĠBett ie
ĠBrock dale
ĠGide on
ĠGorn uk
ĠGene alogy
ĠGarr otting
ĠGlit tering
Ġrhod odend
Ġrhub arb
ĠCass andra
ĠCather ine
ĠCere mony
ĠCHE ATING
ĠCRA CK
ĠCrock ford
ĠFub ster
ĠFRON T
Ġjudd ered
Ġbacktr acked
Ġliken ess
ĠLib atius
Ġvestig es
antul as
Ġexceed ingly
rabell a
Ġoverth row
ĠNumero logy
Ġlikeli hood
Ġunper turbed
Ġuncl ench
Ġunreg istered
Ġunkn owing
Ġuniver se
Ġungain ly
Ġunobs cured
Ġbluster y
ĠVaise y
ĠEmp orium
ĠOlhiv ander
Ġswoon ing
Ġswoos hing
Ġflabber gasted
Thestr als
ĠUtter ly
Ġmanufact ure
ĠKey s
Ġproxim ity
Ġpasseng ers
Ġbedragg led
Ġwhisperer s
Ġarmadill o
Ġwindowpan es
ĠJimm y
ĠJAM ES
Ġsquigg ly
Ġforewarn ed
ĠAngelin as
Ġcoco a
ĠScriven shaft
ĠFlutter by
ĠBefudd le
ĠAgripp a
ĠParacels us
ĠExcit ement
Ġfertil izer
Ġsteplad der
Ġinfilt rated
ĠMerchie ftainess
ĠImperturb able
Legilim ens
Ġautob iography
ĠFridwulf a
Ennerv ate
ĠBELI EVE
RAVENCL AW
Scourg ify
ĠFRIEN D
ĠQUAFF LE
Ġrhododend ron
" )
" ;
" ?
' )
' :
* "
, ,
. ,"
1 2
2 2
3 0
6 0
7 5
8 9
9 2
? :
? ),
A C
A G
A P
A d
A very
A round
A ss
A te
A ber
A sh
A HA
A riana
A CH
A CT
A lecto
A PP
A aaaa
A aaah
B L
B es
B ow
B lo
B ul
B ear
B ound
B orn
B udge
B ought
B RE
B its
B anned
B orgin
B OY
B ooks
B aubles
B orrowed
B arking
C R
C ar
C ur
C ous
C up
C ave
C ont
C ough
C os
C LE
C RA
C urious
C ourt
C AU
D i
D u
D im
D ill
D ied
D ress
D ung
D inky
D eep
D urmstrang
D olores
D ES
D angerous
D iddy
D ouble
D umbly
D UNG
E ll
E et
E ss
E ating
E vil
E van
E vidently
E specially
E pis
F T
F s
F at
F en
F el
F ool
F unn
F TER
F EN
F OR
F INE
F izzing
F antastic
F ORM
F airy
F ascinating
G l
G it
G ol
G ather
G ets
G its
G ring
G AR
G alle
G rawp
G ilderoy
G iving
G RA
G wenog
G hosts
H H
H o
H iding
H ufflepuff
H earing
H mp
H okey
H agger
H mph
H ardly
I A
I E
I ng
I RY
I ET
I ckle
J o
J oke
J olly
J ourney
J ohn
J OIN
K ind
K iss
K ept
K atie
K ING
K NOW
L as
L ess
L ep
L ive
L ies
L ung
L aw
L av
L os
L ockhart
L avender
L AT
L ousy
L uckily
L OOK
L ocomotor
M ill
M ess
M and
M ark
M igh
M ann
M oon
M ED
M ichael
M UST
M UU
M ental
M BRIDGE
N ING
N agini
N IGHT
N ymphadora
N ooo
N EVER
O H
O ld
O bs
O LL
O CK
O IS
O SE
P R
P s
P ad
P ain
P ure
P EN
P eter
P OR
P AR
P arty
P arkins
P ID
P ipes
P odmore
P enelope
P arents
P ortus
P enalty
P resent
R M
R o
R u
R od
R oom
R oon
R uddy
R IC
R OP
R apier
S W
S w
S y
S et
S ent
S un
S up
S ave
S pl
S pr
S aved
S word
S end
S car
S ounded
S imply
S urpr
T R
T ed
T ot
T uck
T ying
T roll
T LE
T roy
T ouch
T rouble
U C
U E
U UM
V en
V iolet
V ANT
W r
W ar
W or
W an
W et
W ard
W itch
W anted
W orth
W oss
W alk
W orse
W ingardium
W atching
Y EH
Z ey
Z acharias
a es
a ver
a ive
a pered
a unted
a era
b one
b urn
b ath
b ity
b anger
b read
b ashed
b anded
b ush
b ias
b oned
b ooster
b angs
c v
c arry
c ro
c all
c ide
c ra
c ass
c ared
c oll
c ible
c os
c aps
c ertain
c ular
c apped
c urse
c ute
c arc
c hem
c urses
c whisky
d ist
d ra
d el
d ie
d ark
d ated
d ue
d ugg
d awn
d ashed
d ead
d ressed
d renched
d aughter
d ums
e ing
e um
e ard
e xt
e av
e vil
f j
f y
f if
f are
f ang
f air
f ield
f raid
g ag
g her
g ust
g ra
g ily
g age
g arts
g ings
g ained
g rey
g reg
g ift
g iggling
g tails
h t
h ion
h all
h ast
h ake
h air
h aven
h avior
h unting
i V
i work
i atic
i astic
i atory
j y
j ac
j am
j aw
k ick
k ier
l m
l id
l ow
l ot
l im
l ay
l if
l ab
l ause
l ib
l ishing
l ations
l ife
l isten
l attering
l awed
l ucky
m ans
m ously
m ired
m mas
m oming
m otion
m auld
m uffled
m issed
m alt
n y
n ic
n il
n ant
n ep
n el
n ose
n uts
n zes
n elle
o x
o ard
o il
o ine
o ci
o kay
o inted
o ids
o xed
p at
p us
p ir
p ur
p il
p ul
p hat
p up
p ound
p ared
p age
p arts
p ens
p rod
p ressed
p ments
p oph
p arent
p eted
p iring
r an
r out
r am
r own
r ather
r ont
r ising
r ations
r inking
r ane
r aying
r anking
r unners
s is
s hing
s ame
s uff
s per
s aw
s pr
s ince
s ub
s af
s uch
s ucking
s ometimes
s afe
s plitting
s lang
s ensitive
t d
t w
t ur
t ri
t ook
t ill
t ors
t we
u an
u ver
u ity
u cing
u ations
u ghorn
u zzer
v om
v ra
v bl
v ating
v ably
v ention
v ately
v aged
v ices
v ays
v ian
v io
v ania
v ulsion
v oyant
v sie
w ed
w on
w ind
w ling
w itch
w ished
w az
w hose
w inkle
w orking
x pl
x ible
x ias
x min
x weed
y ed
y al
y ric
y ield
z er
z ers
z ie
z ards
z ipping
Ġ &
Ġ 0
Ġ ll
Ġ estr
Ġt ig
Ġt arts
Ġt uck
Ġt inny
Ġt ty
Ġt iss
Ġt inned
Ġt urm
Ġt iles
Ġt aint
Ġt ongs
Ġt iring
Ġt ainted
Ġt abs
he y
he et
he ur
he um
he me
he cked
he lp
Ġa i
Ġa il
Ġa ub
Ġa vid
Ġa venge
Ġa aaaa
Ġa aaah
in v
in as
in ell
in ally
in ence
in ci
in ian
in habited
Ġs ch
Ġs led
Ġs ud
Ġs ie
Ġs ord
Ġs ung
Ġs ib
Ġs ult
Ġs cept
Ġs ores
Ġw iv
Ġw arr
Ġw agged
Ġw oh
Ġthe at
Ġthe ore
Ġthe ater
re th
re ements
re chaun
re pelling
ou ill
Ġh ust
Ġh ink
Ġh og
Ġh ound
Ġh ire
Ġh itch
Ġh ors
Ġh inting
Ġh unted
Ġh uffy
Ġh ives
Ġh inge
Ġh ubb
Ġh ulking
ed led
on a
on or
on ly
on ce
on ous
on est
on str
on cho
on ias
on ica
ing ers
ing ham
er c
er ally
er ated
er ating
er os
er ately
er work
er oom
er ring
er ina
ar ation
ar ize
ar iably
nd ar
Ġb red
Ġb ast
Ġb aring
Ġb aff
Ġb unny
Ġb amb
Ġb illy
Ġb ids
Ġb unched
Ġb erk
Ġb rawl
Ġb udding
Ġb irch
Ġb ummer
Ġ" )
Ġf unn
Ġf igh
Ġf ib
Ġf used
Ġf ates
Ġf ungus
Ġf anned
Ġf umed
Ġf ails
Ġf umble
Ġf izz
Ġf iddled
Ġo k
Ġo l
Ġo x
Ġo y
Ġo ce
Ġo val
Ġo cto
Ġo dor
Ġo yt
ĠH ed
ĠH ard
ĠH ome
ĠH our
ĠH old
ĠH ate
ĠH app
ĠH iding
ĠH orc
ĠH idden
ĠH anged
ĠH mm
ĠH icc
ĠH ob
ĠH OUR
ĠH unched
ĠH onestly
ĠH OME
ĠH uman
ĠH olidays
ĠH onor
at as
at ted
at ting
at ism
at uation
is en
is pers
is guised
Ġto ll
Ġto ot
Ġto dd
Ġto ying
Ġto ken
Ġto asted
it us
it here
it ism
it udes
it ivity
it rans
Ġc udd
Ġc ement
Ġc aw
Ġc arted
Ġc aster
Ġc iv
Ġc ows
Ġc ale
Ġc af
Ġc oop
Ġc ert
Ġc amped
Ġc yl
Ġc elest
Ġc uffing
Ġc usto
as in
as ly
as ier
as elessly
as urably
ll ey
ll ified
id ance
or f
or ow
or ch
or and
or ably
or ange
or ative
or locks
Ġhe ather
en ient
en jy
Ġd ud
Ġd au
Ġd ile
Ġd itch
Ġd ating
Ġd ither
Ġd unk
Ġd rying
Ġd ye
Ġd rought
Ġd ub
Ġd under
Ġd uster
Ġd renching
Ġd immer
Ġd aunting
Ġd abbled
Ġd ummies
Ġm n
Ġm am
Ġm all
Ġm and
Ġm own
Ġm ime
Ġm ang
Ġm ering
Ġm ower
Ġm ules
Ġm akers
Ġm allows
Ġm oored
Ġl ink
Ġl air
Ġl ions
Ġl av
Ġl aced
Ġl aps
Ġl uring
Ġl aces
Ġl int
Ġl ax
Ġl apped
Ġl avender
Ġl ashes
Ġl atch
Ġl agging
Ġl yn
Ġl yric
Ġl enient
Ġth rou
Ġth inn
Ġth ron
Ġth inning
Ġth umped
Ġof No
Ġp es
Ġp ac
Ġp ic
Ġp ent
Ġp ore
Ġp and
Ġp ist
Ġp ear
Ġp ail
Ġp rying
Ġp ays
Ġp aving
Ġp onds
Ġp ampered
Ġp auses
Ġp outed
Ġp aunch
Ġp ilf
Ġp aisley
Ġp oncho
es to
Ġha re
Ġha cked
Ġha aa
Ġha ms
an ow
an im
an ish
an ized
an ian
Ġg e
Ġg y
Ġg im
Ġg erm
Ġg ist
Ġg ong
Ġg ully
Ġg rouch
Ġg ushing
Ġg its
Ġg ait
Ġg aud
Ġg aun
Ġg angling
Ġg ales
Ġg iddy
Ġg erb
Ġg abbled
Ġg eranium
Ġg hast
Ġin ee
Ġin ject
Ġin quire
Ġin quis
Ġin sec
Ġin acc
Ġn ook
Ġn ond
Ġn ich
Ġn ks
Ġn igh
Ġn av
Ġn udge
Ġn ought
Ġn ative
Ġn ettle
Ġn yl
Ġn esting
Ġn iches
Ġn atures
Ġn ibble
Ġn aive
Ġn anow
le on
le men
le xible
ow l
ow se
Ġsa pp
Ġsa les
Ġsa kes
Ġsa cr
Ġsa ggy
Ġsa pling
Ġsa liv
om ise
om atically
om ancy
om ona
ot er
ot ation
ot fang
Ġy anking
Ġy owling
Ġbe re
Ġbe au
Ġbe gg
Ġbe aker
Ġbe friend
Ġbe eline
Ġe lo
Ġe el
Ġe ject
Ġe rect
ac ity
Ġhis ses
im y
im ately
im ited
im icum
us in
us able
us ually
us ters
ve lt
ve mber
Ġst on
Ġst ink
Ġst ave
Ġst ank
Ġst rif
Ġst arg
Ġst utter
Ġst uttered
Ġst uttering
Ġst alled
Ġst aunch
Ġst ubble
oo h
oo z
ĠI ll
ĠI am
ĠI vor
Ġon erous
Ġon going
et or
et ical
et ectable
ic om
ic to
ic op
ic ts
ic ity
ic ably
ic ations
ic ule
ic orice
ver ance
Ġwh ack
Ġwh il
Ġwh ine
Ġwh ined
ro ke
ro ved
ro vers
ro val
ir it
ir ous
ir king
ir rup
ir ring
ir ator
ir reU
ut o
ut ing
ut ers
ut ies
ĠM R
ĠM ould
ĠM ort
ĠM art
ĠM ine
ĠM org
ĠM OR
ĠM antic
ĠM mm
ĠM ember
ĠM ID
ĠM UM
ĠM UN
ĠM OUT
ĠM akers
ĠM ajor
ĠM ascots
ĠT y
ĠT in
ĠT ired
ĠT ongue
ĠT IM
ĠT alk
ĠT REE
ĠT AK
ĠT EA
ĠT uney
ĠT ELL
ĠT ooth
ĠT URN
Ġwe pt
Ġwe igh
Ġwe bs
Ġwe althy
out ing
ent ia
ent iful
ent uries
ent ieth
ent lemen
ad v
ad ers
ad ley
ad ise
ad ays
ad itions
Ġat op
Ġat roc
Ġas ser
Ġas pers
Ġas certain
Ġu mpt
ĠS O
ĠS ly
ĠS im
ĠS ore
ĠS ight
ĠS un
ĠS ant
ĠS ting
ĠS me
ĠS outh
ĠS onn
ĠS aved
ĠS EEN
ĠS ET
ĠS aying
ĠS OM
ĠS acking
ĠS OME
ĠS ICK
ĠS outheast
ĠS welling
Ġre en
Ġre lo
Ġre est
Ġre nder
Ġre vers
Ġre nce
Ġre igned
Ġre jected
Ġre aches
Ġre kind
Ġre enter
Ġre told
Ġre hearsed
ĠD A
ĠD ill
ĠD umbled
ĠD urn
ĠD og
ĠD od
ĠD ile
ĠD awn
ĠD angling
ĠD IR
ĠD rop
ĠD ES
ĠD RA
ĠD ucking
ĠD AM
ĠD azed
ĠD erw
ĠD ingle
ĠD UDLEY
ĠD ittany
ĠD ai
ĠD irect
ĠD owse
ur rying
ur rence
al u
al se
al um
al cul
al bert
Ġ- !"
ore al
se par
se ek
ag u
ag ent
ag ley
ag ery
ag ingly
ag gered
?" )
st ered
st age
st orm
st oned
st while
st reaked
st roke
ĠR up
ĠR ab
ĠR age
ĠR igh
ĠR aven
ĠR isk
ĠR ude
ĠR une
ĠR IGHT
ĠR opes
ĠR abbitty
ĠR UDDY
ĠR otfang
ri or
Ġwit ty
ke ep
ke ins
ch arts
ch ild
ch ann
ch ieve
ch osen
ch men
Ġan ch
Ġan th
Ġan ts
Ġan ows
Ġan ony
Ġan aly
Ġan ival
Ġan ec
ay er
Ġwith ou
Ġfor ge
Ġfor aging
am in
am er
am ore
am ant
am our
am ish
am ents
am ination
am eless
Ġse as
Ġse aw
Ġse als
Ġse ams
um ple
um ans
um ination
ĠP es
ĠP le
ĠP red
ĠP ink
ĠP op
ĠP est
ĠP ity
ĠP ere
ĠP ER
ĠP icking
ĠP RE
ĠP early
ĠP OT
ĠP AR
ĠP ajam
ĠP UT
ĠP ests
ĠP assed
ĠP imply
ĠP arents
ĠP leased
ĠP enalty
ĠP OIS
ĠP orlocks
ĠP omona
ter ies
pp in
pp ery
all ow
ĠRon l
Ġnot ches
Ġnot with
Ġnot oriously
ĠA p
ĠA il
ĠA ff
ĠA br
ĠA ub
ĠA ids
ĠA aaaa
ĠA part
ĠA WAY
ĠA idan
ĠA ckerley
ĠA rabella
ĠA FTER
ĠA xmin
ĠA chieve
ack y
ack ling
ard y
ard man
Ġsh h
Ġsh in
Ġsh ave
Ġsh aven
Ġsh imm
Ġsh uffle
Ġsh unned
Ġsh immer
led y
Ġk in
Ġk ilt
Ġk ippers
erm ine
ĠHe li
ĠHe aling
pe ze
!" ).
... '"
ain ee
em p
em bo
em selves
em bers
em bow
em pted
em plo
ĠW ow
ĠW et
ĠW art
ĠW ake
ĠW ire
ĠW az
ĠW oke
ĠW aff
ĠW ald
ĠW IN
ĠW agg
ĠW arty
ĠW ulf
ĠW rigg
ĠW INS
ĠW atched
Ġfr a
Ġfr act
Ġfr oth
Ġfr aught
Ġfr isking
Ġup shot
Ġup date
Ġup dated
Ġdo omed
Ġdo gging
Ġdo xy
ight ers
ess ed
ess ence
Ġout set
Ġout fl
Ġout fit
Ġout lawed
ce nding
un s
un ed
un less
and les
ĠB ay
ĠB ind
ĠB ally
ĠB ang
ĠB ath
ĠB ure
ĠB ol
ĠB uck
ĠB ars
ĠB ens
ĠB ash
ĠB rought
ĠB reed
ĠB rian
ĠB ET
ĠB irm
ĠB ites
ĠB urning
ĠB road
ĠB ooster
ĠB abbling
ĠB irds
ĠB oris
ĠB ribe
ĠB ishop
ĠB UL
ĠB amy
ĠB OOKS
ĠB reth
ĠB enjy
Ġme ander
Ġme wling
Ġne on
ĠG re
ĠG rou
ĠG em
ĠG one
ĠG ul
ĠG ave
ĠG row
ĠG ine
ĠG ord
ĠG ern
ĠG amp
ĠG illy
ĠG rief
ĠG ENT
ĠG IR
ĠG IVE
ĠG oyles
ĠG azing
ĠG ibbon
ĠG enerations
il ential
il uted
Ġr ook
Ġr am
Ġr up
Ġr aking
Ġr una
Ġr acked
Ġr ages
Ġr ations
Ġr uffle
Ġr amb
Ġr usted
Ġr uffling
Ġr iddled
ĠC om
ĠC ri
ĠC ave
ĠC od
ĠC oll
ĠC ater
ĠC arm
ĠC li
ĠC overed
ĠC onn
ĠC oun
ĠC rup
ĠC AR
ĠC ED
ĠC AT
ĠC ompre
ĠC AST
ĠC ongratulations
ĠC uriously
ĠC REAT
ĠC UP
ĠC ackling
ĠC andles
Ġfe z
Ġfe inting
Ġall ies
Ġall otted
Ġbut ting
to day
to ps
to iy
if ter
if act
if ically
ĠF L
ĠF d
ĠF ig
ĠF right
ĠF air
ĠF orm
ĠF ool
ĠF ove
ĠF riend
ĠF ron
ĠF eed
ĠF oul
ĠF IR
ĠF ives
ĠF resh
ĠF allen
ĠF IL
ĠF REE
ĠF AM
ĠF ynch
ĠF LY
ĠF OOL
ĠF udges
ĠF ascinating
ĠF ainting
ĠF ollowing
ĠF heur
Ġj ade
Ġj iff
Ġj olly
Ġj aun
Ġj ourne
Ġj ibe
umb ers
umb les
umb li
Ġso il
Ġso ber
Ġso aps
Ġso cial
Ġso ppy
Ġso poph
hed ore
ell ation
ast an
Ġwhe l
Ġwhe edle
Ġwhe edled
lo ver
lo ss
lo ads
Ġback fire
qu ent
ort on
ort ure
ort entia
Ġli aise
Ġli zards
ide ous
ĠL i
ĠL ate
ĠL ab
ĠL ance
ĠL unch
ĠL oss
ĠL IST
ĠL IES
ĠL OOK
ĠL ESS
ĠL ILY
ĠL AUGH
ĠL td
ĠL icorice
Ġwhat T
Ġv and
Ġv il
Ġv ist
Ġv ate
Ġv ord
Ġv ith
Ġv enn
Ġv io
Ġv ented
Ġv ests
Ġv ouched
art hy
ant om
ant ial
ant uan
rid den
Ġab stained
Ġab oard
Ġex ac
Ġex ult
Ġex ited
Ġex ceeded
Ġex erted
Ġex empl
Ġex uberantly
Ġle ech
Ġle aky
Ġle veled
our age
Ġno vel
Ġno bility
Ġno gtails
Ġno velt
ist ently
ist ics
ist rations
ra x
ra pped
ra ving
ra ils
lf are
Ġag itating
Ġro am
Ġro bb
Ġro ped
Ġro aming
Ġro bbing
Ġro de
Ġro yal
ct d
ct or
ct ave
ct urus
Ġal right
Ġal be
Ġal ph
ong ing
Ġde pl
Ġde rel
Ġde als
Ġde cks
Ġde void
ul um
ul pt
Ġover d
Ġover w
Ġover re
Ġover age
Ġover time
Ġover power
Ġover hanging
Ġover view
Ġover shadowed
oy antly
ers ing
ig u
ig ate
ig ars
ig ently
ig rout
na p
na ire
na iled
ep y
Ġdown side
Ġdown hill
Ġoff ences
Ġoff spr
Ġany time
ĠN ig
ĠN ame
ĠN ames
ĠN amed
ĠN atural
ĠN umbly
ĠN umbing
ĠN orton
Ġch anted
Ġch ins
Ġch oke
Ġch aps
Ġch ief
Ġch illed
Ġch ancing
Ġch anned
Ġch ipping
Ġch uffed
Ġch asin
Ġch irrup
el ight
el ab
Ġsp ook
Ġsp ade
Ġsp ons
Ġsp aced
Ġsp orted
Ġsp urred
Ġsp acious
Ġsp rawl
Ġsp onging
Ġqu ery
Ġqu ash
Ġqu aked
Ġqu oted
Ġqu ailed
Ġqu elled
Ġqu otation
Ġcon ven
Ġcon cus
Ġcon so
Ġcon cre
Ġus ers
ie ged
ie ces
ass orted
Ġun at
Ġun ion
Ġun ity
Ġun ident
Ġun blem
Ġun asked
Ġun see
Ġun belie
Ġun related
Ġun ivers
Ġun plottable
Ġun kindly
Ġun zipping
op ening
op eration
op aths
Ġhand knitted
Ġhand iwork
ĠWe ar
ĠWe ren
ĠWe ighing
ĠWe lfare
ull ery
are n
Ġby passed
Ġwor sh
Ġwor med
Ġjust ified
ĠPro bes
ĠPro bity
Ġthink in
Ġcan e
Ġcan ying
Ġcan aries
Ġtoo l
Ġsc rou
Ġsc ant
Ġsc oot
Ġsc iss
Ġsc rum
Ġsc ale
Ġsc ented
Ġsc ouring
Ġsc uffles
Ġsc rawling
Ġsc udding
Ġsc ampering
Ġsc heme
Ġsc ulpt
Ġsc ullery
Ġbl ared
Ġbl otting
Ġbl abbed
Ġbl isters
Ġbl izz
Ġbl uffing
Ġbl atant
Ġbl ithe
Ġbl ighters
Ġare na
Ġsee ker
ward s
est e
est ines
est ries
ĠV e
ĠV i
ĠV ill
ĠV ern
ĠV ER
ĠV ict
ĠV aux
ĠV ANT
ĠV IG
ĠV OLDEMORT
ĠV CR
ĠV icto
Ġif e
Ġpl owed
Ġpl owing
Ġpl und
Ġpl anting
Ġpl entiful
Ġwhen ce
Ġcl i
Ġcl ink
Ġcl air
Ġcl ause
Ġcl ash
Ġcl ucked
Ġcl inked
Ġcl unks
Ġcl ucking
Ġcl ippings
ap on
ap art
ap itated
Ġmore over
up on
Ġsl ay
Ġsl ain
Ġsl ave
Ġsl ugg
Ġsl anted
Ġsl udge
Ġsl inking
Ġsl ashes
Ġcom r
Ġcom ically
Ġcom bed
Ġcom pelled
bb ins
Ġwand ers
Ġwand work
Ġor f
ame leon
Ġhead y
Ġhead way
Ġhead lines
Ġmo s
Ġmo ss
Ġmo ors
Ġmo der
Ġmo keskin
Ġmo llified
ĠE X
ĠE h
ĠE ll
ĠE gg
ĠE xt
ĠE arly
ĠE vent
ĠE nded
ĠE ton
ĠE eng
ĠE mer
ĠE asy
ĠE XPE
ĠE specially
ĠE XPECTO
ĠE ffect
ĠE xtra
ĠE meric
ĠE SC
ĠE pil
ĠO pp
ĠO wn
ĠO bl
ĠO sw
ĠO do
ĠO ught
ĠO LD
ĠO pen
ĠO THER
ĠO mens
ĠO PEN
ĠO ooh
Ġtw ee
Ġtw eak
Ġtw anging
Ġtw inkle
ang ement
Ġtime ly
Ġsm ould
Ġsm ack
Ġsm arm
Ġsm eared
Ġsm arter
Ġsm ithere
Ġdoor less
Ġvo lley
Ġdon key
Ġtr ow
Ġtr im
Ġtr out
Ġtr ice
Ġtr icking
Ġtr ances
Ġtr ussed
Ġtr oops
Ġtr aditions
ation ally
Ġturn in
Ġface ful
Ġgl ac
Ġgl ue
Ġgl ower
Ġgl oop
Ġgl amour
Ġright ed
Ġright fully
Ġseem d
tle ty
Ġgr ows
ree ch
ree ze
ire r
Ġsw um
Ġsw itch
Ġsw illed
Ġsw anned
Ġsw athed
Ġsw ipes
Ġsw agger
Ġsw iped
Ġsw aggered
Ġsw arthy
Ġfl ay
Ġfl ound
Ġfl ank
Ġfl umm
Ġfl anks
Ġfl amed
Ġfl akes
Ġfl amb
Ġfl ayed
Ġfl abby
Ġfl asks
Ġfl imsy
Ġfl avored
ol ted
ol ized
ol atas
The m
other ing
other wise
ĠU J
ĠU S
ĠU s
ĠU sed
ĠU sing
ĠU gly
ĠU SE
ĠU MBRIDGE
Ġman if
Ġman ip
Ġman ual
Ġman acle
Ġman acles
omet er
Ġen case
Ġen umer
Ġen large
Ġen lar
Ġclo sen
Ġwill s
Ġwill ed
Ġwill power
ab y
ab iding
ab ais
ab lished
ab etical
Ġar ced
Ġar isen
ft en
ft ly
ĠK N
ĠK en
ĠK ill
ĠK ettle
th irst
od el
od erately
Ġpre co
Ġpre arranged
Ġim me
Ġim itating
Ġte ase
Ġte ased
Ġte eter
Ġsaw s
Ġunder line
Ġunder bell
Ġunder going
Ġunder fed
Ġdis ch
Ġdis aster
Ġdis fig
Ġdis anned
Ġdis qualified
Ġdis rep
Ġdis banded
Ġdis embow
Ġwant in
Ġtell tale
Ġpe nd
Ġpe ck
Ġpe ach
Ġpe ony
Ġpe bble
row ave
ather s
Ġke lp
ment al
ment ary
Ġmu le
Ġapp et
Ġapp li
Ġapp lying
Ġapp arition
Ġlo b
Ġlo lled
Ġlo bbing
Ġlo vingly
thing s
Ġlet tered
te ens
Ġlit erally
Ġeven in
Ġrem onstr
Ġspe cies
mb ly
mb ling
Ġbr akes
Ġbr amble
ĠSirius s
ĠDe ep
ĠDe af
ĠDe velo
lt imately
Ġcome upp
orm ous
Ġac hes
Ġac ute
Ġac idly
Ġac adem
ĠHog s
Ġpoin ty
Ġpro ff
Ġpro pping
Ġpro ph
Ġpro str
Ġpro pri
Ġpro posed
[...]
