{"<s>":0,"<pad>":1,"</s>":2,"<unk>":3,"<mask>":4,"!":5,"\"":6,"&":7,"'":8,"(":9,")":10,"*":11,",":12,"-":13,".":14,"0":15,"1":16,"2":17,"3":18,"4":19,"5":20,"6":21,"7":22,"8":23,"9":24,":":25,";":26,"?":27,"A":28,"B":29,"C":30,"D":31,"E":32,"F":33,"G":34,"H":35,"I":36,"J":37,"K":38,"L":39,"M":40,"N":41,"O":42,"P":43,"Q":44,"R":45,"S":46,"T":47,"U":48,"V":49,"W":50,"X":51,"Y":52,"Z":53,"[":54,"\\":55,"]":56,"_":57,"a":58,"b":59,"c":60,"d":61,"e":62,"f":63,"g":64,"h":65,"i":66,"j":67,"k":68,"l":69,"m":70,"n":71,"o":72,"p":73,"q":74,"r":75,"s":76,"t":77,"u":78,"v":79,"w":80,"x":81,"y":82,"z":83,"{":84,"}":85,"~":86,"Ċ":87,"Ġ":88,"Ġt":89,"ĠĊ":90,"he":91,"Ġa":92,"in":93,"Ġs":94,"Ġw":95,"Ġthe":96,"re":97,"ou":98,"Ġh":99,"ed":100,"on":101,"ing":102,"er":103,"ar":104,"nd":105,"Ġb":106,"Ġ\"":107,"Ġf":108,"Ġo":109,"ĠH":110,"at":111,"is":112,"Ġto":113,"it":114,"Ġc":115,"as":116,"ll":117,"id":118,"or":119,"Ġhe":120,"en":121,"Ġd":122,"Ġm":123,"Ġl":124,"Ġand":125,"Ġth":126,"Ġof":127,"ry":128,"Ġp":129,"es":130,"Ġha":131,"an":132,"Ġg":133,"Ġin":134,"Ġn":135,"le":136,"ow":137,"Ġsa":138,"arry":139,"ly":140,"ĠHarry":141,"om":142,"ot":143,"Ġy":144,"Ġwas":145,"Ġbe":146,"gh":147,"..":148,"Ġsaid":149,"Ġe":150,"ac":151,"ld":152,"Ġyou":153,"Ġhis":154,"im":155,"'s":156,"us":157,"ve":158,"Ġst":159,"oo":160,"Ġit":161,"ĠI":162,"Ġon":163,"et":164,"ic":165,",\"":166,"ver":167,"ion":168,"Ġwh":169,"ro":170,"ir":171,"Ġhad":172,"ut":173,"Ġthat":174,"ght":175,"ĠM":176,"ĠT":177,"Ġwe":178,"out":179,"ent":180,"ad":181,"Ġat":182,"Ġas":183,"Ġu":184,"ĠS":185,"Ġre":186,"ĠD":187,"ur":188,"al":189,".\"":190,"Ġ-":191,"ore":192,"Ġhim":193,"se":194,"ag":195,"?\"":196,"st":197,"ĠR":198,"ri":199,"'t":200,"Ġwit":201,"ke":202,"ch":203,"Ġan":204,"ook":205,"ould":206,"ay":207,"Ġwith":208,"red":209,"Ġfor":210,"am":211,"Ġse":212,"her":213,"um":214,"ĠP":215,"ter":216,"pp":217,"all":218,"ĠThe":219,"ĠRon":220,"Ġnot":221,"ĠA":222,"ill":223,"ack":224,"rou":225,"ard":226,"Ġsh":227,"led":228,"Ġk":229,"erm":230,"ĠHe":231,"pe":232,"!\"":233,"...":234,"Ġher":235,"ain":236,"em":237,"Ġlook":238,"ĠW":239,"ermion":240,"ermione":241,"Ġfr":242,"Ġup":243,"ĠHermione":244,"Ġdo":245,"ight":246,"Ġthey":247,"ess":248,"Ġout":249,"ce":250,"un":251,"ge":252,"ind":253,"and":254,"ĠB":255,"Ġwere":256,"Ġme":257,"Ġkn":258,"Ġne":259,"Ġthem":260,"ĠG":261,"ted":262,"il":263,"Ġr":264,"ĠC":265,"Ġfe":266,"Ġall":267,"Ġbut":268,"to":269,"ak":270,"if":271,"ĠF":272,"Ġshe":273,"Ġhave":274,"Ġfrom":275,"Ġj":276,"umb":277,"hing":278,"Ġgo":279,"ust":280,"ck":281,"ome":282,"very":283,"ood":284,"Ġso":285,"hed":286,"ell":287,"ast":288,"one":289,"Ġwhe":290,"ble":291,"lo":292,"Ġback":293,"qu":294,"umbled":295,"ort":296,"Ġli":297,"Ġinto":298,"ide":299,"own":300,"ĠL":301,"Ġdid":302,"umbledore":303,"Ġwho":304,"Ġwhat":305,"Ġv":306,"Ġcould":307,"art":308,"ud":309,"ant":310,"round":311,"Ġbeen":312,"rid":313,"Ġis":314,"ĠDumbledore":315,"Ġthou":316,"Ġab":317,"Ġex":318,"Ġle":319,"our":320,"ink":321,"Ġno":322,"ist":323,"ra":324,"lf":325,"Ġag":326,"Ġro":327,"ice":328,"ous":329,"ct":330,"Ġal":331,"ong":332,"Ġde":333,"ff":334,"ul":335,"ace":336,"You":337,"Ġthis":338,"Ġover":339,"oy":340,"ers":341,"ley":342,"ss":343,"Ġwould":344,"ked":345,"Ġthere":346,"Ġsu":347,"ig":348,"hat":349,"na":350,"ep":351,"Ġtheir":352,"Ġpo":353,"Ġknow":354,"old":355,"Ġabout":356,"Ġdown":357,"Ġoff":358,"Ġany":359,"ven":360,"iz":361,"ther":362,"ĠN":363,"Ġch":364,"el":365,"Ġone":366,"Ġlike":367,"Ġagain":368,"way":369,"Ġlooked":370,"Ġsp":371,"urn":372,"Ġqu":373,"Ġnow":374,"ting":375,"Ġcon":376,"ick":377,"Ġyour":378,"Ġus":379,"ie":380,"ass":381,"Ġun":382,"Ġaround":383,"op":384,"Ġhand":385,"ally":386,"ime":387,"Ġey":388,"ĠWe":389,"ull":390,"are":391,"Ġby":392,"'ve":393,"fess":394,"Ġwor":395,"Ġjust":396,"ĠMr":397,"ĠPro":398,"Ġgot":399,"ered":400,"Ġthink":401,"Ġthen":402,"fessor":403,"Ġcan":404,"ark":405,"Ġtoo":406,"agrid":407,"ake":408,"right":409,"Ġsc":410,"Ġbl":411,"Ġare":412,"Ġsee":413,"ward":414,"est":415,"Ġget":416,"ĠV":417,"Ġif":418,"reat":419,"Ġpl":420,"Ġwhen":421,"Ġcl":422,"ap":423,"ĠHagrid":424,"Ġmore":425,"Ġvery":426,"up":427,"Ġsl":428,"ear":429,"Ġmy":430,"ĠProfessor":431,"Ġcom":432,"'re":433,"bb":434,"Ġwand":435,"Ġor":436,"nape":437,"...\"":438,"ame":439,"Ġhead":440,"Ġmo":441,"ive":442,"ĠE":443,"og":444,"ĠSnape":445,"Ġthough":446,"ĠO":447,"self":448,"ate":449,"'ll":450,"Ġtw":451,"ang":452,"'d":453,"asley":454,"ĠIt":455,"Ġtime":456,"Ġsm":457,"ĠWeasley":458,"pped":459,"Ġdoor":460,"ound":461,"Ġhow":462,"Ġstill":463,"rough":464,"ved":465,"Ġvo":466,"Ġ'":467,"ond":468,"Ġdon":469,"Ġtr":470,"ation":471,"Ġeyes":472,"ared":473,"Ġlooking":474,"ving":475,"Ġthan":476,"Ġturn":477,"Ġface":478,"air":479,"Ġsome":480,"ius":481,"Ġthrough":482,"ich":483,"Ġgl":484,"fore":485,"ite":486,"Ġright":487,"nder":488,"ath":489,"ure":490,"ily":491,"Ġother":492,"au":493,"Ġgoing":494,"alf":495,"Ġvoice":496,"Ġseem":497,"inn":498,"pt":499,"gg":500,"ious":501,"ave":502,"tle":503,"Ġgr":504,"ree":505,"ened":506,"ire":507,"Ġwhich":508,"Ġsay":509,"Ġsw":510,"Ġfl":511,"ol":512,"The":513,"Ġthought":514,"Ġbefore":515,"other":516,"ĠThey":517,"'m":518,"ĠU":519,"ling":520,"aus":521,"Ġevery":522,"alfoy":523,"fter":524,"ĠPot":525,"Ġdidn":526,"Ġman":527,"omet":528,"Ġen":529,"able":530,"Ġclo":531,"wn":532,"Ġwill":533,"ĠMalfoy":534,"Ġhere":535,"Ġroom":536,"idd":537,"ched":538,"aking":539,"ab":540,"Ġar":541,"ade":542,"Ġop":543,"orn":544,"ft":545,"ĠK":546,"Ġlong":547,"th":548,"od":549,"side":550,"Ġpre":551,"Ġonly":552,"ile":553,"Ġim":554,"oldem":555,"What":556,"Ġwat":557,"Ġte":558,"king":559,"aring":560,"oldemort":561,"ho":562,"ts":563,"Ġsomet":564,"Ġsaw":565,"Ġunder":566,"Ġdis":567,"Ġwhere":568,"Ġwant":569,"Ġhapp":570,"ĠVoldemort":571,"Ġtell":572,"Ġpe":573,"Ġbeh":574,"Ġkne":575,"Ġway":576,"age":577,"Ġafter":578,"row":579,"ather":580,"ried":581,"izard":582,"sed":583,"Ġke":584,"ves":585,"Ġbec":586,"ment":587,"Ġmu":588,"Ġapp":589,"Ġlo":590,"Ġseemed":591,"irius":592,"thing":593,"Ġaway":594,"Ġsomething":595,"Ġlet":596,"ĠPotter":597,"Ġhimself":598,"te":599,"Ġfir":600,"Ġlit":601,"ĠAnd":602,"Ġbet":603,"ĠShe":604,"Ġbehind":605,"Ġeven":606,"Ġrem":607,"ause":608,"Ġasked":609,"ect":610,"Ġspe":611,"mb":612,"Ġturned":613,"Ġtold":614,"Ġbr":615,"ever":616,"Ġnever":617,"Ġtoward":618,"ĠSirius":619,"It":620,"ated":621,"ĠDe":622,"lt":623,"Ġcome":624,"Ġlast":625,"orm":626,"Ġac":627,"ĠHog":628,"Ġthing":629,"Ġpoin":630,"Ġpro":631,"act":632,"Ġmom":633,"ĠBut":634,"ks":635,"agic":636,"ine":637,"ance":638,"Ġmoment":639,"Ġmuch":640,"Ġtry":641,"oll":642,"ach":643,"ool":644,"Ġknew":645,"dd":646,"He":647,"uff":648,"ied":649,"ue":650,"ress":651,"Ġshould":652,"ople":653,"ord":654,"ching":655,"ĠYou":656,"ering":657,"Ġlittle":658,"Ġonce":659,"Ġyear":660,"Ġfirst":661,"Ġsil":662,"Well":663,"arts":664,"Ġsec":665,"ful":666,"ugg":667,"Ġheard":668,"Ġmade":669,"Ġleft":670,"Ġtwo":671,"Ġhas":672,"ĠThere":673,"nt":674,"Ġpr":675,"ont":676,"ody":677,"ped":678,"ĠMin":679,"Ġbot":680,"We":681,"Ġwa":682,"ase":683,"ish":684,"Ġgood":685,"Ġfelt":686,"ĠFred":687,"ĠMrs":688,"But":689,"Ġwizard":690,"Ġdes":691,"owed":692,"Ġpeople":693,"warts":694,"les":695,"uck":696,"Ġcont":697,"ĠNe":698,"Ġwell":699,"No":700,"ber":701,"Ġho":702,"ady":703,"Ġreally":704,"Ġpull":705,"Ġdark":706,"ĠHogwarts":707,"ple":708,"Ġits":709,"Ġmight":710,"ies":711,"room":712,"ross":713,"Ġatt":714,"udd":715,"Ġtal":716,"Ġflo":717,"Ġsn":718,"Ġwal":719,"itch":720,"less":721,"ory":722,"ions":723,"ough":724,"ille":725,"hen":726,"upin":727,"ors":728,"Ġneed":729,"Ġstr":730,"ĠCh":731,"ock":732,"ĠMc":733,"inny":734,"per":735,"rie":736,"xt":737,"Ġfront":738,"ĠLupin":739,"Ġfeel":740,"Ġwind":741,"Ġam":742,"Qu":743,"Ġever":744,"ouse":745,"Ġdr":746,"Ġsure":747,"ity":748,"ah":749,"ise":750,"ose":751,"eor":752,"Ġopen":753,"Oh":754,"Ġche":755,"Ġmust":756,"eorge":757,"oud":758,"ville":759,"Ġcr":760,"ĠGeorge":761,"arge":762,"Ġmean":763,"Ġold":764,"Ġcame":765,"ung":766,"me":767,"pl":768,"And":769,"Ġfeet":770,"ign":771,"ced":772,"cy":773,"here":774,"ĠNeville":775,"ons":776,"Ġbecause":777,"ence":778,"Ġput":779,"ream":780,"Ġimp":781,"Gon":782,"Ġhur":783,"Gonag":784,"Ġown":785,"Ġpass":786,"Ġbel":787,"ĠGinny":788,"Ġent":789,"Gonagall":790,"ĠQu":791,"ĠMcGonagall":792,"unn":793,"Ġend":794,"rew":795,"Ġfind":796,"Ġcle":797,"Ġsur":798,"Ġtook":799,"anted":800,"Ġter":801,"eah":802,"ourse":803,"be":804,"Ġbit":805,"Ġanything":806,"Ġday":807,"Ġgreat":808,"Ġsupp":809,"Ġbed":810,"Ġfew":811,"Ġhard":812,"Ġmake":813,"Ġtrying":814,"Ġstand":815,"Ġtable":816,"Ġhel":817,"chool":818,"Ġtake":819,"ised":820,"ater":821,"ished":822,"Ġlight":823,"ĠIn":824,"ents":825,"ĠTh":826,"Ġwr":827,"ryff":828,"Ġgi":829,"iff":830,"Ġwent":831,"hes":832,"Ġsecond":833,"Ġanother":834,"ĠGryff":835,"ridge":836,"Ġword":837,"Ġfloor":838,"Ġhands":839,"ern":840,"ost":841,"Ġnext":842,"Ġcur":843,"Ġkeep":844,"Ġinside":845,"Ġnight":846,"Ġschool":847,"ĠBl":848,"Ġside":849,"arly":850,"ove":851,"we":852,"oot":853,"Ġwhile":854,"ĠGryffind":855,"iously":856,"iet":857,"Ġboy":858,"Ġlarge":859,"ully":860,"Ġsound":861,"Ġem":862,"cle":863,"ank":864,"Ġnew":865,"Ġra":866,"Ġfound":867,"tered":868,"Ġwhis":869,"body":870,"Ġcall":871,"Ġarm":872,"ee":873,"Ġthree":874,"Ġwindow":875,"Ġlau":876,"mbridge":877,"Ġblack":878,"acher":879,"Ġel":880,"az":881,"ized":882,"Ġloud":883,"Yes":884,"get":885,"Ġhair":886,"ĠUmbridge":887,"ne":888,"Ġper":889,"Ġret":890,"ty":891,"Ġset":892,"Ġhouse":893,"ars":894,"ement":895,"app":896,"Ġsit":897,"ary":898,"Ġseen":899,"ix":900,"istry":901,"ĠDeath":902,"ip":903,"Ġcourse":904,"Ġgave":905,"Ġground":906,"Ġnothing":907,"ĠJ":908,"ild":909,"arm":910,"Ġhelp":911,"Ġstood":912,"ail":913,"ĠMinistry":914,"ĠSt":915,"Ġhear":916,"Ġfin":917,"udden":918,"Ġwhy":919,"aw":920,"iss":921,"Ġreal":922,"Ġjo":923,"bl":924,"Ġhalf":925,"Harry":926,"igh":927,"ating":928,"ĠDo":929,"hy":930,"Ġsk":931,"Ġpulled":932,"ĠGryffindor":933,"Ġair":934,"airs":935,"Ġsudden":936,"ĠUn":937,"Ġbook":938,"Ġour":939,"Ġwall":940,"ightly":941,"Ġupon":942,"ower":943,"ness":944,"Ġshout":945,"oody":946,"Ġwanted":947,"Ġmat":948,"Ġlif":949,"ached":950,"av":951,"Ġcast":952,"Ġacross":953,"Yeah":954,"Ġsat":955,"bby":956,"Ġbeg":957,"ans":958,"Ġfell":959,"Ġquick":960,"Ġsqu":961,"ible":962,"Ġbeing":963,"Ġeach":964,"Ġwait":965,"ways":966,"Ġplace":967,"ĠHis":968,"Ġwasn":969,"ump":970,"Ġfire":971,"Ġstud":972,"Ġboth":973,"Ġfoll":974,"unt":975,"ings":976,"udge":977,"ĠMad":978,"Ġmost":979,"ng":980,"Ġwithout":981,"ently":982,"Ġalong":983,"ten":984,"Ġquiet":985,"Ġcor":986,"Ġdoes":987,"sh":988,"Ġdone":989,"Ġclass":990,"ĠDark":991,"Ġcouldn":992,"Ġhappened":993,"ister":994,"Ġquite":995,"Ġsmall":996,"ib":997,"Ġagainst":998,"arted":999,"Ġmind":1000,"Ġang":1001,"fully":1002,"ru":1003,"Ġbetter":1004,"os":1005,"outh":1006,"Ġmagic":1007,"Ġdoing":1008,"Ġcare":1009,"aster":1010,"ening":1011,"That":1012,"ins":1013,"riend":1014,"owing":1015,"ĠPer":1016,"cted":1017,"Ġunt":1018,"lu":1019,"ric":1020,"ernon":1021,"Ġple":1022,"ying":1023,"ĠMugg":1024,"pered":1025,"iling":1026,"ĠVernon":1027,"ey":1028,"Ġbreat":1029,"Ġenough":1030,"eh":1031,"Ġste":1032,"Ġexpe":1033,"Ġelse":1034,"ĠMoody":1035,"bes":1036,"Ġfam":1037,"Ġkill":1038,"ĠMagic":1039,"Ġeye":1040,"li":1041,"Ġhold":1042,"Ġmouth":1043,"ready":1044,"urs":1045,"ined":1046,"amp":1047,"ĠThen":1048,"tain":1049,"Ġmut":1050,"Ġless":1051,"Ġmin":1052,"Ġyears":1053,"ret":1054,"Ġcau":1055,"ĠAs":1056,"pr":1057,"Ġalready":1058,"cl":1059,"lyther":1060,"Ġyell":1061,"Ġres":1062,"Ġrobes":1063,"Ġwalked":1064,"Th":1065,"awn":1066,"Ġremem":1067,"und":1068,"Ġstaring":1069,"ia":1070,"ĠUncle":1071,"reak":1072,"Ġpart":1073,"ince":1074,"Ġfriend":1075,"Ġpast":1076,"Ġgold":1077,"Ġbelie":1078,"ĠHall":1079,"Ġdiff":1080,"ĠPet":1081,"eared":1082,"Ġbo":1083,"iddle":1084,"So":1085,"Ġgre":1086,"ĠSlyther":1087,"Ġforward":1088,"Ġread":1089,"ĠFudge":1090,"Ġwon":1091,"Ġthose":1092,"Ġrest":1093,"anger":1094,"Ġtre":1095,"Ġtop":1096,"pping":1097,"ably":1098,"ween":1099,"Ġgone":1100,"Ġrather":1101,"Ġwhispered":1102,"Ġreturn":1103,"Ġbetween":1104,"Ġsuddenly":1105,"ained":1106,"Ġsna":1107,"ense":1108,"Ġstanding":1109,"arn":1110,"Ġob":1111,"Ġinst":1112,"ĠAr":1113,"ged":1114,"Ġthese":1115,"Ġscar":1116,"Ġuntil":1117,"udley":1118,"Ġbegan":1119,"Ġcar":1120,"dded":1121,"Ġgive":1122,"Ġclose":1123,"most":1124,"Ġmany":1125,"Ġopened":1126,"Ġ...":1127,"Ġfull":1128,"Ġow":1129,"Ġrec":1130,"Ġlist":1131,"ange":1132,"Ġonto":1133,"ĠGr":1134,"Ġtried":1135,"Ġbro":1136,"ens":1137,"Ġcold":1138,"ĠBlack":1139,"Ġslightly":1140,"Ġyet":1141,"idditch":1142,"Ġglass":1143,"Ġsitting":1144,"oke":1145,"Ġwond":1146,"ither":1147,"Ġsto":1148,"head":1149,"Ġcou":1150,"Ġquickly":1151,"Who":1152,"Ġthings":1153,"ĠDudley":1154,"Ġdro":1155,"Ġsame":1156,"Ġtalking":1157,"Ġraised":1158,"ches":1159,"Ġfore":1160,"Ġdist":1161,"Ġbad":1162,"Ġstart":1163,"Ġoffice":1164,"Ġminut":1165,"ĠQuidditch":1166,"Ġreached":1167,"ph":1168,"ĠSlu":1169,"irl":1170,"ĠAn":1171,"Ġcorrid":1172,"day":1173,"Ġstarted":1174,"Ġcastle":1175,"ames":1176,"ult":1177,"Ġhor":1178,"ention":1179,"Ġdeep":1180,"ĠSlugh":1181,"Ġwouldn":1182,"Ġcomm":1183,"ĠLord":1184,"Ġunderst":1185,"Ġad":1186,"osed":1187,"raw":1188,"cket":1189,"Ġable":1190,"How":1191,"aken":1192,"Ġexp":1193,"Ġdead":1194,"igg":1195,"gether":1196,"Ġpain":1197,"ĠSe":1198,"Ġslow":1199,"ĠDobby":1200,"ĠPercy":1201,"tering":1202,"Ġalways":1203,"Ġco":1204,"Ġshouted":1205,"aters":1206,"Ġalmost":1207,"Ġanyone":1208,"Ġhigh":1209,"Ġname":1210,"lves":1211,"vis":1212,"Ġide":1213,"Ġlater":1214,"Ġcoming":1215,"Ġtogether":1216,"form":1217,"Ġfather":1218,"Ġwork":1219,"Ġcalled":1220,"med":1221,"ann":1222,"Ġuse":1223,"der":1224,"iv":1225,"erv":1226,"ual":1227,"Ġmem":1228,"Ġyeh":1229,"ately":1230,"rac":1231,"ured":1232,"Ġind":1233,"Ġbes":1234,"ĠWhat":1235,"Ġdrag":1236,"Ġfoot":1237,"Ġgirl":1238,"Ġsle":1239,"Ġhour":1240,"Ġstared":1241,"ere":1242,"sw":1243,"ĠY":1244,"Ġbroom":1245,"Ġfur":1246,"Ġpers":1247,"ron":1248,"Ġfour":1249,"Ġposs":1250,"Ġscream":1251,"Ġhowever":1252,"Ġcontin":1253,"ci":1254,"you":1255,"Ġfeeling":1256,"ER":1257,"Ġfar":1258,"Ġgu":1259,"Ġcrow":1260,"Ġstra":1261,"Ġdec":1262,"Ġwatching":1263,"Ġowl":1264,"Ġpar":1265,"cus":1266,"Ġcrowd":1267,"Ġsight":1268,"Ġquietly":1269,"ought":1270,"ery":1271,"ited":1272,"Ġwhole":1273,"rabb":1274,"Ġdet":1275,"eps":1276,"Ġstudents":1277,"Ġsign":1278,"Ġmother":1279,"Ġlot":1280,"Ġvis":1281,"aced":1282,"ĠIf":1283,"ĠEaters":1284,"ued":1285,"ird":1286,"Ġleg":1287,"Ġbeside":1288,"ĠWhen":1289,"Ġmar":1290,"aps":1291,"Ġoutside":1292,"Ġask":1293,"orry":1294,"Ġlow":1295,"Ġletter":1296,"Ġstraight":1297,"rest":1298,"ict":1299,"una":1300,"Ġempt":1301,"Ġstop":1302,"Ġwee":1303,"Ġeverything":1304,"ually":1305,"Ġheart":1306,"Ġred":1307,"umm":1308,"ures":1309,"They":1310,"Ġcaught":1311,"iled":1312,"Ġaw":1313,"Ġmove":1314,"Not":1315,"ply":1316,"Ġcat":1317,"Ġansw":1318,"Ġkept":1319,"Ġlife":1320,"ith":1321,"imes":1322,"ene":1323,"icked":1324,"Ġidea":1325,"Ġisn":1326,"Ġwords":1327,"ĠSlytherin":1328,"Ġstopped":1329,"Ġbest":1330,"Ġann":1331,"rouch":1332,"Ġsaying":1333,"Ġbelieve":1334,"ĠSc":1335,"Ġeveryone":1336,"Ġsupposed":1337,"Ġpassed":1338,"Ġbur":1339,"ĠMuggle":1340,"Ġslowly":1341,"Ġri":1342,"Ġsir":1343,"Ġwhether":1344,"Ġgetting":1345,"Ġmuttered":1346,"Ġhope":1347,"Ġhit":1348,"Ġ(":1349,"Ġact":1350,"acked":1351,"Ġpot":1352,"ĠAl":1353,"Ġdef":1354,"where":1355,"Ġhome":1356,"There":1357,"Ġsomeone":1358,"Ġbreath":1359,"cc":1360,"Ġfing":1361,"Ġhaven":1362,"Ġwizards":1363,"ken":1364,"Ġsince":1365,"cing":1366,"ĠLuna":1367,"Ġtaken":1368,"Ġshort":1369,"Ġplay":1370,"Ġgreen":1371,"light":1372,"ize":1373,"ĠMadam":1374,"rum":1375,"edric":1376,"Ġbreak":1377,"Ġstay":1378,"fort":1379,"any":1380,"aged":1381,"ĠCrouch":1382,"ject":1383,"ĠFl":1384,"Ġsort":1385,"reacher":1386,"Ġfall":1387,"Ġmoved":1388,"Ġcloak":1389,"Ġlaugh":1390,"Ġstone":1391,"rif":1392,"Ġholding":1393,"Ġleave":1394,"ursley":1395,"ĠDursley":1396,"Ġext":1397,"Ġlea":1398,"Ġunderstand":1399,"Don":1400,"phe":1401,"Ġnose":1402,"ows":1403,"cept":1404,"Ġcomp":1405,"orning":1406,"Ġdisapp":1407,"ging":1408,"ier":1409,"so":1410,"ati":1411,"ĠAunt":1412,"rel":1413,"Ġbus":1414,"Ġyes":1415,"rible":1416,"ĠHead":1417,"Ġquest":1418,"ĠSlughorn":1419,"Ġdi":1420,"Ġhadn":1421,"Ġsilence":1422,"Ġten":1423,"Ġappeared":1424,"Ġtalk":1425,"Ġloudly":1426,"Ġcorridor":1427,"Ġempty":1428,"ĠCedric":1429,"Ġalone":1430,"Ġminutes":1431,"If":1432,"Ġmaking":1433,"Ġwearing":1434,"Ġtowards":1435,"Ġtaking":1436,"iding":1437,"ility":1438,"Ġteacher":1439,"ided":1440,"Ġshoulder":1441,"ĠHow":1442,"ĠAll":1443,"Ġexam":1444,"Ġpoint":1445,"Ġpointed":1446,"Ġsurpr":1447,"man":1448,"haps":1449,"ĠClo":1450,"tend":1451,"ale":1452,"Ġhall":1453,"ushed":1454,"now":1455,"ertain":1456,"Ġspell":1457,"Ġfollowed":1458,"ĠAt":1459,"rave":1460,"Ġsilver":1461,"Ġbu":1462,"Ġdire":1463,"Ġmorning":1464,"Ġpower":1465,"Ġwhite":1466,"Ġrel":1467,"Ġremember":1468,"read":1469,"Ġbag":1470,"anks":1471,"unia":1472,"ĠFil":1473,"Ġwatched":1474,"Ġhat":1475,"ĠBill":1476,"Ġpointing":1477,"bo":1478,"fect":1479,"iny":1480,"Ġbright":1481,"lled":1482,"Ġstuff":1483,"sp":1484,"Ġfly":1485,"iced":1486,"ĠRiddle":1487,"Ġmeet":1488,"ĠFor":1489,"ĠOn":1490,"Ġarri":1491,"Ġteam":1492,"Why":1493,"Ġkind":1494,"ously":1495,"ression":1496,"Ġmatter":1497,"Ġce":1498,"Ġclosed":1499,"Ġser":1500,"anced":1501,"Ġsever":1502,"Ġothers":1503,"Ġacc":1504,"actly":1505,"ĠPetunia":1506,"ĠCloak":1507,"kay":1508,"ror":1509,"Ġround":1510,"Ġinter":1511,"Ġexc":1512,"Ġcomple":1513,"Ġdesk":1514,"Ġmon":1515,"Ġchair":1516,"Ġthinking":1517,"Ġfle":1518,"Ġspot":1519,"Ġcommon":1520,"Ġseveral":1521,"Ġref":1522,"Ġpat":1523,"Ġwater":1524,"Ġhurried":1525,"ĠBe":1526,"ĠMinister":1527,"Ġfast":1528,"Ġhaving":1529,"uring":1530,"Ġkit":1531,"antly":1532,"ĠThis":1533,"selves":1534,"no":1535,"ashed":1536,"aces":1537,"Ġsuch":1538,"ementors":1539,"ired":1540,"ĠMy":1541,"oyle":1542,"ĠFilch":1543,"She":1544,"sit":1545,"Ġed":1546,"Ġshaking":1547,"Ġdoesn":1548,"Ġbody":1549,"imb":1550,"Ġru":1551,"lock":1552,"Ġfamily":1553,"Ġmis":1554,"ĠKreacher":1555,"vent":1556,"Ġmet":1557,"Ġmist":1558,"Ġseat":1559,"Ġperson":1560,"Ġsent":1561,"rey":1562,"orc":1563,"Ġins":1564,"Ġlay":1565,"vers":1566,"Ġusual":1567,"Ġspeak":1568,"Ġattem":1569,"ased":1570,"Ġthick":1571,"Ġgiven":1572,"Ġyelled":1573,"unning":1574,"Ġbooks":1575,"Ġdirect":1576,"ash":1577,"Ġdanger":1578,"chment":1579,"Ġnear":1580,"rait":1581,"Ġheld":1582,"Ġheav":1583,"Ġgaz":1584,"ored":1585,"ĠCho":1586,"Ġused":1587,"Ġblood":1588,"Ġwatch":1589,"aven":1590,"rance":1591,"Ġsorry":1592,"unk":1593,"Ġconf":1594,"idden":1595,"Ġparchment":1596,"chen":1597,"nts":1598,"Ġtrou":1599,"esc":1600,"Ġpocket":1601,"Ġswe":1602,"HA":1603,"Ġneck":1604,"Ġwrong":1605,"ibility":1606,"ps":1607,"like":1608,"Ġkitchen":1609,"Ġmay":1610,"Ġunc":1611,"Ġprot":1612,"but":1613,"ipped":1614,"Ġport":1615,"ĠFle":1616,"Ġsub":1617,"Ġcontinued":1618,"hart":1619,"ĠSn":1620,"icul":1621,"Ġexpl":1622,"awney":1623,"Ġburst":1624,"relawney":1625,"Ġadded":1626,"Ġsim":1627,"ĠBag":1628,"Ġvan":1629,"Ġtelling":1630,"ze":1631,"Ġfight":1632,"Ġmur":1633,"ockhart":1634,"got":1635,"ĠTrelawney":1636,"Ġmoving":1637,"terest":1638,"ead":1639,"ork":1640,"rying":1641,"aming":1642,"Ġlost":1643,"Ġodd":1644,"Ġsaf":1645,"ĠBell":1646,"sing":1647,"ears":1648,"Ġarms":1649,"case":1650,"Ġdou":1651,"acing":1652,"Ġrep":1653,"abb":1654,"Ġfree":1655,"Ġeither":1656,"Ġshut":1657,"Ġcomplete":1658,"Ġcup":1659,"Ġstre":1660,"Ġsmile":1661,"ĠKrum":1662,"Ġexpect":1663,"Ġanswer":1664,"Ġfact":1665,"ĠNo":1666,"Ġdied":1667,"Ġpare":1668,"ĠLockhart":1669,"overed":1670,"undred":1671,"Do":1672,"ining":1673,"Ġinterest":1674,"Ġran":1675,"Ġexactly":1676,"Ġnumb":1677,"onn":1678,"Ġdear":1679,"onks":1680,"Ġdream":1681,"Ġinc":1682,"rive":1683,"ĠGreat":1684,"Ġdiffere":1685,"Ġfive":1686,"Ġthemselves":1687,"raco":1688,"Ġsoon":1689,"tom":1690,"oun":1691,"Ġears":1692,"anded":1693,"ĠGoyle":1694,"ĠFire":1695,"Ġyoung":1696,"Ġdays":1697,"rabbe":1698,"Ġbene":1699,"enty":1700,"br":1701,"Ġ.":1702,"Ġtiny":1703,"int":1704,"Ġhundred":1705,"Ġcorn":1706,"ooking":1707,"ĠFleur":1708,"tail":1709,"Ġdeath":1710,"Ġspoke":1711,"ĠOr":1712,"Ġreturned":1713,"Ġportrait":1714,"ping":1715,"ye":1716,"ically":1717,"Ġnearly":1718,"anged":1719,"Ġpres":1720,"Ġwaiting":1721,"Know":1722,"cent":1723,"Ġstair":1724,"Ġwitch":1725,"Ġshook":1726,"Ġsleep":1727,"ĠBagman":1728,"Ġtou":1729,"rux":1730,"Ġdropped":1731,"orcrux":1732,"Ġbell":1733,"aining":1734,"ĠCrabbe":1735,"Ġabove":1736,"Ġleast":1737,"Ġspr":1738,"Ġsnake":1739,"Ġshar":1740,"ield":1741,"ively":1742,"ntly":1743,"aff":1744,"wo":1745,"ĠHorcrux":1746,"let":1747,"ĠTonks":1748,"ĠSo":1749,"ĠPr":1750,"Ġnoticed":1751,"Ġshall":1752,"Ġknock":1753,"Ġnoise":1754,"Ġturning":1755,"ĠDursleys":1756,"Ġparents":1757,"inning":1758,"inging":1759,"ĠDraco":1760,"Ġago":1761,"eak":1762,"Ġgas":1763,"Ġstairs":1764,"Ġtimes":1765,"Ġwide":1766,"Ġpur":1767,"Ġsteps":1768,"stairs":1769,"Ġalso":1770,"Ġappro":1771,"Ġdarkness":1772,"ces":1773,"Ġtri":1774,"umped":1775,"Ġrun":1776,"Ġentered":1777,"Ġlying":1778,"Ġgobl":1779,"ĠEvery":1780,"Ġhurt":1781,"Ġbeneath":1782,"OU":1783,"ax":1784,"Ġrepe":1785,"Ġexcept":1786,"Ġclut":1787,"ising":1788,"roll":1789,"upid":1790,"Ġgolden":1791,"mas":1792,"ination":1793,"Ġfa":1794,"uth":1795,"ald":1796,"ason":1797,"ets":1798,"str":1799,"ckon":1800,"arely":1801,"Ġcheck":1802,"Ġfinished":1803,"This":1804,"Ġreg":1805,"Ġsoft":1806,"artment":1807,"Ġdoors":1808,"Ġ1":1809,"Ġsus":1810,"Ġcase":1811,"Ġfingers":1812,"Ġleaving":1813,"rist":1814,"wig":1815,"Ġdraw":1816,"Ġnerv":1817,"Ġshock":1818,"Ġwhose":1819,"ĠNow":1820,"abin":1821,"Ġchest":1822,"Ġfriends":1823,"Ġceiling":1824,"TER":1825,"Ġsumm":1826,"Ġwom":1827,"ount":1828,"Ġev":1829,"rod":1830,"amed":1831,"apt":1832,"Ġwrit":1833,"Ġgrounds":1834,"Ġcarry":1835,"ĠRe":1836,"Ġneare":1837,"Ġplease":1838,"Ġtrouble":1839,"ristmas":1840,"aned":1841,"ster":1842,"ĠDean":1843,"ressed":1844,"Ġgiant":1845,"Ġrealized":1846,"board":1847,"My":1848,"vo":1849,"ren":1850,"edwig":1851,"Ġthrew":1852,"Ġstupid":1853,"Ġspl":1854,"ĠChristmas":1855,"Ġclear":1856,"visibility":1857,"Ġstaircase":1858,"Ġcoll":1859,"Ġcross":1860,"Ġpract":1861,"Ġentrance":1862,"Ġquestion":1863,"Ġopp":1864,"ĠThat":1865,"Ġmanaged":1866,"Ġesc":1867,"Ġmid":1868,"akes":1869,"Ġlegs":1870,"Ġflew":1871,"Ġton":1872,"Ġsix":1873,"stick":1874,"Come":1875,"Er":1876,"ghter":1877,"rily":1878,"Ġchance":1879,"Ġmagical":1880,"atri":1881,"Ġmad":1882,"ages":1883,"Ġburn":1884,"Ġlooks":1885,"Ġrunning":1886,"ief":1887,"aper":1888,"Ġpotion":1889,"atrix":1890,"eed":1891,"Ġap":1892,"rified":1893,"the":1894,"Ġtent":1895,"ĠHedwig":1896,"Ġimport":1897,"Ġwindows":1898,"ger":1899,"ĠHer":1900,"ishing":1901,"Ġint":1902,"rill":1903,"Ġglasses":1904,"Ġarrived":1905,"Pro":1906,"off":1907,"uc":1908,"Ġsun":1909,"Ġpict":1910,"Ġeas":1911,"ush":1912,"alm":1913,"Ġbecame":1914,"Ġevening":1915,"Ġwalls":1916,"Ġexpression":1917,"Now":1918,"Ġcreat":1919,"used":1920,"ĠWith":1921,"Ġsays":1922,"Ġattack":1923,"Ġnobody":1924,"Ġglanced":1925,"Ġlonger":1926,"Ġvanished":1927,"ĠBellatrix":1928,"Be":1929,"Good":1930,"work":1931,"Ġcertain":1932,"Ġpie":1933,"Ġeff":1934,"Ġworld":1935,"Ġclimb":1936,"ĠOne":1937,"Ġpress":1938,"Ġmatch":1939,"ug":1940,"Ġson":1941,"ingly":1942,"Ġwithin":1943,"Ġforgot":1944,"Ġperhaps":1945,"Ġer":1946,"Ġcent":1947,"Ġseized":1948,"illed":1949,"Ġwoman":1950,"rup":1951,"Ġocc":1952,"ident":1953,"Ġear":1954,"olt":1955,"Ġbrother":1956,"ĠInvisibility":1957,"Ġhop":1958,"ask":1959,"Ġready":1960,"Ġmeant":1961,"iew":1962,"Ġwalking":1963,"Ġemer":1964,"EN":1965,"bus":1966,"bably":1967,"lin":1968,"Ġfif":1969,"Ġthr":1970,"Ġnk":1971,"All":1972,"ser":1973,"Ġve":1974,"ĠWood":1975,"ogn":1976,"Ġsword":1977,"inted":1978,"Ġwarn":1979,"Ġcho":1980,"Ġpulling":1981,"Ġfinally":1982,"Ġnumber":1983,"Ġbar":1984,"Ġelf":1985,"Ġherself":1986,"ĠCr":1987,"kes":1988,"oom":1989,"Ġluck":1990,"Ġlead":1991,"ĠProphe":1992,"Ġangry":1993,"Ġfig":1994,"Ġshad":1995,"Ġknown":1996,"ations":1997,"ormtail":1998,"Ġrememb":1999,"Ġsafe":2000,"Ġthin":2001,"als":2002,"Ġtrain":2003,"Ġhappy":2004,"ĠCharm":2005,"Ġwood":2006,"rely":2007,"Ġcut":2008,"Ġass":2009,"amus":2010,"ĠAg":2011,"ection":2012,"Ġbroken":2013,"Ġrepeated":2014,"Where":2015,"kab":2016,"zkab":2017,"Ġign":2018,"ĠHany":2019,"Ġcir":2020,"Ġwands":2021,"Ġangrily":2022,"Ġkilled":2023,"Ġlistening":2024,"Ġflying":2025,"zkaban":2026,"nding":2027,"Ġhang":2028,"pect":2029,"inking":2030,"unny":2031,"ĠJames":2032,"Ġjob":2033,"Ġrecogn":2034,"ĠSeamus":2035,"Ġthro":2036,"Ġpale":2037,"rought":2038,"Ġsmiling":2039,"ĠArts":2040,"Ġbroke":2041,"Ġcompletely":2042,"Ġtonight":2043,"ub":2044,"Ġbat":2045,"Ġmiss":2046,"Ġinv":2047,"ices":2048,"ĠSh":2049,"ĠPar":2050,"ĠAzkaban":2051,"Ġanyway":2052,"Ġbelow":2053,"Ġclearly":2054,"Ġinstead":2055,"aning":2056,"ĠSever":2057,"aled":2058,"ĠWormtail":2059,"Ġflat":2060,"Ġweek":2061,"Did":2062,"oul":2063,"Ġokay":2064,"Ġegg":2065,"ĠDementors":2066,"cho":2067,"inky":2068,"Ġnodded":2069,"icking":2070,"arently":2071,"Ġheads":2072,"Ġtrue":2073,"inner":2074,"Ġsuppose":2075,"Ġlesson":2076,"ĠAlbus":2077,"ison":2078,"Ġcons":2079,"Ġseconds":2080,"claw":2081,"Ġmemory":2082,"Ġvisit":2083,"avenclaw":2084,"IN":2085,"Look":2086,"ghed":2087,"master":2088,"not":2089,"arrow":2090,"isk":2091,"Ġmention":2092,"Ġreason":2093,"Ġbackward":2094,"ĠEater":2095,"ĠSnitch":2096,"cause":2097,"tly":2098,"Ġz":2099,"Ġbarely":2100,"Ġshow":2101,"Ġtrees":2102,"Ġmonth":2103,"looking":2104,"rell":2105,"Ġthrow":2106,"Ġecho":2107,"Ġknows":2108,"Ġdragon":2109,"Professor":2110,"Ġ?\"":2111,"Ġball":2112,"Ġstret":2113,"ĠRavenclaw":2114,"ains":2115,"ĠWizard":2116,"ĠEx":2117,"ĠMagical":2118,"ĠProphet":2119,"An":2120,"rim":2121,"Ġill":2122,"Ġought":2123,"ider":2124,"Ġled":2125,"Ġtrunk":2126,"Ġimag":2127,"Ġdisc":2128,"ike":2129,"Ġreckon":2130,"Ġforced":2131,"ĠCHA":2132,"Ġdoub":2133,"Ġtears":2134,"Ġahead":2135,"Ġgle":2136,"Ġstory":2137,"Ġshot":2138,"Ġscr":2139,"Ġstrange":2140,"ĠNot":2141,"Ġstepped":2142,"iness":2143,"Ġhidden":2144,"itted":2145,"Ġpair":2146,"ldron":2147,"Ġsky":2148,"ĠMuggles":2149,"Ġdifferent":2150,"Ġwing":2151,"Ġmir":2152,"Ġmiddle":2153,"Ġpun":2154,"ane":2155,"ĠWell":2156,"Ġquill":2157,"Ġblue":2158,"Ġhappen":2159,"Ġgiving":2160,"Ġsnapped":2161,"Ġhours":2162,"Ġcorner":2163,"PTER":2164,"Ġbig":2165,"isted":2166,"orted":2167,"orrow":2168,"imm":2169,"Ġanx":2170,"Ġimportant":2171,"ĠCHAPTER":2172,"ancing":2173,"Ġrat":2174,"Ġfear":2175,"teen":2176,"Ġbox":2177,"Ġhorrible":2178,"aroff":2179,"ates":2180,"Ġcabin":2181,"Ġlake":2182,"Ġwhom":2183,"ooksh":2184,"arkaroff":2185,"aped":2186,"ĠEr":2187,"eeves":2188,"ĠAgain":2189,"ita":2190,"Ġthird":2191,"omf":2192,"Ġtruth":2193,"ĠDef":2194,"Ġforest":2195,"ĠOrder":2196,"ial":2197,"Ġsing":2198,"Ġhum":2199,"atur":2200,"ition":2201,"Ġcop":2202,"Ġlate":2203,"Ġinform":2204,"Ġeag":2205,"Ġyourself":2206,"Ġsummer":2207,"Ġir":2208,"Ġbrought":2209,"Ġfre":2210,"Ġpushed":2211,"ĠPat":2212,"Ġchamp":2213,"Ġtrans":2214,"uffle":2215,"Ġdeser":2216,"lessly":2217,"Ġstrugg":2218,"ookshanks":2219,"St":2220,"Ġstom":2221,"ĠPomf":2222,"Ġpoints":2223,"Ġprobably":2224,"Ġexcited":2225,"Ġdangerous":2226,"ĠPomfrey":2227,"Ah":2228,"Ġduring":2229,"vering":2230,"Ġroared":2231,"ular":2232,"Ġsilent":2233,"ixed":2234,"Ex":2235,"ape":2236,"ipp":2237,"Ġfro":2238,"Ġfright":2239,"Ġtor":2240,"Ġgri":2241,"ĠMar":2242,"Ġshrie":2243,"Ġrose":2244,"Ġpretend":2245,"Ġdesper":2246,"Ġhardly":2247,"Ġsounded":2248,"Ġpossible":2249,"Ġedge":2250,"hot":2251,"Ġadd":2252,"Ġfaces":2253,"Ġcalm":2254,"bbing":2255,"Ġlaughed":2256,"Ġadm":2257,"rit":2258,"Ġsister":2259,"nded":2260,"Ġcried":2261,"icult":2262,"Ġbottle":2263,"Ġobject":2264,"Ġwonder":2265,"Ġstreet":2266,"Ġcarrying":2267,"ĠCrookshanks":2268,"by":2269,"Ġhast":2270,"Ġmaster":2271,"ĠApp":2272,"Ġlearn":2273,"Ġsugg":2274,"Ġexpected":2275,"gy":2276,"sme":2277,"ta":2278,"Ġfine":2279,"Ġcol":2280,"ĠTH":2281,"ters":2282,"Ġworse":2283,"thur":2284,"Ġobv":2285,"wh":2286,"Ġcovered":2287,"Ġglo":2288,"Ġyeah":2289,"rol":2290,"Ġ-\"":2291,"ĠRita":2292,"Ġcloser":2293,"Ġlaughter":2294,"Ġdifficult":2295,"Ġcouple":2296,"medi":2297,"smeade":2298,"Let":2299,"puff":2300,"Ġpicked":2301,"ĠPeeves":2302,"pell":2303,"unch":2304,"geour":2305,"ĠKarkaroff":2306,"Ġnews":2307,"Ġpleased":2308,"ufflepuff":2309,"Are":2310,"Of":2311,"aid":2312,"uge":2313,"Ġtem":2314,"Ġtree":2315,"Ġdrew":2316,"ament":2317,"Ġjumped":2318,"cked":2319,"Ġblank":2320,"Ġaren":2321,"ĠHogsmeade":2322,"Ġparticul":2323,"ĠScrim":2324,"Ġwild":2325,"Ġhung":2326,"Ġfunny":2327,"ĠHufflepuff":2328,"Ġgrou":2329,"eth":2330,"Ġwants":2331,"Ġheavy":2332,"ĠScrimgeour":2333,"Hermione":2334,"aching":2335,"ĠSome":2336,"ĠAfter":2337,"ĠWhy":2338,"Ġgoblin":2339,"Ġstomach":2340,"fast":2341,"Ġbow":2342,"ital":2343,"Ġnor":2344,"ushing":2345,"Ġposit":2346,"Ġsimply":2347,"Ġthroat":2348,"apped":2349,"bolt":2350,"reme":2351,"oring":2352,"ories":2353,"ĠDigg":2354,"Ġmerely":2355,"Ġimmedi":2356,"host":2357,"Ġindeed":2358,"Ġgirls":2359,"Ġsubject":2360,"ucius":2361,"Ġtight":2362,"Ġtra":2363,"eter":2364,"Ġnote":2365,"ife":2366,"ĠFr":2367,"Ġslid":2368,"Ġwondered":2369,"ĠSec":2370,"Ġgasped":2371,"Dumbledore":2372,"Is":2373,"ON":2374,"Ġavo":2375,"Ġfield":2376,"Ġdinner":2377,"Ġmark":2378,"oming":2379,"ĠTr":2380,"amber":2381,"Ġfrown":2382,"ourn":2383,"Ġplan":2384,"Ġmyself":2385,"Ġord":2386,"Ġgrow":2387,"Ġperfect":2388,"avor":2389,"Ġapart":2390,"Ġbas":2391,"Ġghost":2392,"ĠSke":2393,"orth":2394,"Ġappear":2395,"blood":2396,"Ġstarting":2397,"Ġscreamed":2398,"aut":2399,"Ġdad":2400,"Ġnarrow":2401,"Ġaside":2402,"riph":2403,"amb":2404,"geon":2405,"Ġwalk":2406,"Ġguard":2407,"riphook":2408,"Ron":2409,"aily":2410,"wick":2411,"Ġbath":2412,"Ġfer":2413,"Ġmess":2414,"aybe":2415,"ĠWinky":2416,"Ġalive":2417,"ept":2418,"Ġsomebody":2419,"avender":2420,"Ġtea":2421,"Ġbecome":2422,"Ġlove":2423,"Ġremained":2424,"Ġjoined":2425,"Ġcarefully":2426,"Ġfamil":2427,"Ġactually":2428,"Ġlaughing":2429,"Ġattemp":2430,"Just":2431,"iar":2432,"ones":2433,"Ġshr":2434,"blet":2435,"ĠLucius":2436,"Ġchild":2437,"Ġhole":2438,"Ġneeded":2439,"ungus":2440,"ĠJust":2441,"Ġbroomstick":2442,"Ġremembered":2443,"bs":2444,"Ġbent":2445,"itwick":2446,"Ġdare":2447,"Ġnice":2448,"Ġabs":2449,"Ġleapt":2450,"Ġteeth":2451,"Ġprom":2452,"Ġtremb":2453,"ĠGranger":2454,"Ġcatch":2455,"Ġbreakfast":2456,"Ġpicture":2457,"ĠDefense":2458,"Right":2459,"eep":2460,"Ġtall":2461,"Ġhuge":2462,"Ġdem":2463,"Ġdog":2464,"Ġweren":2465,"Ġworry":2466,"aused":2467,"ments":2468,"Ġstrong":2469,"Ġadv":2470,"Ġdirection":2471,"zen":2472,"Ġdorm":2473,"ote":2474,"oth":2475,"ays":2476,"ammed":2477,"anding":2478,"Ġsmiled":2479,"Ġsomewhere":2480,"Ġknees":2481,"Ġapparently":2482,"Ġdrink":2483,"undungus":2484,"ĠFlitwick":2485,"rode":2486,"ĠAgainst":2487,"RE":2488,"ges":2489,"joy":2490,"yond":2491,"Ġbeyond":2492,"Ġform":2493,"Ġsear":2494,"Ġallowed":2495,"ĠLavender":2496,"Ġview":2497,"Ġterrible":2498,"Ġextreme":2499,"Ġsurprise":2500,"Ġtip":2501,"Ġcre":2502,"ĠTo":2503,"ĠDaily":2504,"urse":2505,"Ġshop":2506,"ĠGriphook":2507,"Ġtwenty":2508,"ĠPotions":2509,"Ġteachers":2510,"Ġsurprised":2511,"Ġsharply":2512,"Ġdormit":2513,"ler":2514,"Ġtightly":2515,"Ġaf":2516,"Ġwish":2517,"Ġpaper":2518,"Ġforget":2519,"ĠCup":2520,"Ġworking":2521,"Ġenorm":2522,"Ġproper":2523,"Ġbottom":2524,"Ġboys":2525,"abbers":2526,"Ġclutching":2527,"Ġoppos":2528,"Ġclimbed":2529,"col":2530,"vati":2531,"Ġsense":2532,"arl":2533,"Ġtoday":2534,"ashing":2535,"Ġpink":2536,"ute":2537,"ĠWho":2538,"Ġsol":2539,"Ġpost":2540,"Ġslipped":2541,"Ġhasn":2542,"Ġlessons":2543,"ĠDiggory":2544,"ĠSkeeter":2545,"kin":2546,"Ġhol":2547,"Ġnone":2548,"Ġstaff":2549,"Ġuna":2550,"ague":2551,"Ġfirm":2552,"Ġattention":2553,"Ġcrack":2554,"Ġclassroom":2555,"Ġforehead":2556,"Ġdecided":2557,"Ġeager":2558,"face":2559,"Ġhot":2560,"Ġdest":2561,"Ġitself":2562,"Ġliving":2563,"raid":2564,"eling":2565,"early":2566,"itely":2567,"Ġsnow":2568,"Ġclosely":2569,"Ġextra":2570,"spital":2571,"Sh":2572,"Ġtail":2573,"Ġbang":2574,"Ġdust":2575,"imp":2576,"ical":2577,"ĠMundungus":2578,"Ġpol":2579,"Ġseeing":2580,"Ġhospital":2581,"Ġsurround":2582,"Ġpiece":2583,"Ġforgotten":2584,"zing":2585,"inx":2586,"Ġhiding":2587,"Ġtow":2588,"asure":2589,"Ġdun":2590,"Ġpan":2591,"ĠDis":2592,"ĠDad":2593,"Ġconvers":2594,"Ġspeaking":2595,"beak":2596,"Ġfilled":2597,"Ġweak":2598,"steps":2599,"Ġupstairs":2600,"ander":2601,"Ġworried":2602,"Ġhappily":2603,"Ġsecret":2604,"uckbeak":2605,"Ġfollowing":2606,"Ġlisten":2607,"Ġcount":2608,"Ġattempt":2609,"ĠParvati":2610,"Ġafraid":2611,"Ġenormous":2612,"Ġopposite":2613,"een":2614,"elf":2615,"Ġfain":2616,"Ġfavor":2617,"Ġcry":2618,"aded":2619,"gelin":2620,"ude":2621,"Ġdeal":2622,"Ġconv":2623,"Ġenjoy":2624,"ĠScabbers":2625,"Ġgazing":2626,"Ġpresent":2627,"-\"":2628,"ton":2629,"Ġpack":2630,"ĠTom":2631,"Ġrepl":2632,"Ġforce":2633,"Ġdiscus":2634,"rows":2635,"Ġmeans":2636,"Ġmirror":2637,"Ġsingle":2638,"back":2639,"Ġbound":2640,"ĠHouse":2641,"its":2642,"Ġdie":2643,"Ġmass":2644,"agg":2645,"elve":2646,"Ġtrust":2647,"Ġswung":2648,"Ġarg":2649,"Ġimpati":2650,"ĠSlytherins":2651,"Ġcoun":2652,"Ġfuriously":2653,"Ġextremely":2654,"ony":2655,"Ġ\"...":2656,"ĠBuckbeak":2657,"Ġsmell":2658,"Ġdisg":2659,"Ġbring":2660,"Ġkeeping":2661,"Ġwondering":2662,"Ġpossess":2663,"Ġweeks":2664,"Ġpurple":2665,"ĠSeverus":2666,"Ġimmediately":2667,"gelina":2668,"Can":2669,"Ġfood":2670,"Ġline":2671,"blem":2672,"Ġspir":2673,"Ġplaced":2674,"Ġvoices":2675,"Ġgrinning":2676,"Ġdisappeared":2677,"Eye":2678,"ived":2679,"night":2680,"Ġhesit":2681,"orting":2682,"Ġlibr":2683,"Ġwhatever":2684,"Ġchange":2685,"ĠWeasleys":2686,"ĠBlud":2687,"ha":2688,"more":2689,"hered":2690,"inting":2691,"Ġstrode":2692,"irrell":2693,"Ġnotice":2694,"Ġrid":2695,"Ġroll":2696,"Ġpassage":2697,"Ġeyeb":2698,"Ġfootsteps":2699,"Ġpowerful":2700,"Ġpractice":2701,"Ġcirc":2702,"Ġhastily":2703,"Very":2704,"tig":2705,"Ġtom":2706,"Ġmag":2707,"Ġpri":2708,"Ġnast":2709,"Ġstep":2710,"irty":2711,"Ġgray":2712,"Ġjoin":2713,"Ġwaited":2714,"ĠAngelina":2715,"Ġmarble":2716,"Ġhomework":2717,"Ġtouch":2718,"af":2719,"how":2720,"ker":2721,"Ġsick":2722,"arled":2723,"Ġfixed":2724,"llent":2725,"leep":2726,"ads":2727,"tern":2728,"Ġlive":2729,"ogra":2730,"unno":2731,"Ġdoubt":2732,"tigrew":2733,"ls":2734,"rtle":2735,"Ġble":2736,"Ġlanded":2737,"Ġele":2738,"Ġsend":2739,"cellent":2740,"ĠLily":2741,"Ġrolled":2742,"izing":2743,"Ġscared":2744,"Ġcomer":2745,"Ġremind":2746,"Ġattacked":2747,"ĠQuirrell":2748,"Ġbedroom":2749,"Ġcauldron":2750,"ĠFirebolt":2751,"Ġbellowed":2752,"Ġfigure":2753,"Ġholid":2754,"Hagrid":2755,"In":2756,"ring":2757,"tled":2758,"ury":2759,"itched":2760,"lliv":2761,"Ġpath":2762,"Ġpage":2763,"Ġgrabb":2764,"ĠCurse":2765,"oney":2766,"inned":2767,"Ġterrified":2768,"ĠArthur":2769,"Ġknocked":2770,"ournament":2771,"Ġlibrary":2772,"come":2773,"clock":2774,"uing":2775,"inct":2776,"Ġhon":2777,"enn":2778,"Ġinf":2779,"Ġur":2780,"Ġusually":2781,"Ġcannot":2782,"ĠOlliv":2783,"ables":2784,"Ġafterno":2785,"Ġprophe":2786,"ĠYOU":2787,"ĠAppar":2788,"Ġgroup":2789,"LE":2790,"bot":2791,"Ġdress":2792,"Ġgard":2793,"Ġnorm":2794,"aked":2795,"Ġje":2796,"Ġglad":2797,"Ġgrim":2798,"Ġenc":2799,"Ġproblem":2800,"ĠPettigrew":2801,"Ġminute":2802,"Ġsoftly":2803,"Ġnervously":2804,"pic":2805,"ides":2806,"Ġphot":2807,"Ġbeard":2808,"ĠBur":2809,"Ġdelight":2810,"ĠNor":2811,"Ġtwelve":2812,"Ġprefect":2813,"Ġfollow":2814,"Ġreading":2815,"anning":2816,"Ġowls":2817,"Ġplaying":2818,"Ġnearer":2819,"ĠErn":2820,"Ġparticularly":2821,"Ġtask":2822,"reed":2823,"enix":2824,"omp":2825,"Ġeart":2826,"ĠTower":2827,"Ġrock":2828,"hoenix":2829,"Ġlocket":2830,"Ġmeeting":2831,"arlie":2832,"ĠOllivander":2833,"fer":2834,"ior":2835,"ian":2836,"iant":2837,"Ġtroll":2838,"Ġoh":2839,"atie":2840,"eng":2841,"ested":2842,"Ġincl":2843,"Ġreve":2844,"orest":2845,"Ġsevent":2846,"Ġshowed":2847,"ĠNick":2848,"Ġspent":2849,"Ġsne":2850,"Ġamong":2851,"ibly":2852,"ĠMyrtle":2853,"Ġbathroom":2854,"Ġafternoon":2855,"Ġgro":2856,"irth":2857,"ĠGo":2858,"Ġdep":2859,"Ġwaving":2860,"Ġhalfway":2861,"Ġexcit":2862,"Ġfirmly":2863,"tic":2864,"arc":2865,"arily":2866,"Ġmap":2867,"Ġpow":2868,"otts":2869,"ĠMiss":2870,"ĠWh":2871,"ĠWhere":2872,"Ġworked":2873,"Ġheadmaster":2874,"Ġglit":2875,"ĠKatie":2876,"olly":2877,"ugged":2878,"Ġsideways":2879,"Ġcorridors":2880,"Ġdefin":2881,"Ġshadow":2882,"Ġdormitory":2883,"Ġprophecy":2884,"Ġgen":2885,"Ġeat":2886,"ĠTwo":2887,"Ġasleep":2888,"ĠForest":2889,"though":2890,"ollow":2891,"Ġcurse":2892,"Ġfallen":2893,"Ġdiary":2894,"Ġspells":2895,"Ġrecognized":2896,"Ġcopy":2897,"Ġinformation":2898,"ĠPatron":2899,"Ġdeserted":2900,"Ġconversation":2901,"Ġess":2902,"Ġfist":2903,"Ġcage":2904,"lease":2905,"ĠSee":2906,"ĠDep":2907,"Ġjump":2908,"ĠLe":2909,"Ġchanged":2910,"ieve":2911,"Ġbrain":2912,"Ġshoulders":2913,"Ġfinger":2914,"Ġheavily":2915,"Ġexplain":2916,"ĠPrime":2917,"Ġapproached":2918,"Get":2919,"fig":2920,"lace":2921,"nce":2922,"Ġsy":2923,"rets":2924,"org":2925,"Ġdri":2926,"otion":2927,"Ġseven":2928,"Ġsho":2929,"ĠFang":2930,"Ġleaned":2931,"Ġtrick":2932,"Ġgrass":2933,"ĠMadame":2934,"Ġfalling":2935,"centr":2936,"Ġsuspic":2937,"Ġcertainly":2938,"set":2939,"Ġtrave":2940,"Ġbeaming":2941,"Ġemb":2942,"ĠMax":2943,"ĠCharlie":2944,"Ġcheer":2945,"Ġsurface":2946,"Ġcurtain":2947,"Ġbrightly":2948,"Ġmissed":2949,"Ġcrossed":2950,"Ġthrowing":2951,"Ġgarden":2952,"ĠMaxime":2953,"bed":2954,"that":2955,"Ġaff":2956,"Ġcand":2957,"Ġgrave":2958,"Ġyer":2959,"Ġstat":2960,"ooped":2961,"ceed":2962,"isten":2963,"oph":2964,"Ġpret":2965,"Ġsqueak":2966,"Ġscarlet":2967,"Ġhoping":2968,"Ġstretched":2969,"Ġfrowning":2970,"Ġtrembling":2971,"Ġearth":2972,"ĠPatronus":2973,"cious":2974,"wizard":2975,"Ġ...\"":2976,"Ġfool":2977,"idly":2978,"Ġbew":2979,"ĠIm":2980,"Ġvill":2981,"Ġusing":2982,"Ġunless":2983,"Ġcompl":2984,"ĠEven":2985,"Ġmaybe":2986,"Ġfighting":2987,"Ġhanging":2988,"Ġnasty":2989,"Ġsank":2990,"Ġbirth":2991,"Ġoften":2992,"Ġones":2993,"Ġrece":2994,"aling":2995,"umin":2996,"Ġrow":2997,"cks":2998,"Ġspark":2999,"bbed":3000,"Ġsmoot":3001,"Ġimm":3002,"Ġappl":3003,"Ġhurrying":3004,"Ġskin":3005,"Ġanger":3006,"Ġfurther":3007,"Ġmurm":3008,"Ġmonths":3009,"Ġeagerly":3010,"ope":3011,"ĠX":3012,"ĠZ":3013,"inary":3014,"Ġfacing":3015,"attered":3016,"Ġpu":3017,"Ġinvis":3018,"illy":3019,"ction":3020,"Ġthinks":3021,"Ġcloud":3022,"ney":3023,"Ġsplit":3024,"Ġcenta":3025,"Ġperfectly":3026,"Ġtomorrow":3027,"Bl":3028,"OR":3029,"Ġtables":3030,"Ġsoul":3031,"Ġworth":3032,"Ġcro":3033,"asant":3034,"Ġdread":3035,"Ġseems":3036,"Ġputting":3037,"Ġrealize":3038,"Ġdistant":3039,"Ġbusiness":3040,"reyback":3041,"Ġnervous":3042,"Ġeffort":3043,"Ġpressed":3044,"Ġeyebrows":3045,"bottom":3046,"ĠErnie":3047,"ĠDepartment":3048,"du":3049,"under":3050,"Ġwin":3051,"Ġgame":3052,"Ġinj":3053,"Ġink":3054,"Ġsave":3055,"ott":3056,"icing":3057,"illing":3058,"ĠGreyback":3059,"Ġrain":3060,"Ġliked":3061,"Ġpoor":3062,"Ġhanded":3063,"Ġmoon":3064,"ĠOh":3065,"Ġshouldn":3066,"Ġwaved":3067,"Ġsnarled":3068,"ingsley":3069,"anned":3070,"Ġslee":3071,"Ġevid":3072,"Ġnearest":3073,"Ġzoom":3074,"ĠTrans":3075,"Ġimpatiently":3076,"ograph":3077,"Maybe":3078,"OT":3079,"oss":3080,"Ġhig":3081,"Ġfun":3082,"ances":3083,"Ġinches":3084,"ĠMum":3085,"ĠSpell":3086,"ĠDid":3087,"Ġshowing":3088,"ilius":3089,"ĠCorn":3090,"uding":3091,"Ġsuff":3092,"Ġconcentr":3093,"Ġmuttering":3094,"Ġexplo":3095,"Ġbusy":3096,"Ġfifty":3097,"Ġunable":3098,"Ġinvisible":3099,"AR":3100,"zed":3101,"Ġdra":3102,"Ġlunch":3103,"ots":3104,"Ġearly":3105,"vel":3106,"Ġwitches":3107,"ĠLong":3108,"ĠLee":3109,"anting":3110,"Ġspeed":3111,"ĠSlughom":3112,"Ġquestions":3113,"Ġemerged":3114,"Ġechoed":3115,"Ġpretty":3116,"Okay":3117,"ected":3118,"isf":3119,"alle":3120,"Ġneither":3121,"Ġjer":3122,"Ġgoblet":3123,"Ġlips":3124,"ants":3125,"Ġanymore":3126,"Ġune":3127,"Ġthoughts":3128,"Ġwhisper":3129,"Ġspotted":3130,"Ġthrown":3131,"Ġfrightened":3132,"Ġobviously":3133,"Ġgrowled":3134,"ĠXen":3135,"Re":3136,"Ġmus":3137,"ĠHarrys":3138,"Ġasking":3139,"ĠDel":3140,"ĠPe":3141,"ĠWand":3142,"ified":3143,"omething":3144,"ĠKingsley":3145,"Ġprep":3146,"Ġappre":3147,"Ġpassing":3148,"Ġscreaming":3149,"Ġdeterm":3150,"ĠOnce":3151,"Ġcupboard":3152,"Ġdrawing":3153,"ĠWizarding":3154,"Ġhesitated":3155,"ophilius":3156,"Ġhide":3157,"Ġling":3158,"Ġhissed":3159,"Ġstuck":3160,"Ġund":3161,"ĠSpr":3162,"ĠRem":3163,"ongue":3164,"Ġplat":3165,"Ġslight":3166,"Ġspect":3167,"Ġmoments":3168,"ilda":3169,"ĠAny":3170,"Ġshrieked":3171,"ĠTHE":3172,"Ġposition":3173,"Ġgrabbed":3174,"Your":3175,"cern":3176,"ias":3177,"oon":3178,"oken":3179,"val":3180,"Ġward":3181,"Ġmen":3182,"Ġpay":3183,"velo":3184,"ĠBy":3185,"ighed":3186,"Ġspread":3187,"Ġtwice":3188,"Ġflames":3189,"Ġcontrol":3190,"Ġguess":3191,"Ġfault":3192,"Ġsens":3193,"Ġwarm":3194,"Ġfil":3195,"rog":3196,"roy":3197,"ĠMark":3198,"ĠAur":3199,"pected":3200,"Ġench":3201,"Ġprev":3202,"unned":3203,"ementor":3204,"apping":3205,"Ġbadly":3206,"Ġprotect":3207,"Ġoccas":3208,"Ġhuman":3209,"Ġirrit":3210,"ĠXenophilius":3211,"As":3212,"Pot":3213,"Ġwake":3214,"Ġdementors":3215,"Ġpitch":3216,"Ġgra":3217,"ĠPh":3218,"ĠWor":3219,"ĠGalle":3220,"ĠNearly":3221,"els":3222,"Ġclot":3223,"ĠPotion":3224,"ucked":3225,"Ġentire":3226,"ĠThree":3227,"ĠStone":3228,"Ġletters":3229,"Ġinterested":3230,"Ġsharp":3231,"Ġwriting":3232,"Ġeasy":3233,"Because":3234,"Ġcolor":3235,"ĠBludger":3236,"ĠLongbottom":3237,"ĠSprout":3238,"Go":3239,"ding":3240,"uice":3241,"Ġtone":3242,"arg":3243,"Ġcour":3244,"Ġhearing":3245,"Ġthreat":3246,"Ġreach":3247,"ĠWas":3248,"Ġupward":3249,"quire":3250,"ĠLove":3251,"Ġdel":3252,"ulus":3253,"Ġcomfort":3254,"thy":3255,"ĠChamber":3256,"Ġhelped":3257,"Ġyellow":3258,"Ġcarried":3259,"Ġunderstood":3260,"Ġrefle":3261,"Ġmidair":3262,"Ġchampions":3263,"Ġdefinitely":3264,"Ġbirthday":3265,"io":3266,"ium":3267,"my":3268,"lder":3269,"Ġrising":3270,"Ġnois":3271,"Ġdownstairs":3272,"Ġunple":3273,"Ġworst":3274,"Ġteach":3275,"Ġsnat":3276,"ĠQuaff":3277,"Ġsounding":3278,"Ġshouting":3279,"Ġparty":3280,"Ġhighly":3281,"Ġcompartment":3282,"Ġdisappo":3283,"ĠHowever":3284,"Ġseriously":3285,"Ġseats":3286,"Ġwooden":3287,"Ġfamiliar":3288,"Ġdungeon":3289,"fin":3290,"Ġbin":3291,"Ġbre":3292,"Ġblock":3293,"Ġfit":3294,"Ġmer":3295,"Ġlamp":3296,"Ġnine":3297,"Ġnames":3298,"Ġeh":3299,"utter":3300,"ĠSm":3301,"Ġshining":3302,"gered":3303,"ĠGod":3304,"Ġexper":3305,"Ġgrowing":3306,"Ġcarri":3307,"Ġcoldly":3308,"racted":3309,"Ġannoy":3310,"Ġpatch":3311,"rivet":3312,"Ġleading":3313,"Ġgleaming":3314,"Ġobjects":3315,"Ġgloom":3316,"ĠTransfig":3317,"aunt":3318,"cess":3319,"den":3320,"Ġbird":3321,"atter":3322,"Ġlur":3323,"Ġpure":3324,"Ġpile":3325,"Ġpause":3326,"Ġpacked":3327,"Ġbeat":3328,"Ġstag":3329,"ĠTri":3330,"ĠDrive":3331,"ĠPrivet":3332,"Ġthanks":3333,"Ġremain":3334,"Ġbitter":3335,"Ġsatisf":3336,"Ġstudent":3337,"ĠHorcruxes":3338,"ĠReg":3339,"Any":3340,"Ġfresh":3341,"Ġexcitement":3342,"Ġglittering":3343,"Ġvillage":3344,"Mr":3345,"When":3346,"ait":3347,"ingotts":3348,"Ġbrill":3349,"roud":3350,"Ġjinx":3351,"ational":3352,"Ġswept":3353,"Ġlifted":3354,"cial":3355,"Ġinterrup":3356,"Ġexcitedly":3357,"ĠTriwizard":3358,"AN":3359,"ik":3360,"ner":3361,"ses":3362,"Ġfat":3363,"Ġhalt":3364,"Ġwhist":3365,"Ġsoared":3366,"antic":3367,"Ġthank":3368,"aught":3369,"Ġswall":3370,"ĠKeep":3371,"ineas":3372,"dding":3373,"Ġlouder":3374,"ĠGringotts":3375,"Ġfurious":3376,"Ġmiser":3377,"Ġcreatures":3378,"Ġlucky":3379,"Ġphotograph":3380,"ĠQuaffle":3381,"VE":3382,"mm":3383,"Ġage":3384,"reg":3385,"Ġcool":3386,"Ġdam":3387,"ards":3388,"eping":3389,"Ġsomehow":3390,"ausing":3391,"Ġchee":3392,"Ġbelong":3393,"Ġsounds":3394,"ruct":3395,"Ġbreathing":3396,"Ġaware":3397,"forth":3398,"Ġescape":3399,"Ġwarning":3400,"Ġproperly":3401,"Ġsolid":3402,"Listen":3403,"aving":3404,"ues":3405,"wise":3406,"Ġsighed":3407,"oned":3408,"itting":3409,"Ġdunno":3410,"Ġsaved":3411,"Ġrev":3412,"ĠAber":3413,"Ġheaded":3414,"Ġ'\"":3415,"Ġimpression":3416,"Ġfirepl":3417,"Ġcareful":3418,"Thank":3419,"Ġdeeply":3420,"Ġdetention":3421,"Ġshortly":3422,"Ġrelief":3423,"Ġmurd":3424,"Ġburning":3425,"Ġeffect":3426,"Ġlearned":3427,"Ġavoid":3428,"Ġholidays":3429,"Potter":3430,"),":3431,"OO":3432,"bidden":3433,"sion":3434,"zy":3435,"Ġfold":3436,"ency":3437,"Ġlanding":3438,"omfort":3439,"urred":3440,"uration":3441,"ores":3442,"agon":3443,"Ġrang":3444,"Ġlived":3445,"ouses":3446,"Ġalarm":3447,"elius":3448,"Then":3449,"rief":3450,"Ġamaz":3451,"Ġsque":3452,"Ġhorror":3453,"Ġcover":3454,"ivination":3455,"Ġlowered":3456,"ĠHeadless":3457,"colate":3458,"Ġspectac":3459,"See":3460,"Sorry":3461,"good":3462,"well":3463,"Ġbab":3464,"Ġfo":3465,"Ġpound":3466,"ĠTw":3467,"riff":3468,"key":3469,"ilt":3470,"Ġknowing":3471,"Ġanybody":3472,"Ġsped":3473,"Ġslammed":3474,"Ġeverybody":3475,"Here":3476,"Ġsurely":3477,"Ġsurv":3478,"ĠStan":3479,"Ġlift":3480,"Ġfamous":3481,"Dobby":3482,"Ġcalmly":3483,"Ġfavorite":3484,"Ġdelighted":3485,"Ġhigher":3486,".'":3487,"ST":3488,"bers":3489,"ipping":3490,"ivering":3491,"Ġsize":3492,"Ġwra":3493,"Ġfier":3494,"Ġstri":3495,"oof":3496,"irst":3497,"ĠRoom":3498,"Ġkid":3499,"ific":3500,"ĠFat":3501,"Ġgoal":3502,"Ġabrup":3503,"Ġconcern":3504,"ieved":3505,"Ġunf":3506,"Ġsmoke":3507,"action":3508,"ugging":3509,"Thanks":3510,"Ġpersu":3511,"Ġdefe":3512,"Ġgrip":3513,"Ġdestroy":3514,"',":3515,"bly":3516,"gly":3517,"pose":3518,"Ġtest":3519,"Ġwings":3520,"Ġmoney":3521,"ĠMor":3522,"Ġring":3523,"inked":3524,"Ġlikely":3525,"Ġscene":3526,"olved":3527,"Ġhappening":3528,"Ġsilvery":3529,"Ġhurry":3530,"Ġfinal":3531,"issa":3532,"Ġexpelled":3533,"Ġresp":3534,"Ġserious":3535,"Ġincred":3536,"Ġwritten":3537,"Ġcreature":3538,"Ġanxiously":3539,"Ġpanic":3540,"arcissa":3541,"Ġsmooth":3542,"Ġdetermined":3543,"Ġoccasion":3544,"ĠPhineas":3545,"Ġclothes":3546,"ĠTransfiguration":3547,"On":3548,"eled":3549,"Ġterm":3550,"ines":3551,"Ġhood":3552,"arr":3553,"Ġmine":3554,"Ġpill":3555,"Ġinno":3556,"Ġeight":3557,"vey":3558,"Ġstick":3559,"aging":3560,"ĠPens":3561,"pper":3562,"unted":3563,"ils":3564,"Ġanywhere":3565,"Ġspider":3566,"Ġconce":3567,"Ġtwins":3568,"Ġremo":3569,"Ġjoke":3570,"ĠYour":3571,"Ġrubb":3572,"ĠNobody":3573,"Ġdesperately":3574,"haired":3575,"Ġpriv":3576,"ossible":3577,"ĠCornelius":3578,"ĠAberforth":3579,"ĠPensieve":3580,"gr":3581,"sc":3582,"tor":3583,"Ġserv":3584,"asted":3585,"Ġmood":3586,"Ġlawn":3587,"Ġproud":3588,"Ġgul":3589,"Ġweight":3590,"urm":3591,"Ġ-?\"":3592,"ogriff":3593,"Ġclean":3594,"Ġcleared":3595,"Ġforwards":3596,"rawp":3597,"Ġdragged":3598,"Ġdirectly":3599,"Ġprotection":3600,"Ġdouble":3601,"ounced":3602,"ĠEveryone":3603,"Ġescaped":3604,"ĠCharms":3605,"ippogriff":3606,"while":3607,"ĠDisapp":3608,"Ar":3609,"Ġmum":3610,"Ġpanted":3611,"Ġgigg":3612,"Ġstream":3613,"ĠMost":3614,"Ġugly":3615,"ĠDivination":3616,"ĠTheir":3617,"Ġdozen":3618,"Ġwerewo":3619,"Ġfeast":3620,"ĠLady":3621,"isting":3622,"Ġagreed":3623,"Ġpoison":3624,"athilda":3625,"Ġflung":3626,"Ġsometimes":3627,"Ġpeering":3628,"Ġimpossible":3629,"Ġperform":3630,"Ġcorre":3631,"ĠPerhaps":3632,"Ġbelieved":3633,"Ġdistance":3634,"Ġmembers":3635,"cuse":3636,"Ġmovement":3637,"Ġmistake":3638,"Ġnearby":3639,"Ġmissing":3640,"Ġscrat":3641,"Ġsuggested":3642,"Ġnormal":3643,"Ġfierce":3644,"Ġwerewolf":3645,"year":3646,"Ġben":3647,"Ġperm":3648,"oose":3649,"irt":3650,"uttered":3651,"ĠDementor":3652,"unity":3653,"ĠGrawp":3654,"umbling":3655,"Ġva":3656,"udo":3657,"ourney":3658,"Ġcharm":3659,"Ġuncle":3660,"bbly":3661,"Ġheading":3662,"anging":3663,"Ġtru":3664,"ĠGryffindors":3665,"Ġattempted":3666,"Ġchildren":3667,"Ġgener":3668,"orgin":3669,"father":3670,"nze":3671,"Ġfury":3672,"Ġstation":3673,"ember":3674,"udblood":3675,"ĠNarcissa":3676,"Ġglance":3677,"Ġloads":3678,"Ġbrand":3679,"Ġsquare":3680,"ĠGrind":3681,"ertainly":3682,"ING":3683,"Ġcurtains":3684,"ĠDisappar":3685,"Have":3686,"cto":3687,"cul":3688,"mist":3689,"of":3690,"ature":3691,"Ġpou":3692,"Ġwel":3693,"ĠSorting":3694,"terbe":3695,"ĠBorgin":3696,"ĠCol":3697,"Ġfee":3698,"Ġexch":3699,"Ġsuit":3700,"Ġblind":3701,"estly":3702,"Ġplain":3703,"ĠOg":3704,"Ġeverywhere":3705,"Ġlocked":3706,"Ġopening":3707,"Ġharder":3708,"Ġindign":3709,"ĠAlley":3710,"Ġuncomfort":3711,"Ġexplained":3712,"Ġtouched":3713,"Ġgoblins":3714,"Ġanxious":3715,"ĠLovegood":3716,"Ġbreaking":3717,"aud":3718,"gar":3719,"mer":3720,"tling":3721,"Ġtreat":3722,"Ġ\"'":3723,"ĠHalf":3724,"Ġcas":3725,"Ġdim":3726,"Ġmain":3727,"Ġpaused":3728,"Ġsad":3729,"ety":3730,"urity":3731,"rier":3732,"iles":3733,"Ġrage":3734,"Ġjourney":3735,"Ġchairs":3736,"elw":3737,"Ġtrack":3738,"Ġglancing":3739,"auld":3740,"Ġbran":3741,"Ġaccident":3742,"Ġconfused":3743,"Ġhundreds":3744,"Ġprevious":3745,"ĠWorld":3746,"ĠGalleons":3747,"aved":3748,"faced":3749,"ole":3750,"zz":3751,"Ġaim":3752,"Ġwished":3753,"Ġchat":3754,"Ġdu":3755,"Ġmount":3756,"Ġpen":3757,"ĠSomething":3758,"ĠBog":3759,"ĠCome":3760,"Ġspace":3761,"earing":3762,"angled":3763,"ondon":3764,"Ġgrand":3765,"uffy":3766,"Ġraising":3767,"Ġsquee":3768,"Ġdrop":3769,"Ġdragons":3770,"Ġdived":3771,"ĠPrince":3772,"Ġhoped":3773,"Ġstruggling":3774,"Ġbasin":3775,"ĠGodric":3776,"Lagg":3777,"Never":3778,"Some":3779,"hus":3780,"ov":3781,"Ġwave":3782,"res":3783,"Ġfair":3784,"lly":3785,"oted":3786,"Ġstir":3787,"ĠMarge":3788,"agged":3789,"ayed":3790,"ĠCreat":3791,"ĠFin":3792,"ĠLondon":3793,"Ġvague":3794,"Ġalthough":3795,"ĠOf":3796,"Ġdoorway":3797,"Ġtele":3798,"Ġbrown":3799,"Ġwrite":3800,"Ġsettled":3801,"Ġfinish":3802,"Ġinstruct":3803,"Ġmarched":3804,"Ġgaze":3805,"ĠFirenze":3806,"Ġtriump":3807,"strang":3808,"Ġshocked":3809,"Ġshadows":3810,"Ġimagine":3811,"Ġscramb":3812,"Ġdemanded":3813,"Ġfaint":3814,"Ġconvin":3815,"Ġcounter":3816,"Ġplatform":3817,"ĠOgden":3818,"Laggen":3819,").":3820,"LL":3821,"ded":3822,"iry":3823,"pes":3824,"ĠYes":3825,"Ġtap":3826,"Ġsour":3827,"Ġtoad":3828,"iders":3829,"Ġmakes":3830,"using":3831,"usion":3832,"Ġstro":3833,"ĠMer":3834,"Ġant":3835,"ĠPlace":3836,"Ġlie":3837,"ĠLet":3838,"ules":3839,"Ġtherefore":3840,"imey":3841,"aping":3842,"Ġtwisted":3843,"Ġsmir":3844,"Ġlock":3845,"Ġcontact":3846,"Ġwhisp":3847,"ĠHallows":3848,"Ġbroad":3849,"Ġfourth":3850,"Ġvisible":3851,"Ġripped":3852,"Ġleaves":3853,"Ġinteresting":3854,"Ġburned":3855,"Ġchoice":3856,"Ġechoing":3857,"ĠBurrow":3858,"Ġmurmured":3859,"Ġswallowed":3860,"Ġfireplace":3861,"ĠCreatures":3862,"aun":3863,"bye":3864,"co":3865,"cise":3866,"par":3867,"Ġbother":3868,"Ġlim":3869,"Ġlower":3870,"ading":3871,"chair":3872,"Ġshudd":3873,"ĠBathilda":3874,"iful":3875,"ĠLudo":3876,"Ġpop":3877,"Ġgets":3878,"bbled":3879,"Ġgrinned":3880,"Ġflash":3881,"Ġenonn":3882,"Ġkeen":3883,"Ġnewsp":3884,"Ġuseful":3885,"Ġbuild":3886,"Ġgazed":3887,"Ġchecking":3888,"Ġignored":3889,"urmstrang":3890,"bat":3891,"bow":3892,"Ġtired":3893,"llus":3894,"Ġpanting":3895,"omed":3896,"Ġstrid":3897,"Ġnotes":3898,"ĠCon":3899,"Ġnodding":3900,"Ġunw":3901,"estr":3902,"Ġorder":3903,"olute":3904,"Ġkey":3905,"ĠMcLaggen":3906,"Ġexpecting":3907,"Ġfailed":3908,"Ġappearance":3909,"Ġcountry":3910,"Ġmagn":3911,"Ġunpleasant":3912,"Ġbaby":3913,"Sirius":3914,"aj":3915,"oh":3916,"tles":3917,"Ġsway":3918,"Ġwet":3919,"arters":3920,"Ġbul":3921,"ities":3922,"Ġcrying":3923,"Ġcaused":3924,"Ġpin":3925,"Ġpump":3926,"ache":3927,"usted":3928,"ĠMur":3929,"ĠDi":3930,"ĠDon":3931,"ĠDurmstrang":3932,"ooked":3933,"Ġkicked":3934,"ĠWill":3935,"ĠBr":3936,"Ġjud":3937,"Ġexcellent":3938,"Ġleaning":3939,"Ġdev":3940,"elves":3941,"Ġyours":3942,"Ġplate":3943,"gged":3944,"Ġenvelo":3945,"Ġprefer":3946,"Ġteaching":3947,"Ġpeered":3948,"Ġdesp":3949,"Ġlights":3950,"Ġclasses":3951,"Nothing":3952,"fortun":3953,"renched":3954,"aturday":3955,"Ġsuggest":3956,"Ġattempting":3957,"Ġstatue":3958,"Ġbrilliant":3959,"ĠColin":3960,"Ġtriumph":3961,"iol":3962,"Ġslo":3963,"eding":3964,"Ġfan":3965,"ĠHat":3966,"ĠHad":3967,"Ġdressed":3968,"Ġlad":3969,"Ġgest":3970,"Ġbeaut":3971,"oop":3972,"ĠMudblood":3973,"ĠSl":3974,"ĠSaturday":3975,"Ġreapp":3976,"ouldn":3977,"ĠPo":3978,"ĠFaw":3979,"logy":3980,"Ġlevel":3981,"Ġunus":3982,"Ġhandle":3983,"Ġblond":3984,"Ġslip":3985,"ĠOW":3986,"Ġwizarding":3987,"Ġsneak":3988,"Ġdistinct":3989,"Ġawake":3990,"Ġexamining":3991,"Ġaccomp":3992,"Ġsweat":3993,"Ġeasily":3994,"Ġpunish":3995,"Ġpretending":3996,"ĠFrom":3997,"Ġtower":3998,"Ġcryst":3999,"Ġreceived":4000,"elwald":4001,"Ġenonnous":4002,"ige":4003,"word":4004,"Ġ5":4005,"Ġrough":4006,"Ġwife":4007,"Ġbrave":4008,"ĠHippogriff":4009,"Ġcrou":4010,"Ġdirty":4011,"Ġthunder":4012,"Ġpushing":4013,"ĠIs":4014,"ĠMo":4015,"ĠSqu":4016,"uries":4017,"umed":4018,"acket":4019,"Ġkiss":4020,"aker":4021,"Ġviol":4022,"Ġexist":4023,"Ġchar":4024,"Ġconst":4025,"ops":4026,"ĠElder":4027,"Ġsmashed":4028,"Ġwanting":4029,"Ġmuff":4030,"Ġsecurity":4031,"Ġdesce":4032,"Ġenthus":4033,"Ġstands":4034,"Ġwrote":4035,"Ġhandsome":4036,"Ġfellow":4037,"Ġcontinue":4038,"Ġbuy":4039,"ENT":4040,"Ġfigures":4041,"Ġtort":4042,"Ġtemper":4043,"Ġessay":4044,"quirement":4045,"Ġabruptly":4046,"terbeer":4047,"ED":4048,"For":4049,"Must":4050,"One":4051,"ris":4052,"what":4053,"Ġtournament":4054,"Ġ\"-":4055,"ĠHist":4056,"Ġtoile":4057,"orough":4058,"Ġdying":4059,"Ġstad":4060,"amm":4061,"Ġshif":4062,"Ġfeather":4063,"Ġlives":4064,"ults":4065,"Ġoverhead":4066,"Ġplaces":4067,"ĠOF":4068,"angling":4069,"Ġglaring":4070,"Ġcurled":4071,"Ġcalling":4072,"iping":4073,"Ġhelping":4074,"Ġdifficul":4075,"cient":4076,"Ġdecide":4077,"ĠRequirement":4078,"Ġdesperate":4079,"Ġinnocent":4080,"Ġstadium":4081,"Ġdifficulty":4082,"RY":4083,"do":4084,"ech":4085,"min":4086,"sand":4087,"sure":4088,"Ġtied":4089,"Ġaunt":4090,"Ġbought":4091,"Ġdrif":4092,"Ġthorough":4093,"Ġphoenix":4094,"Ġgrew":4095,"Ġinch":4096,"Ġstare":4097,"ĠMolly":4098,"ĠPans":4099,"ĠBul":4100,"Ġknife":4101,"Ġsocks":4102,"Ġthousand":4103,"Ġdeli":4104,"eless":4105,"Ġfloating":4106,"Ġcrash":4107,"Ġfinding":4108,"Ġindic":4109,"Ġcompany":4110,"ĠBefore":4111,"Ġsweet":4112,"Ġillumin":4113,"Ġwildly":4114,"ĠFrank":4115,"ĠSecrets":4116,"Ġorders":4117,"Ġeleven":4118,"Ġurg":4119,"Ġsqueaked":4120,"ĠImper":4121,"Ġremoved":4122,"Ġinstructions":4123,"ĠHistory":4124,"ĠPansy":4125,"Pl":4126,"uce":4127,"Ġtaught":4128,"Ġdull":4129,"Ġdancing":4130,"Ġlap":4131,"Ġyawn":4132,"acour":4133,"Ġstiff":4134,"Ġaston":4135,"stri":4136,"ĠPig":4137,"ĠAN":4138,"une":4139,"ĠGaunt":4140,"ello":4141,"Ġval":4142,"arty":4143,"Ġscree":4144,"apter":4145,"Ġglow":4146,"Ġglimp":4147,"ĠKing":4148,"Ġcontr":4149,"Ġclearing":4150,"Ġboard":4151,"ĠGrimm":4152,"Ġpossibly":4153,"Ġsimple":4154,"Ġmurder":4155,"Ġdreams":4156,"Ġchampion":4157,"Ġrolling":4158,"ĠSeeker":4159,"ĠDelacour":4160,"Ġexperi":4161,"Ġcarriage":4162,"Ġwhistle":4163,"Ġrubbish":4164,"Ġstriding":4165,"Ġcrystal":4166,"ĠGrimmauld":4167,"Le":4168,"Snape":4169,"Wh":4170,"kward":4171,"mp":4172,"Ġwi":4173,"inger":4174,"arse":4175,"Ġfaced":4176,"asy":4177,"Ġpick":4178,"Ġgig":4179,"Ġgently":4180,"Ġearn":4181,"Ġstars":4182,"Ġstunned":4183,"icy":4184,"icorn":4185,"Ġweird":4186,"Ġsepar":4187,"Ġupset":4188,"unks":4189,"Ġrust":4190,"ĠFel":4191,"Ġjus":4192,"Ġvar":4193,"Ġroar":4194,"ĠNige":4195,"Ġconj":4196,"Ġplanning":4197,"Ġgrin":4198,"Ġeng":4199,"sidered":4200,"Ġprevent":4201,"Ġlose":4202,"uddy":4203,"Ġbadge":4204,"Ġanswered":4205,"Ġstaying":4206,"Ġoddly":4207,"Ġdifference":4208,"Ġsleeping":4209,"Ġclutched":4210,"Ġcircle":4211,"Ġbattle":4212,"Ġmentioned":4213,"Ġdiscovered":4214,"Ġfrozen":4215,"Ġwonderful":4216,"ĠNorris":4217,"iktor":4218,"ĠMorfin":4219,"ĠFawkes":4220,"Ġgigantic":4221,"ĠNigellus":4222,"AT":4223,"Every":4224,"Hello":4225,"IR":4226,"bel":4227,"born":4228,"cher":4229,"ibb":4230,"lass":4231,"over":4232,"son":4233,"ule":4234,"Ġbald":4235,"Ġfully":4236,"ittle":4237,"Ġdue":4238,"Ġeating":4239,"ĠMung":4240,"ĠMaster":4241,"Ġrese":4242,"rian":4243,"Ġanim":4244,"ĠBoth":4245,"top":4246,"Ġjet":4247,"Ġspiders":4248,"Ġconsidered":4249,"Ġscri":4250,"aux":4251,"Ġflick":4252,"Ġbecoming":4253,"Ġlosing":4254,"Ġenter":4255,"aws":4256,"Ġskull":4257,"Ġbreathed":4258,"Ġbrooms":4259,"Ġawkward":4260,"ĠHeadmaster":4261,"Ġsprinted":4262,"Ġmidnight":4263,"Ġstruggled":4264,"Ġsurrounded":4265,"Ġzoomed":4266,"ĠPeople":4267,"Ġfilthy":4268,"Ġprivate":4269,"ĠGrindelwald":4270,"GH":4271,"Per":4272,"iel":4273,"Ġtunn":4274,"Ġwound":4275,"Ġblo":4276,"Ġbowed":4277,"Ġfought":4278,"Ġcoo":4279,"Ġcamp":4280,"Ġhell":4281,"lebr":4282,"Ġsending":4283,"ĠAd":4284,"ĠGru":4285,"Ġrisk":4286,"Ġages":4287,"Ġchuck":4288,"Ġwhenever":4289,"uffled":4290,"Ġhoarse":4291,"Ġterror":4292,"Ġsupport":4293,"Ġstudy":4294,"Ġgreet":4295,"Ġmemories":4296,"Ġstraightened":4297,"Ġstreng":4298,"Ġconsider":4299,"Ġobvious":4300,"Ġmessage":4301,"Ġsurrounding":4302,"Ġreminded":4303,"Ġpowers":4304,"ceeded":4305,"Ġcroaked":4306,"Ġdisappointed":4307,"Ġvault":4308,"Ġwelcome":4309,"Ġconvinced":4310,"ĠDiagon":4311,"ĠOWL":4312,"ĠGrubbly":4313,"EEN":4314,"Hi":4315,"line":4316,"Ġtongue":4317,"Ġbust":4318,"ĠHollow":4319,"attering":4320,"Ġcow":4321,"Ġdry":4322,"Ġgn":4323,"Ġstate":4324,"ume":4325,"ĠBroom":4326,"Ġrum":4327,"ĠFigg":4328,"Ġbacked":4329,"Ġsucc":4330,"Ġunlike":4331,"Ġunicorn":4332,"Ġgrate":4333,"Ġcontents":4334,"Ġdrown":4335,"ails":4336,"reaked":4337,"ensive":4338,"Ġdeeper":4339,"cio":4340,"Ġstuffed":4341,"Ġcelebr":4342,"Ġreport":4343,"axley":4344,"Ġcrept":4345,"Ġincluding":4346,"Ġapplause":4347,"Ġentirely":4348,"Ġinterrupted":4349,"ĠKeeper":4350,"Ġfolded":4351,"Ġscrambled":4352,"batons":4353,"ĠMuriel":4354,"ĠMungo":4355,"aim":4356,"ccl":4357,"dge":4358,"ground":4359,"ky":4360,"Ġing":4361,"ert":4362,"Ġbod":4363,"ĠHoo":4364,"Ġcard":4365,"Ġdaz":4366,"Ġmotion":4367,"Ġlaid":4368,"Ġner":4369,"urb":4370,"Ġfort":4371,"Ġself":4372,"Ġneat":4373,"Ġgoes":4374,"quarters":4375,"Ġiss":4376,"Ġconn":4377,"Ġclen":4378,"Ġmod":4379,"Ġglared":4380,"Ġclock":4381,"Ġprodu":4382,"ordan":4383,"bert":4384,"Ġstruck":4385,"Ġclever":4386,"ission":4387,"Ġhorse":4388,"Ġrefused":4389,"ĠBeaux":4390,"Ġportraits":4391,"Ġsunlight":4392,"Ġerup":4393,"Ġwarned":4394,"Ġimagined":4395,"Ġspiral":4396,"ength":4397,"Ġsparks":4398,"Ġsleeve":4399,"Ġdrawn":4400,"Ġbitterly":4401,"Ġnewspaper":4402,"Or":4403,"ning":4404,"heard":4405,"Ġamb":4406,"Ġsinging":4407,"Ġbrief":4408,"Ġtot":4409,"Ġcausing":4410,"omm":4411,"icia":4412,"irling":4413,"ĠTO":4414,"ĠTournament":4415,"Ġris":4416,"Ġlip":4417,"ĠNever":4418,"aptain":4419,"Ġgras":4420,"Ġswell":4421,"Ġdism":4422,"Ġcracked":4423,"Ġimpressed":4424,"Ġdropping":4425,"Ġcrowded":4426,"ĠAlicia":4427,"Ġincre":4428,"steries":4429,"Ġbrothers":4430,"Ġfifth":4431,"ĠNothing":4432,"Ġadmit":4433,"Ġmarks":4434,"Ġshrugged":4435,"Ġevidence":4436,"Ġprepared":4437,"ĠAuror":4438,"Ġstaggered":4439,"ĠRegulus":4440,"Ġvaguely":4441,"Ġwhispering":4442,"Ġenvelope":4443,"Ġtoilet":4444,"Ġthoroughly":4445,"cclum":4446,"ĠHooch":4447,"ĠBeauxbatons":4448,"ixt":4449,"kn":4450,"Ġid":4451,"Ġ.\"":4452,"itude":4453,"Ġcapt":4454,"Ġdashed":4455,"Ġpred":4456,"Ġbeak":4457,"ĠMac":4458,"ĠRos":4459,"Ġsea":4460,"Ġshoot":4461,"Ġrap":4462,"ĠCan":4463,"ĠCare":4464,"ĠFe":4465,"astically":4466,"que":4467,"Ġaband":4468,"Ġroad":4469,"Ġchin":4470,"Ġscow":4471,"Ġclapped":4472,"ĠOcclum":4473,"aughter":4474,"Ġflood":4475,"Ġclosing":4476,"Ġbringing":4477,"Ġbottles":4478,"Ġdarkly":4479,"onscious":4480,"ĠDoge":4481,"Ġpleasure":4482,"ĠPeter":4483,"Ġboat":4484,"ĠYaxley":4485,"Ġrelieved":4486,"Ġinterv":4487,"Ġcenter":4488,"ĠSeveral":4489,"Ġeggs":4490,"ĠExp":4491,"aturally":4492,"Ġdiscuss":4493,"Ġbewild":4494,"ĠRemus":4495,"arrass":4496,"ĠBogg":4497,"Ġmuffled":4498,"AS":4499,"Please":4500,"hand":4501,"mos":4502,"time":4503,"wid":4504,"Ġ7":4505,"Ġ!\"":4506,"Ġwed":4507,"Ġwis":4508,"Ġwid":4509,"Ġwore":4510,"Ġbank":4511,"Ġfal":4512,"Ġfang":4513,"Ġpicking":4514,"Ġwear":4515,"outs":4516,"ented":4517,"adem":4518,"ĠSp":4519,"Ġrequ":4520,"urg":4521,"Ġshown":4522,"Ġrules":4523,"ĠLestr":4524,"Ġexh":4525,"Ġaloud":4526,"Ġoffered":4527,"Ġhanding":4528,"ĠViktor":4529,"Ġplenty":4530,"Ġplates":4531,"ĠOw":4532,"Ġspecial":4533,"Ġneeds":4534,"Ġamount":4535,"Ġolder":4536,"ĠInst":4537,"arsh":4538,"eyed":4539,"Ġkindly":4540,"Ġbarrier":4541,"Ġfamilies":4542,"Ġmassive":4543,"Ġembarrass":4544,"Ġspectacles":4545,"Ġcorrect":4546,"ajam":4547,"Ġaccompan":4548,"Plank":4549,"riana":4550,"Ġtunnel":4551,"gress":4552,"iver":4553,"post":4554,"Ġaut":4555,"ini":4556,"Ġwiping":4557,"rer":4558,"Ġhate":4559,"arger":4560,"ato":4561,"ator":4562,"Ġcous":4563,"asantly":4564,"Ġdawn":4565,"Ġmumbled":4566,"Ġsav":4567,"ooping":4568,"uttering":4569,"ĠTW":4570,"Ġweather":4571,"Ġash":4572,"agog":4573,"ĠRo":4574,"Ġank":4575,"Ġforg":4576,"amped":4577,"ledge":4578,"Ġgod":4579,"Ġvast":4580,"Ġnowhere":4581,"Ġscra":4582,"Ġblow":4583,"Ġcomes":4584,"ivered":4585,"Ġbrisk":4586,"Ġprison":4587,"ĠNext":4588,"ĠChas":4589,"Ġcurious":4590,"Ġkeeps":4591,"Ġraise":4592,"aze":4593,"ĠJordan":4594,"ĠStill":4595,"Ġdistracted":4596,"Ġdecis":4597,"Ġexams":4598,"ĠOnly":4599,"Ġrubbing":4600,"Ġknocking":4601,"Ġchecked":4602,"Ġopport":4603,"Ġignoring":4604,"Ġtransform":4605,"Ġgrimly":4606,"Ġseventh":4607,"Ġcentaurs":4608,"ĠAnyway":4609,"Ġpounding":4610,"Ġwrapped":4611,"ovitch":4612,"olutely":4613,"ĠPigwid":4614,"Got":4615,"Master":4616,"book":4617,"cut":4618,"dy":4619,"ean":4620,"pted":4621,"ract":4622,"Ġident":4623,"Ġtill":4624,"Ġsong":4625,"Ġwrenched":4626,"oning":4627,"ĠHigh":4628,"atively":4629,"Ġhex":4630,"Ġlarger":4631,"Ġpages":4632,"otting":4633,"Ġbear":4634,"use":4635,"Ġstu":4636,"Ġstar":4637,"Ġweap":4638,"ribly":4639,"ĠPhoenix":4640,"ĠAriana":4641,"Ġshape":4642,"ĠGreg":4643,"Ġvict":4644,"Ġroots":4645,"Ġblame":4646,"ĠEnt":4647,"Ġtrunks":4648,"auldron":4649,"Ġarr":4650,"Ġremaining":4651,"Ġsilently":4652,"unged":4653,"Ġimpro":4654,"Ġended":4655,"ĠThough":4656,"Ġcuriously":4657,"osen":4658,"Ġsteal":4659,"retched":4660,"Ġpainful":4661,"Ġcoat":4662,"Ġburied":4663,"Ġdisappear":4664,"Ġtenn":4665,"Ġserp":4666,"ĠMysteries":4667,"Ġcollap":4668,"theless":4669,"Ġbowl":4670,"Ġsearch":4671,"Ġdusty":4672,"Ġreplied":4673,"Ġtraveling":4674,"Ġfoolish":4675,"Ġpubl":4676,"Ġcentaur":4677,"Really":4678,"Ġpersuade":4679,"Ġfiercely":4680,"merta":4681,"ĠBoggart":4682,"Al":4683,"Course":4684,"Sir":4685,"UT":4686,"Yeh":4687,"lve":4688,"lish":4689,"Ġutter":4690,"Ġband":4691,"Ġfake":4692,"Ġcaut":4693,"asc":4694,"asing":4695,"Ġpool":4696,"Ġpajam":4697,"icious":4698,"robe":4699,"irteen":4700,"Ġrele":4701,"ries":4702,"ĠBarty":4703,"Ġneigh":4704,"ĠCauldron":4705,"Ġshelves":4706,"igan":4707,"Ġswear":4708,"Ġflight":4709,"ĠUnder":4710,"idding":4711,"ĠKn":4712,"Ġways":4713,"Ġspeech":4714,"Ġaccept":4715,"Ġwrist":4716,"Ġsetting":4717,"Ġforever":4718,"Ġstayed":4719,"bology":4720,"Ġmatters":4721,"Ġregret":4722,"Ġgiants":4723,"Ġpictures":4724,"Ġsafely":4725,"Ġbackwards":4726,"ĠMaraud":4727,"Ġdreadful":4728,"ottage":4729,"Ġappreci":4730,"Ġnoises":4731,"Ġbranches":4732,"Ġbeautiful":4733,"ĠImperius":4734,"ĠBroomstick":4735,"ĠOcclumency":4736,"Ġgodfather":4737,"ĠPigwidgeon":4738,",'":4739,"Kreacher":4740,"OW":4741,"bble":4742,"fonn":4743,"Ġourse":4744,"Ġach":4745,"erth":4746,"Ġban":4747,"orovitch":4748,"Ġmot":4749,"Ġpub":4750,"Ġgarg":4751,"omas":4752,"Ġbeamed":4753,"uture":4754,"ĠSir":4755,"chief":4756,"Ġshake":4757,"Ġshrill":4758,"Ġrush":4759,"Ġlies":4760,"ulously":4761,"Ġknowledge":4762,"Ġchosen":4763,"icken":4764,"arkins":4765,"Ġplans":4766,"Ġgrown":4767,"Ġartic":4768,"ording":4769,"Ġdesire":4770,"Ġsniff":4771,"Ġmeaning":4772,"Ġsuppor":4773,"ilder":4774,"lier":4775,"Ġrespect":4776,"Ġinstantly":4777,"Ġcarp":4778,"Ġstartled":4779,"Ġmember":4780,"Ġplayed":4781,"Ġinsides":4782,"Ġyounger":4783,"Ġevil":4784,"Ġintrod":4785,"Ġoccurred":4786,"Ġthrust":4787,"Ġvelve":4788,"Ġrecognize":4789,"Ġglee":4790,"Ġblankly":4791,"ĠSomeone":4792,"Ġenjoying":4793,"Ġbleeding":4794,"Ġsnatched":4795,"Ġidi":4796,"Ġwedding":4797,"ĠEntrance":4798,"Ġourselves":4799,"'?\"":4800,"Keep":4801,"Voldemort":4802,"bom":4803,"band":4804,"Ġicy":4805,"Ġtapped":4806,"Ġsink":4807,"Ġsides":4808,"Ġwoke":4809,"reen":4810,"Ġhated":4811,"Ġbuck":4812,"Ġcell":4813,"Ġlump":4814,"Ġpet":4815,"Ġintend":4816,"Ġnon":4817,"Ġbearing":4818,"Ġwhipped":4819,"ĠMap":4820,"kend":4821,"Ġseve":4822,"ĠHere":4823,"ĠBinn":4824,"ilty":4825,"ilisk":4826,"ift":4827,"quis":4828,"Ġcomment":4829,"Ġmoaned":4830,"ĠDec":4831,"Ġcrump":4832,"Ġpassword":4833,"Ġbeds":4834,"ĠThomas":4835,"neath":4836,"Ġskrew":4837,"shot":4838,"Ġyelling":4839,"ĠAragog":4840,"rawled":4841,"Ġsigns":4842,"Ġanns":4843,"Ġbreathlessly":4844,"Ġpresence":4845,"Ġsprang":4846,"Ġcollect":4847,"ĠHerbology":4848,"Ġtransp":4849,"ĠJustin":4850,"Ġsearching":4851,"Ġextraord":4852,"Ġreplaced":4853,"Ġcircular":4854,"Ġseventeen":4855,"Ġcheerful":4856,"Ġcandle":4857,"Ġinjured":4858,"Ġirritably":4859,"Only":4860,"Ġindignantly":4861,"ĠFinally":4862,"Ġstrength":4863,"Ġbewildered":4864,"Ġneighb":4865,"ilderoy":4866,"Named":4867,"bag":4868,"cri":4869,"oc":4870,"uch":4871,"years":4872,"Ġhouses":4873,"Ġborrow":4874,"Ġfaded":4875,"itor":4876,"Ġlined":4877,"Ġpurs":4878,"ĠTed":4879,"ales":4880,"Ġwitness":4881,"Ġforcing":4882,"ĠPort":4883,"ĠParkins":4884,"Ġfrag":4885,"Ġjuice":4886,"ustr":4887,"antically":4888,"Ġabou":4889,"Ġagree":4890,"Ġsuper":4891,"Ġchamber":4892,"Ġchanging":4893,"elp":4894,"Ġspun":4895,"Ġspoken":4896,"Ġgotten":4897,"Ġblast":4898,"apers":4899,"Ġorange":4900,"ĠEn":4901,"Ġgrunted":4902,"Ġbrains":4903,"hens":4904,"Ġgreatest":4905,"Ġsitu":4906,"avior":4907,"Ġlistened":4908,"Ġvision":4909,"Ġweekend":4910,"Ġhopefully":4911,"Ġhats":4912,"Ġpockets":4913,"Ġsweeping":4914,"HAT":4915,"Ġunconscious":4916,"intment":4917,"Ġpieces":4918,"Ġchocolate":4919,"Ġbarked":4920,"Ġquills":4921,"Ġcabinet":4922,"Ġdisgust":4923,"Ġimmense":4924,"Ġjerked":4925,"Ġenchant":4926,"Ġthreatening":4927,"Ġdamage":4928,"ĠBulgar":4929,"Ġbodies":4930,"Ġclenched":4931,"ĠBinns":4932,"Out":4933,"olo":4934,"tr":4935,"Ġtense":4936,"atically":4937,"Ġheight":4938,"Ġheaved":4939,"Ġlines":4940,"Ġthud":4941,"etr":4942,"ĠTra":4943,"aler":4944,"redi":4945,"Ġframe":4946,"Ġdod":4947,"ĠGilderoy":4948,"Ġallow":4949,"Ġsoaring":4950,"ĠLittle":4951,"Ġexcuse":4952,"ouring":4953,"Ġspat":4954,"Ġtraining":4955,"olen":4956,"hose":4957,"Ġloss":4958,"Ġaccus":4959,"Ġfeelings":4960,"umping":4961,"ship":4962,"erva":4963,"Ġcloaks":4964,"Ġmonster":4965,"abbed":4966,"Ġchoked":4967,"Ġballs":4968,"Ġpromise":4969,"Ġpackage":4970,"Ġargum":4971,"Ġevidently":4972,"Ġexploded":4973,"Ġcheek":4974,"Ġconcerned":4975,"Ġexchanged":4976,"fortunately":4977,"Ġsuccess":4978,"Ġingredi":4979,"ĠExpress":4980,"'.":4981,"CK":4982,"De":4983,"IT":4984,"Me":4985,"Mad":4986,"foot":4987,"spect":4988,"ught":4989,"Ġice":4990,"Ġtick":4991,"Ġtear":4992,"Ġsinking":4993,"Ġwar":4994,"Ġhill":4995,"Ġbigg":4996,"Ġfoul":4997,"isc":4998,"Ġtore":4999,"iting":5000,"itching":5001,"Ġcave":5002,"Ġthirteen":5003,"Ġgate":5004,"Ġginger":5005,"Ġbeating":5006,"Ġstorm":5007,"Ġstolen":5008,"Ġreck":5009,"Ġancient":5010,"Ġwithd":5011,"Ġoutst":5012,"ĠGood":5013,"Ġrise":5014,"Ġsobbing":5015,"Ġsobbed":5016,"quid":5017,"Ġchose":5018,"Ġclue":5019,"olores":5020,"Ġbehavior":5021,"Hey":5022,"Ġprick":5023,"Ġwaist":5024,"orses":5025,"Ġmustache":5026,"Ġcurses":5027,"Ġarmchair":5028,"Ġhorrified":5029,"Ġguilty":5030,"Ġdiadem":5031,"ĠForbidden":5032,"abini":5033,"Excellent":5034,"Ġsneered":5035,"Ġwardrobe":5036,"Ġsensation":5037,"Ġenchanted":5038,"ĠSmith":5039,"Ġannoyed":5040,"Ġfocus":5041,"Ġpumpkin":5042,"ĠMoaning":5043,"Ġcoolly":5044,"ĠRosmerta":5045,"Ġinterview":5046,"ĠOwl":5047,"Ġcousin":5048,"ĠMarauder":5049,"ĠPortkey":5050,"ĠParkinson":5051,"CH":5052,"ET":5053,"Like":5054,"Ne":5055,"bout":5056,"down":5057,"ex":5058,"fa":5059,"iving":5060,"juice":5061,"mn":5062,"Ġsilly":5063,"Ġwishing":5064,"Ġfail":5065,"athered":5066,"Ġcush":5067,"idence":5068,"Ġdamp":5069,"Ġdaughter":5070,"Ġmate":5071,"Ġlab":5072,"Ġpuff":5073,"Ġgates":5074,"lyjuice":5075,"Ġequ":5076,"iment":5077,"Ġstories":5078,"rop":5079,"alled":5080,"Ġnoticing":5081,"ĠWar":5082,"Ġnecess":5083,"ĠCree":5084,"Ġalley":5085,"Ġliquid":5086,"ousand":5087,"Ġdeaf":5088,"ĠVery":5089,"urely":5090,"Ġflow":5091,"Ġdisbel":5092,"Ġcontem":5093,"Ġtalked":5094,"Ġimpress":5095,"ĠIntern":5096,"Ġstopping":5097,"Ġdragging":5098,"Ġdecor":5099,"Ġcatching":5100,"Ġrigh":5101,"Ġemerging":5102,"Ġstrangely":5103,"atural":5104,"Ġpossession":5105,"Ġpassageway":5106,"ĠZabini":5107,"Ġmiserably":5108,"Ġmurdered":5109,"Ġconcealed":5110,"Ġuncomfortable":5111,"Ġsource":5112,"Ġbuilding":5113,"ĠConf":5114,"Ġenthusi":5115,"Ġerupted":5116,"Ġrapidly":5117,"Ġopportunity":5118,"Ġpajamas":5119,"ĠInternational":5120,"Fine":5121,"ID":5122,"Wait":5123,"end":5124,"ives":5125,"nes":5126,"uished":5127,"Ġwo":5128,"Ġwine":5129,"oub":5130,"Ġbite":5131,"Ġbree":5132,"athe":5133,"issed":5134,"Ġtoast":5135,"Ġden":5136,"Ġdance":5137,"Ġdangling":5138,"Ġlately":5139,"Ġstern":5140,"irled":5141,"ĠMag":5142,"ĠDolores":5143,"rig":5144,"terday":5145,"ĠThestr":5146,"ĠCaptain":5147,"ĠFinn":5148,"Ġsofa":5149,"ĠLook":5150,"Ġoverheard":5151,"ĠNimb":5152,"ela":5153,"Ġspinning":5154,"Ġhandker":5155,"Ġscrew":5156,"Ġclip":5157,"Ġmyster":5158,"Ġmanage":5159,"Ġprecise":5160,"Ġunderneath":5161,"Ġcru":5162,"ĠQuibb":5163,"Ġbits":5164,"Ġlightning":5165,"iety":5166,"Ġretreat":5167,"ĠHallow":5168,"Ġrecord":5169,"Ġawful":5170,"Ġacting":5171,"Ġexamined":5172,"Ġexamination":5173,"Ġsafety":5174,"eaky":5175,"Ġearlier":5176,"Ġrattling":5177,"Ġhungry":5178,"Ġweakly":5179,"ĠApparate":5180,"Ġreveal":5181,"Ġfists":5182,"Blimey":5183,"Anyway":5184,"Ġmiserable":5185,"Ġsquealed":5186,"Ġwiped":5187,"Ġconnection":5188,"Ġaccompanied":5189,"Ġbriskly":5190,"Ġweapon":5191,"ĠGregorovitch":5192,"Ġpublic":5193,"ĠBroomsticks":5194,"ertha":5195,"Ġarticle":5196,"Ġcarpet":5197,"Ġextraordinary":5198,"ĠCreevey":5199,"ĠNimbus":5200,"Ġhandkerchief":5201,"At":5202,"ES":5203,"Ginny":5204,"Take":5205,"aa":5206,"ipe":5207,"lit":5208,"men":5209,"xpected":5210,"Ġ..":5211,"Ġille":5212,"Ġske":5213,"resh":5214,"Ġhorses":5215,"Ġfaster":5216,"ative":5217,"Ġcack":5218,"Ġcared":5219,"Ġcough":5220,"orce":5221,"Ġdut":5222,"Ġpaid":5223,"Ġgent":5224,"Ġgap":5225,"Ġyard":5226,"Ġsticking":5227,"ettle":5228,"ĠSna":5229,"Ġreply":5230,"Ġupside":5231,"Ġoutr":5232,"ĠBoy":5233,"Ġknot":5234,"Ġnostri":5235,"Ġcond":5236,"Ġblaz":5237,"Ġblinked":5238,"estry":5239,"Ġclicked":5240,"Ġclamb":5241,"onday":5242,"Ġloved":5243,"Ġprospect":5244,"ĠNeither":5245,"ĠChapter":5246,"igned":5247,"phone":5248,"Ġhorribly":5249,"Ġscreams":5250,"Ġhitting":5251,"Ġcompet":5252,"ashion":5253,"Ġsubst":5254,"Ġapproaching":5255,"Ġtrip":5256,"Ġfaith":5257,"Ġsuspected":5258,"Ġsixteen":5259,"Ġeasier":5260,"ĠParse":5261,"immering":5262,"Ġdressing":5263,"Ġshadowy":5264,"ĠSpells":5265,"Ġrevol":5266,"ĠTwenty":5267,"Ġbench":5268,"Ġtruly":5269,"Ġsadly":5270,"zzled":5271,"Ġsqueezed":5272,"Ġunusual":5273,"Ġfangs":5274,"Ġdecision":5275,"eanwhile":5276,"ĠTravers":5277,"Ġingredients":5278,"ĠFinnigan":5279,"Ġilleg":5280,"To":5281,"uced":5282,"Ġ,":5283,"Ġhorn":5284,"Ġboot":5285,"Ġfart":5286,"Ġfond":5287,"Ġoak":5288,"ĠHE":5289,"itation":5290,"asper":5291,"ids":5292,"Ġhero":5293,"Ġdate":5294,"Ġducked":5295,"Ġlaw":5296,"Ġlength":5297,"Ġpier":5298,"Ġbeet":5299,"vern":5300,"ĠMonday":5301,"adily":5302,"ĠST":5303,"ĠSil":5304,"Ġreass":5305,"ality":5306,"aying":5307,"ĠPad":5308,"Ġshield":5309,"Ġfrantically":5310,"unting":5311,"ĠBones":5312,"Ġrows":5313,"ĠCross":5314,"Ġjacket":5315,"uded":5316,"Ġuns":5317,"Ġsliding":5318,"bbling":5319,"Ġtray":5320,"Ġswinging":5321,"Ġswooped":5322,"Ġfles":5323,"austed":5324,"Ġopin":5325,"Ġappo":5326,"ĠPotters":5327,"Ġbetr":5328,"mbol":5329,"Ġdrank":5330,"ĠThousand":5331,"ietta":5332,"new":5333,"nected":5334,"Ġperched":5335,"Ġcasting":5336,"Ġfriendly":5337,"Ġgrey":5338,"Ġinstant":5339,"ĠYet":5340,"Ġribs":5341,"Ġbags":5342,"Ġrounded":5343,"Ġsooner":5344,"Ġpurpose":5345,"uthor":5346,"Ġsixth":5347,"Ġpressing":5348,"Ġveela":5349,"ĠShack":5350,"Didn":5351,"Ġfroze":5352,"Ġpretended":5353,"Ġpositively":5354,"Ġtrap":5355,"colored":5356,"Ġamongst":5357,"Ġgroaned":5358,"Ġpowder":5359,"Ġjumping":5360,"Ġsymbol":5361,"Ġsuspicious":5362,"Ġcandles":5363,"Ġreflected":5364,"Ġfeeble":5365,"Ġtelephone":5366,"ĠPolyjuice":5367,"Ġilluminated":5368,"Ġsupporters":5369,"Ġvelvet":5370,"Ġidiot":5371,"Ġoutstretched":5372,"ĠQuibbler":5373,"Give":5374,"Tell":5375,"Ġbra":5376,"Ġbull":5377,"Ġbones":5378,"ashes":5379,"Ġhedge":5380,"Ġmoun":5381,"Ġtha":5382,"Ġpit":5383,"Ġpudd":5384,"Ġgang":5385,"Ġgather":5386,"Ġbending":5387,"acts":5388,"ĠIN":5389,"icis":5390,"ĠMal":5391,"ĠMore":5392,"Ġreb":5393,"urbed":5394,"ĠBertha":5395,"Ġrude":5396,"Ġwhee":5397,"Ġlied":5398,"Ġlikes":5399,"ĠLeaky":5400,"Ġquivering":5401,"Ġsched":5402,"ĠOff":5403,"Ġtwig":5404,"Ġflashed":5405,"Ġhappens":5406,"Ġletting":5407,"Ġproof":5408,"ishly":5409,"Ġdescri":5410,"Ġends":5411,"because":5412,"Ġbedside":5413,"Ġsmaller":5414,"Ġsteam":5415,"Ġkilling":5416,"liver":5417,"Ġresent":5418,"Ġreturning":5419,"Ġripp":5420,"Ġyesterday":5421,"Ġarrival":5422,"Ġmetal":5423,"Ġexplan":5424,"Ġremembering":5425,"Ġignore":5426,"imming":5427,"Ġboxes":5428,"ĠMarietta":5429,"ĠHufflepuffs":5430,"Ġghosts":5431,"Ġstronger":5432,"Ġnormally":5433,"Ġprefects":5434,"Ġunexpected":5435,"mistress":5436,"Ġbulging":5437,"ĠBrown":5438,"ĠSlow":5439,"amming":5440,"Ġconjured":5441,"ĠLestrange":5442,"Ġashamed":5443,"Ġcollapsed":5444,"quisitor":5445,"Ġgentle":5446,"IS":5447,"Malfoy":5448,"PE":5449,"abby":5450,"ball":5451,"hs":5452,"ient":5453,"vin":5454,"yl":5455,"Ġtart":5456,"Ġsigh":5457,"Ġhus":5458,"Ġhudd":5459,"Ġfuture":5460,"ĠHor":5461,"ĠHave":5462,"atic":5463,"atch":5464,"enced":5465,"Ġpush":5466,"Ġhamm":5467,"Ġgathered":5468,"Ġbeckon":5469,"acle":5470,"etch":5471,"Ġrever":5472,"Ġseizing":5473,"ĠPl":5474,"rous":5475,"Ġshivering":5476,"pef":5477,"geons":5478,"ĠBeh":5479,"Ġbutterbeer":5480,"umble":5481,"astic":5482,"Ġexasper":5483,"Ġleather":5484,"Ġoffer":5485,"Ġchain":5486,"arent":5487,"ests":5488,"Ġclub":5489,"Ġslumped":5490,"Ġsmo":5491,"Ġtrace":5492,"Ġflame":5493,"Ġenem":5494,"mbled":5495,"Ġacce":5496,"Ġprove":5497,"ĠInquisitor":5498,"Ġelbow":5499,"Ġsteady":5500,"Ġresist":5501,"Ġpainting":5502,"vision":5503,"Ġvisited":5504,"ĠFlint":5505,"Ġrelax":5506,"Ġnecklace":5507,"Ġsuspe":5508,"Ġpracticing":5509,"Ġapolo":5510,"Ġfifteen":5511,"Ġcutting":5512,"Ġassist":5513,"Ġinvolved":5514,"Ġtrapped":5515,"Ġordinary":5516,"Ġbasilisk":5517,"Shut":5518,"Ġsuspiciously":5519,"Ġclouds":5520,"Ġguessed":5521,"ĠAurors":5522,"Ġdestroyed":5523,"Ġpillow":5524,"Ġservant":5525,"Ġmountain":5526,"Ġpenetr":5527,"Ġtapestry":5528,"ohn":5529,"Ġcrouched":5530,"known":5531,"Ġshooting":5532,"Ġmotor":5533,"Ġsituation":5534,"Ġargument":5535,"Ġnostrils":5536,"ĠSlowly":5537,"ĠBehind":5538,"',\"":5539,"Rem":5540,"UM":5541,"fl":5542,"fall":5543,"lers":5544,"sized":5545,"tin":5546,"Ġhoo":5547,"Ġhollow":5548,"arter":5549,"Ġbored":5550,"ĠHA":5551,"Ġcottage":5552,"Ġheal":5553,"Ġheels":5554,"Ġdrive":5555,"Ġpup":5556,"Ġpairs":5557,"Ġpouring":5558,"Ġinten":5559,"Ġsack":5560,"Ġstool":5561,"ĠMaybe":5562,"ĠPlease":5563,"ĠWhe":5564,"tedly":5565,"Ġrumm":5566,"Ġracing":5567,"Ġjar":5568,"udged":5569,"inkling":5570,"Ġdept":5571,"Ġsuc":5572,"Ġspare":5573,"Ġorph":5574,"Ġotherwise":5575,"ĠMalfoys":5576,"Ġwherever":5577,"Ġspend":5578,"ĠMinerva":5579,"Ġmisty":5580,"gotol":5581,"onnal":5582,"ouncing":5583,"Ġpresents":5584,"Ġhurtled":5585,"Ġoccup":5586,"Ġaddressed":5587,"Ġparticular":5588,"Ġfaintly":5589,"ĠApparition":5590,"Ġenclo":5591,"Ġencour":5592,"ĠWhile":5593,"Ġlingers":5594,"Arthur":5595,"Ġmagnific":5596,"Ġdistinctly":5597,"ĠAND":5598,"Which":5599,"Ġfalse":5600,"Ġexhausted":5601,"ĠInstead":5602,"Ġserpent":5603,"Ġreleased":5604,"Ġgargoyle":5605,"Ġcrumpled":5606,"oubtedly":5607,"Ġopinion":5608,"OM":5609,"Was":5610,"aly":5611,"car":5612,"for":5613,"ially":5614,"tion":5615,"uit":5616,"Ġah":5617,"inal":5618,"arias":5619,"Ġbom":5620,"Ġobl":5621,"Ġcap":5622,"Ġheaven":5623,"Ġdully":5624,"Ġmed":5625,"Ġmud":5626,"Ġmild":5627,"Ġmiles":5628,"Ġlaz":5629,"esting":5630,"otes":5631,"rolled":5632,"ĠMeanwhile":5633,"add":5634,"Ġupper":5635,"ĠDear":5636,"uming":5637,"ĠComm":5638,"Ġwheeled":5639,"ĠLike":5640,"arting":5641,"Ġropes":5642,"iece":5643,"Ġworks":5644,"Ġscur":5645,"Ġslim":5646,"Ġtwisting":5647,"ĠIts":5648,"Ġswirling":5649,"Ġflower":5650,"olves":5651,"Ġarch":5652,"Ġhappier":5653,"Ġhappiness":5654,"Ġpeace":5655,"acharias":5656,"ĠChann":5657,"Ġhurting":5658,"bey":5659,"awed":5660,"Ġsquinting":5661,"Ġcontinuing":5662,"Ġparce":5663,"Ġsigned":5664,"Ġ(\"":5665,"Ġpotions":5666,"Ġgreenh":5667,"Ġthickly":5668,"Ġuncertainly":5669,"Ġwidely":5670,"Ġmadly":5671,"Ġbroomsticks":5672,"Ġdemon":5673,"Ġsearched":5674,"Ġdungeons":5675,"Ġdiscussing":5676,"Ġhonor":5677,"ĠNorbert":5678,"Ġsymp":5679,"Ġcomplain":5680,"ĠDidn":5681,"Ġcheeks":5682,"ĠDisapparated":5683,"Ġsmirking":5684,"ĠWillow":5685,"Ġglimpse":5686,"Ġmotionless":5687,"Ġvictim":5688,"Ġscrewed":5689,"Ġclipboard":5690,"orcerer":5691,"Ġflesh":5692,"Ġhusband":5693,"Bet":5694,"Ch":5695,"Mum":5696,"Nice":5697,"gs":5698,"iantly":5699,"yard":5700,"Ġtim":5701,"Ġtipped":5702,"hest":5703,"Ġauthor":5704,"Ġharsh":5705,"ndeed":5706,"Ġborn":5707,"Ġfix":5708,"athing":5709,"Ġtopp":5710,"Ġcake":5711,"asons":5712,"Ġhem":5713,"Ġlack":5714,"Ġland":5715,"Ġnonnal":5716,"oting":5717,"Ġwaste":5718,"ĠMont":5719,"ĠMany":5720,"Ġattend":5721,"Ġfork":5722,"Ġshare":5723,"Ġshame":5724,"Ġshade":5725,"ĠGet":5726,"Ġrushed":5727,"loho":5728,"orthy":5729,"ulted":5730,"Ġconcl":5731,"apes":5732,"ĠOliver":5733,"Ġturns":5734,"Ġgliding":5735,"Ġarrest":5736,"ode":5737,"Ġdislike":5738,"Ġafterward":5739,"Ġloc":5740,"Ġprogress":5741,"Ġretrie":5742,"ĠStunning":5743,"black":5744,"ĠDoloho":5745,"Ġalongside":5746,"ibr":5747,"Ġsteadily":5748,"Ġobs":5749,"cially":5750,"Ġdetails":5751,"Ġaction":5752,"Ġdisappro":5753,"Ġmistaken":5754,"Ġsentence":5755,"Ġdirections":5756,"Ġdreamed":5757,"struck":5758,"Ġemerald":5759,"Ġflatly":5760,"ĠPatil":5761,"Ġadvice":5762,"Ġtowering":5763,"Ġdisgu":5764,"Ġmagaz":5765,"Ġholiday":5766,"Ġgrab":5767,"Ġsatisfied":5768,"Ġrespons":5769,"Ġsmoothly":5770,"Ġhooded":5771,"ENTY":5772,"Ġurgently":5773,"Ġbloke":5774,"Ġnerve":5775,"ĠTWENTY":5776,"Ġdepths":5777,"ĠDolohov":5778,"ION":5779,"ILL":5780,"break":5781,"go":5782,"gers":5783,"hin":5784,"mill":5785,"nit":5786,"por":5787,"pitched":5788,"sy":5789,"ulf":5790,"Ġ[":5791,"Ġver":5792,"Ġhut":5793,"Ġharm":5794,"Ġhushed":5795,"Ġbal":5796,"Ġbore":5797,"Ġfilling":5798,"Ġomin":5799,"Ġdiv":5800,"Ġmaze":5801,"Ġlane":5802,"Ġloose":5803,"Ġthresh":5804,"Ġpapers":5805,"legged":5806,"Ġhissing":5807,"uts":5808,"enth":5809,"ĠSchool":5810,"Ġreaching":5811,"alus":5812,"ĠRu":5813,"ĠRun":5814,"Ġshak":5815,"Ġshiny":5816,"people":5817,"Ġupright":5818,"inding":5819,"Ġmeasure":5820,"ĠCould":5821,"Ġfeat":5822,"ĠFrog":5823,"Ġcharge":5824,"Ġchains":5825,"Ġslipping":5826,"ĠOver":5827,"Ġtwin":5828,"Ġvol":5829,"Ġgrump":5830,"Ġthoughtfully":5831,"Ġensure":5832,"Ġrooms":5833,"Ġproceeded":5834,"Ġsilk":5835,"Ġdesks":5836,"Ġcrammed":5837,"Ġimpr":5838,"Ġowner":5839,"Ġcurre":5840,"ĠStud":5841,"headed":5842,"Ġsorts":5843,"Ġmonst":5844,"Ġrule":5845,"Does":5846,"Ġgasp":5847,"white":5848,"Ġavoiding":5849,"Ġshrugging":5850,"Ġdares":5851,"Ġridicul":5852,"ĠZacharias":5853,"Ġprotective":5854,"Ġgloomily":5855,"Ġalarmed":5856,"Ġkids":5857,"Ġaccidentally":5858,"Someone":5859,"Ġswayed":5860,"Ġroughly":5861,"Ġdrifted":5862,"Ġrumors":5863,"poster":5864,"Ġforgive":5865,"Ġenthusiastically":5866,"Ġmysterious":5867,"Ġduty":5868,"Ġfarther":5869,"Ġsuspended":5870,"ĠMontague":5871,"Ġthreshold":5872,"AL":5873,"HE":5874,"Hang":5875,"IM":5876,"Im":5877,"IGH":5878,"Se":5879,"Stop":5880,"gan":5881,"kins":5882,"mare":5883,"rons":5884,"sen":5885,"vid":5886,"wood":5887,"yes":5888,"Ġ!":5889,"Ġhid":5890,"itated":5891,"itions":5892,"Ġdarted":5893,"Ġlan":5894,"Ġthread":5895,"Ġpenn":5896,"Ġgall":5897,"Ġbeast":5898,"outhed":5899,"Ġumb":5900,"ĠDung":5901,"Ġsell":5902,"ĠAre":5903,"Ġkettle":5904,"ĠWitch":5905,"Ġfrustr":5906,"ĠBar":5907,"iftly":5908,"ĠFour":5909,"Ġven":5910,"Ġvac":5911,"Ġexting":5912,"Ġroaring":5913,"oyal":5914,"eper":5915,"Ġpoking":5916,"ĠNone":5917,"Ġque":5918,"Ġconnected":5919,"Ġyourselves":5920,"Ġuseless":5921,"Ġbloody":5922,"Ġblinking":5923,"Ġslit":5924,"ĠEng":5925,"ĠOut":5926,"Ġswiftly":5927,"Ġremains":5928,"Ġprov":5929,"Ġsecrets":5930,"Ġsnorted":5931,"Ġdrained":5932,"Ġchess":5933,"Ġcrooked":5934,"Ġcurtly":5935,"Ġarmor":5936,"ĠDeathly":5937,"ruci":5938,"Ġbreathe":5939,"Ġresc":5940,"Ġobsc":5941,"Ġinstance":5942,"Ġstole":5943,"Ġexpress":5944,"Ġpainfully":5945,"Ġdecent":5946,"Ġdetenn":5947,"Ġmarried":5948,"Ġplayers":5949,"Ġexamine":5950,"Ġedged":5951,"version":5952,"Ġtroub":5953,"Ġtentatively":5954,"Ġstretching":5955,"ĠRavenclaws":5956,"Ġgripped":5957,"Ġshriek":5958,"Ġadmir":5959,"Ġnarrowed":5960,"Ġabsence":5961,"Ġtrembled":5962,"Ġsnowy":5963,"Ġblew":5964,"ĠGoblet":5965,"Ġshoes":5966,"Ġtraveled":5967,"Ġpuzzled":5968,"Blood":5969,"Ġapprehens":5970,"Ġblocked":5971,"Ġlamps":5972,"Ġbirds":5973,"Ġlurking":5974,"Ġbelonged":5975,"Ġpermission":5976,"Ġplainly":5977,"Ġduel":5978,"Ġantid":5979,"Ġ59":5980,"Ġvarious":5981,"Ġhello":5982,"ĠAdv":5983,"Ġdazz":5984,"Ġcellar":5985,"ĠHalloween":5986,"Ġillegal":5987,"Ġexplanation":5988,"Ġdemonstr":5989,"Ġumbrell":5990,"HER":5991,"ORE":5992,"cross":5993,"ccio":5994,"four":5995,"ios":5996,"Ġtur":5997,"Ġwre":5998,"Ġtheory":5999,"Ġhint":6000,"Ġfus":6001,"atus":6002,"Ġcart":6003,"ences":6004,"Ġment":6005,"Ġmixt":6006,"Ġlugg":6007,"Ġthirty":6008,"Ġph":6009,"Ġhairy":6010,"anna":6011,"Ġinvent":6012,"Ġsake":6013,"omes":6014,"Ġstumbled":6015,"Ġstamp":6016,"ĠSk":6017,"ĠSumm":6018,"ags":6019,"stone":6020,"ĠThese":6021,"Ġshimmering":6022,"ĠWon":6023,"ĠWould":6024,"ĠBo":6025,"Ġmere":6026,"Ġrad":6027,"ĠFrid":6028,"Ġshelf":6029,"Ġgogg":6030,"Ġsoot":6031,"udging":6032,"Ġrope":6033,"ĠNOT":6034,"Ġspy":6035,"Ġeyel":6036,"Ġblasted":6037,"estig":6038,"Ġslamming":6039,"angu":6040,"anges":6041,"Ġhowling":6042,"gging":6043,"idded":6044,"fty":6045,"Ġteac":6046,"Ġdiss":6047,"Ġdispl":6048,"Ġfloors":6049,"Ġstranger":6050,"Ġcheering":6051,"ĠInfer":6052,"appy":6053,"Ġresults":6054,"Ġtreasure":6055,"Ġinstrum":6056,"Ġrecently":6057,"Ġideas":6058,"Ġpotato":6059,"Ġplayer":6060,"Ġleaf":6061,"Ġpatting":6062,"Ġpersonal":6063,"ĠChocolate":6064,"Ġsweater":6065,"ĠWithout":6066,"ĠApparently":6067,"Ġpromised":6068,"Ġargue":6069,"Ġarguing":6070,"Ġspirits":6071,"Ġinfonn":6072,"Ġjeans":6073,"Ġbewitched":6074,"Ġzooming":6075,"Ġundoubtedly":6076,"Ġcourt":6077,"Ġcomfortable":6078,"Ġsatisfaction":6079,"Ġincredulously":6080,"Ġoccasionally":6081,"Ġgulped":6082,"Ġstreaming":6083,"ĠMerope":6084,"Ġreappeared":6085,"ĠSquib":6086,"Ġkissing":6087,"Ġdescended":6088,"Ġastonished":6089,"Ġcontrary":6090,"ĠFelix":6091,"Everyone":6092,"Ġhoarsely":6093,"Ġabandoned":6094,"Ġcautiously":6095,"ascin":6096,"Ġshrilly":6097,"Ġbreeze":6098,"Ġclambered":6099,"Ġmagnificent":6100,"Ġparcel":6101,"Ġmagazine":6102,"Ġdaresay":6103,"Ġlantern":6104,"Ġluggage":6105,"AA":6106,"Certainly":6107,"Dad":6108,"Dunno":6109,"His":6110,"UR":6111,"aves":6112,"coming":6113,"iest":6114,"pre":6115,"she":6116,"upp":6117,"Ġtast":6118,"Ġtakes":6119,"Ġsou":6120,"Ġhy":6121,"Ġbark":6122,"Ġfill":6123,"Ġcra":6124,"asks":6125,"Ġdaring":6126,"Ġmil":6127,"Ġmail":6128,"Ġpel":6129,"Ġsand":6130,"omy":6131,"Ġbeam":6132,"Ġet":6133,"Ġstore":6134,"icted":6135,"irm":6136,"Ġreasons":6137,"agging":6138,"agini":6139,"amel":6140,"Ġshuffled":6141,"pecially":6142,"ĠWiz":6143,"ĠFirst":6144,"umber":6145,"Ġvibr":6146,"Ġaback":6147,"ourish":6148,"erson":6149,"Ġchoose":6150,"Ġspite":6151,"Ġconfess":6152,"Ġunmist":6153,"oping":6154,"Ġblur":6155,"ĠVan":6156,"Ġclapping":6157,"angle":6158,"Ġgruff":6159,"Ġfluttered":6160,"Ġremove":6161,"Ġbrass":6162,"ltongue":6163,"Weasley":6164,"Ġhost":6165,"Ġstrained":6166,"Ġamused":6167,"Ġmustn":6168,"Ġcrit":6169,"iffere":6170,"Ġrealizing":6171,"Ġrecent":6172,"ĠAnother":6173,"Ġcommunity":6174,"ĠAuntie":6175,"Ġuncon":6176,"Ġbursting":6177,"Ġrepro":6178,"Ġattacking":6179,"Ġclimbing":6180,"asket":6181,"Ġiron":6182,"Ġadmitted":6183,"Ġbanging":6184,"Ġcounting":6185,"ĠBludgers":6186,"Ġslightest":6187,"Ġdefend":6188,"Ġgulp":6189,"Ġscratching":6190,"Ġbrandishing":6191,"culars":6192,"Ġpouch":6193,"Ġpoured":6194,"Ġdimly":6195,"Ġfeathers":6196,"Ġdeliber":6197,"Ġawkwardly":6198,"Ġunlikely":6199,"Ġdrowned":6200,"Ġrisen":6201,"ĠMacmill":6202,"ĠOwlery":6203,"Ġfaithful":6204,"ĠParseltongue":6205,"ĠOffice":6206,"Ġorphan":6207,"Ġslimy":6208,"Ġarchway":6209,"Ġobsess":6210,"ĠWizeng":6211,"ĠMacmillan":6212,"Ooo":6213,"TEEN":6214,"VEN":6215,"Will":6216,"cr":6217,"green":6218,"hip":6219,"land":6220,"long":6221,"rat":6222,"xy":6223,"Ġsen":6224,"Ġsought":6225,"Ġhug":6226,"eration":6227,"Ġbare":6228,"Ġbunch":6229,"Ġfetch":6230,"Ġobey":6231,"ĠHoney":6232,"ises":6233,"Ġcause":6234,"ases":6235,"asures":6236,"idy":6237,"ora":6238,"orter":6239,"Ġheat":6240,"Ġdive":6241,"Ġmal":6242,"Ġlops":6243,"anking":6244,"Ġgown":6245,"....":6246,"Ġstal":6247,"icc":6248,"icate":6249,"ution":6250,"ades":6251,"ĠSne":6252,"ĠRom":6253,"kered":6254,"amot":6255,"Ġseize":6256,"acking":6257,"Ġshaken":6258,"Ġshattered":6259,"Ġshabby":6260,"Ġshapes":6261,"Ġoutta":6262,"Ġoutline":6263,"inded":6264,"ĠBus":6265,"ĠBane":6266,"ĠBrit":6267,"ĠCat":6268,"Ġfeared":6269,"ustered":6270,"Ġnod":6271,"ousy":6272,"Ġchim":6273,"Ġchicken":6274,"Ġunb":6275,"Ġblurred":6276,"Ġplant":6277,"Ġplunged":6278,"Ġwandering":6279,"Ġorgan":6280,"ogging":6281,"ĠOUT":6282,"Ġtwitched":6283,"ounded":6284,"Ġglowing":6285,"Ġglinting":6286,"Ġflashing":6287,"thin":6288,"Ġdisp":6289,"Ġproved":6290,"uffling":6291,"Ġdrinking":6292,"Ġcrim":6293,"Ġentering":6294,"Ġlightly":6295,"Ġnightmare":6296,"ĠJohn":6297,"Ġsquinted":6298,"Ġsteak":6299,"Ġdrops":6300,"Ġslept":6301,"Ġmarked":6302,"ĠFlamel":6303,"Ġmeetings":6304,"Ġinsisted":6305,"Ġregular":6306,"Ġintently":6307,"Ġattacks":6308,"Ġstretch":6309,"Ġwinged":6310,"Ġhumans":6311,"Ġstruggle":6312,"Ġtorn":6313,"Ġgripping":6314,"Ġcolored":6315,"ĠSecret":6316,"Ġlovely":6317,"Ġtips":6318,"Ġhonest":6319,"Ġtrolley":6320,"Ġrevealed":6321,"Ġgraveyard":6322,"Ġmoonlight":6323,"Ġsuffered":6324,"Ġconcentrate":6325,"Ġspeeding":6326,"Ġreflection":6327,"Ġphotographs":6328,"Ġamazement":6329,"Ġsurvived":6330,"grown":6331,"Ġuncomfortably":6332,"Ġcasual":6333,"Ġtracks":6334,"Ġtelevision":6335,"Ġbroadly":6336,"Ġswaying":6337,"Ġjudges":6338,"Ġindicated":6339,"Ġsavage":6340,"Neville":6341,"Ġdisbelief":6342,"Ġblazing":6343,"ĠAdvanced":6344,"ĠWizengamot":6345,"Ġlopsided":6346,"En":6347,"FF":6348,"Fred":6349,"Sever":6350,"ael":6351,"away":6352,"fe":6353,"glass":6354,"turn":6355,"taker":6356,"wing":6357,"water":6358,"inister":6359,"Ġwinning":6360,"recy":6361,"erry":6362,"Ġbill":6363,"Ġfi":6364,"Ġcong":6365,"Ġcost":6366,"Ġcars":6367,"Ġdwell":6368,"Ġming":6369,"Ġlung":6370,"Ġloyal":6371,"Ġthumb":6372,"Ġpul":6373,"Ġpig":6374,"Ġpity":6375,"Ġpati":6376,"Ġpacing":6377,"Ġhab":6378,"Ġnatural":6379,"omping":6380,"acon":6381,"oos":6382,"icial":6383,"irk":6384,"entions":6385,"ĠSorcerer":6386,"Ġrelu":6387,"ĠDO":6388,"ĠRight":6389,"keeper":6390,"ĠAst":6391,"pecto":6392,"ĠBE":6393,"Ġroof":6394,"ĠCad":6395,"Ġjaw":6396,"Ġgoin":6397,"elling":6398,"ĠLaw":6399,"ĠLooking":6400,"Ġvig":6401,"Ġleaping":6402,"inkled":6403,"Ġpopping":6404,"ĠNagini":6405,"Ġchilly":6406,"Ġquarter":6407,"Ġunknown":6408,"Ġhandful":6409,"Ġworrying":6410,"Ġscroll":6411,"Ġarea":6412,"Ġslug":6413,"Ġslipp":6414,"bbles":6415,"onder":6416,"ichael":6417,"avement":6418,"Ġswimming":6419,"ĠKnight":6420,"Ġknee":6421,"Ġkneeling":6422,"Ġbothered":6423,"Ġdram":6424,"Ġcrashed":6425,"Ġmeanwhile":6426,"Ġowners":6427,"Ġcursed":6428,"Ġminds":6429,"Ġcaretaker":6430,"Ġpleasantly":6431,"Ġeyeing":6432,"Ġinstinct":6433,"ivid":6434,"Ġindiffere":6435,"ronomy":6436,"Ġpossibility":6437,"Ġguilt":6438,"iction":6439,"Ġrig":6440,"Ġinspect":6441,"abbing":6442,"Ġincant":6443,"Ġexception":6444,"ountain":6445,"volo":6446,"Ġmidst":6447,"Ġveil":6448,"Ġpunct":6449,"Ġlearning":6450,"Ġsubjects":6451,"Ġordered":6452,"Ġabsolutely":6453,"Ġhonestly":6454,"Ġurge":6455,"OTTER":6456,"Ġconcentrating":6457,"Ġmusic":6458,"Ġgiggling":6459,"coat":6460,"Ġshudder":6461,"Ġpopular":6462,"Ġblonde":6463,"door":6464,"Leave":6465,"Ġscribbled":6466,"Ġgreeted":6467,"aimed":6468,"Ġembarrassed":6469,"Ġankles":6470,"books":6471,"Ġutterly":6472,"ĠDecree":6473,"Ġskrewts":6474,"Ġenchantments":6475,"Ġsternly":6476,"Ġbeetle":6477,"Ġdetennined":6478,"Ġumbrella":6479,"Ġmixture":6480,"ĠFriday":6481,"Ġgruffly":6482,"ĠSneak":6483,"Ġreluct":6484,"After":6485,"RA":6486,"Would":6487,"mother":6488,"uous":6489,"yn":6490,"zib":6491,"Ġtel":6492,"Ġtank":6493,"Ġtrait":6494,"Ġtugging":6495,"Ġwise":6496,"Ġwrest":6497,"rees":6498,"ites":6499,"Ġcakes":6500,"Ġthi":6501,"Ġprow":6502,"Ġgaped":6503,"Ġevent":6504,"Ġstack":6505,"ĠIT":6506,"ĠIrel":6507,"ics":6508,"ickered":6509,"ĠTen":6510,"Ġwearily":6511,"ĠDav":6512,"urry":6513,"Ġforbidden":6514,"Ġshone":6515,"Ġkissed":6516,"ilar":6517,"Ġras":6518,"Ġrumbling":6519,"ĠCarrow":6520,"ĠCatter":6521,"toe":6522,"Ġwhoever":6523,"antage":6524,"iggered":6525,"nair":6526,"Ġunn":6527,"Ġscattered":6528,"Ġclicking":6529,"Ġslide":6530,"ĠEl":6531,"onds":6532,"Ġswam":6533,"Ġswoll":6534,"Ġunderage":6535,"Ġunderground":6536,"Ġremark":6537,"Ġacted":6538,"Ġpron":6539,"Ġgoodness":6540,"ucking":6541,"Ġcontained":6542,"Ġfloated":6543,"Ġcheers":6544,"Ġcrate":6545,"Ġsurvey":6546,"Ġcurly":6547,"ĠStunned":6548,"Ġstudying":6549,"Ġobser":6550,"Ġdisturb":6551,"Ġdisturbed":6552,"Ġbadges":6553,"Ġcovering":6554,"Ġstraightening":6555,"Ġawoke":6556,"ithman":6557,"ĠFloo":6558,"Ġstuffing":6559,"Ġaccount":6560,"Ġaccording":6561,"Ġfleet":6562,"Ġpatted":6563,"Ġpatron":6564,"Ġhurriedly":6565,"Ġsweets":6566,"acingly":6567,"Ġtouching":6568,"rolling":6569,"they":6570,"Ġassured":6571,"Ġfrog":6572,"ĠMarch":6573,"Ġadding":6574,"pelli":6575,"Ġavoided":6576,"Ġfrowned":6577,"Ġnarrowly":6578,"Ġguarding":6579,"Ġbangs":6580,"Ġsneaking":6581,"Ġconcentration":6582,"Ġjerk":6583,"Ġmerpeople":6584,"Ġamazed":6585,".'\"":6586,"Ġanti":6587,"Ġdespite":6588,"Ġpunishment":6589,"Ġdrifting":6590,"Ġyawned":6591,"ĠFelicis":6592,"Ġgrateful":6593,"ĠChasers":6594,"Ġimprove":6595,"ĠBulgarian":6596,"Ġbigger":6597,"Ġreckons":6598,"Ġnecessary":6599,"Ġcontempt":6600,"ĠThestrals":6601,"Ġbeckoned":6602,"Ġimprison":6603,"Ġridiculous":6604,"Ġextinguished":6605,"Ġunmistak":6606,"Ġorphanage":6607,"ratul":6608,"ĠJohnson":6609,"zibah":6610,"Ġtelesc":6611,"ĠIreland":6612,"ĠCatterm":6613,"Ġswollen":6614,"ithmancy":6615,"?'":6616,"CT":6617,"Miss":6618,"ek":6619,"moon":6620,"ners":6621,"ob":6622,"pzibah":6623,"rish":6624,"tory":6625,"upef":6626,"Ġtucked":6627,"Ġaward":6628,"Ġhar":6629,"Ġhugged":6630,"eral":6631,"erved":6632,"Ġbasket":6633,"itte":6634,"Ġmale":6635,"Ġlimp":6636,"Ġpalm":6637,"Ġgift":6638,"Ġnin":6639,"lect":6640,"Ġsaus":6641,"Ġbeaded":6642,"Ġhistory":6643,"Ġwhirled":6644,"ĠMA":6645,"ĠTell":6646,"Ġate":6647,"ĠSE":6648,"ĠSept":6649,"ĠHepzibah":6650,"andel":6651,"ĠBook":6652,"Ġruck":6653,"Ġrushing":6654,"Ġfever":6655,"ify":6656,"ĠFather":6657,"Ġjudge":6658,"raft":6659,"ulous":6660,"Ġpoked":6661,"Ġchill":6662,"Ġcanv":6663,"bborn":6664,"Ġdonnit":6665,"Ġfluttering":6666,"Ġflickered":6667,"Ġbrut":6668,"Ġmomentarily":6669,"Ġsniggered":6670,"Ġstring":6671,"ĠChang":6672,"Ġowned":6673,"Ġgives":6674,"Ġbegin":6675,"Ġfirelight":6676,"isters":6677,"ampire":6678,"Ġsnap":6679,"ĠArithmancy":6680,"Ġcarved":6681,"Ġcoins":6682,"Ġannounced":6683,"Ġunderstanding":6684,"Ġbushy":6685,"Ġteams":6686,"ĠBeaters":6687,"Ġconfident":6688,"Ġprotected":6689,"orkins":6690,"Ġdeaths":6691,"ĠEverything":6692,"ĠEverybody":6693,"Ġintr":6694,"Ġinvestig":6695,"Ġdiscover":6696,"Ġrats":6697,"Ġfreed":6698,"Exactly":6699,"Ġaddress":6700,"Ġgloves":6701,"Ġbowler":6702,"Ġabsent":6703,"Ġadvanced":6704,"Ġposts":6705,"Ġattempts":6706,"ĠWhomping":6707,"Ġshoved":6708,"Ġcheerfully":6709,"Ġsparkling":6710,"Ġfuneral":6711,"ĠDelumin":6712,"Ġpaying":6713,"Ġblocking":6714,"Ġjinxes":6715,"Ġstrike":6716,"Ġrespond":6717,"Ġbenches":6718,"ĠDisapparate":6719,"Ġfeebly":6720,"Ġgrandmother":6721,"Ġstirred":6722,"Ġtortured":6723,"Ġvalu":6724,"Ġexperience":6725,"Ġchuckled":6726,"Ġcoward":6727,"Ġprisoners":6728,"Ġstubborn":6729,"Ġwithdrew":6730,"Ġalleyway":6731,"Ġprecisely":6732,"Ġcruel":6733,"ĠHorace":6734,"annah":6735,"Severus":6736,"ĠAstronomy":6737,"ĠDavies":6738,"ittee":6739,"ĠSeptember":6740,"'.\"":6741,"IC":6742,"LD":6743,"Making":6744,"Po":6745,"SE":6746,"ais":6747,"ailed":6748,"iance":6749,"lted":6750,"maker":6751,"sm":6752,"site":6753,"there":6754,"vad":6755,"wolves":6756,"xed":6757,"zes":6758,"Ġtit":6759,"Ġtearing":6760,"ints":6761,"Ġsarc":6762,"Ġhicc":6763,"era":6764,"Ġbars":6765,"Ġboring":6766,"Ġbouncing":6767,"Ġfashion":6768,"Ġfascin":6769,"ĠHorn":6770,"ĠHER":6771,"ĠHannah":6772,"athed":6773,"Ġcards":6774,"Ġcreaked":6775,"orks":6776,"Ġmor":6777,"Ġmant":6778,"Ġmuddy":6779,"Ġpinned":6780,"Ġpausing":6781,"Ġpipe":6782,"Ġgrief":6783,"Ġsal":6784,"imag":6785,"Ġstreaked":6786,"ĠIrish":6787,"icated":6788,"alk":6789,"rigg":6790,"umst":6791,"gend":6792,"Ġwerewolves":6793,"Ġmead":6794,"Ġrot":6795,"Ġringing":6796,"Ġragged":6797,"ĠCle":6798,"ĠCruci":6799,"Ġgoble":6800,"cking":6801,"Ġsole":6802,"Ġsobs":6803,"ĠDumbledores":6804,"Ġagony":6805,"Ġpod":6806,"Ġchur":6807,"elcome":6808,"Ġqual":6809,"Ġclatter":6810,"Ġmyst":6811,"Ġorn":6812,"Ġgritted":6813,"Ġflown":6814,"Ġflicked":6815,"Ġflask":6816,"Ġlonging":6817,"oday":6818,"Ġundert":6819,"berts":6820,"Ġsnakes":6821,"ĠThrough":6822,"Ġelves":6823,"Ġperi":6824,"ĠJorkins":6825,"Ġbegun":6826,"shaped":6827,"osc":6828,"Ġpleasant":6829,"Ġsteep":6830,"Ġyells":6831,"Ġreco":6832,"Ġdrove":6833,"ĠAnimag":6834,"racting":6835,"Ġdetentions":6836,"Ġlowering":6837,"Ġmovements":6838,"Ġdefense":6839,"Ġdefens":6840,"ĠFluffy":6841,"Ġcompared":6842,"atives":6843,"Ġsurprising":6844,"tendable":6845,"Ġseries":6846,"Ġconfidence":6847,"Ġvanish":6848,"OUR":6849,"ugust":6850,"Ġbattered":6851,"Ġinvited":6852,"ĠWizards":6853,"Ġinformed":6854,"Ġtempor":6855,"Ġprompt":6856,"Ġadvantage":6857,"Ġdormitories":6858,"Shall":6859,"Ġtrolls":6860,"Ġgamekeeper":6861,"Ġinjuries":6862,"Ġcourage":6863,"Ġupwards":6864,"Ġdisappointment":6865,"Ġgloomy":6866,"Ġproudly":6867,"Ġperformed":6868,"Ġmountains":6869,"Ġunwra":6870,"Ġpreferred":6871,"Ġdespair":6872,"Ġfancy":6873,"Ġcrouching":6874,"Ġviolent":6875,"Ġviolently":6876,"Ġtorture":6877,"Ġstiffly":6878,"Ġseparated":6879,"chers":6880,"Ġresembled":6881,"Ġanimal":6882,"Ġcampsite":6883,"Ġneatly":6884,"ĠNevertheless":6885,"Ġautom":6886,"ĠRoberts":6887,"Ġdeafening":6888,"Ġimpressive":6889,"Ġsubstance":6890,"Ġbetrayed":6891,"Ġhuddled":6892,"Ġpupils":6893,"Ġtoppled":6894,"iosity":6895,"Ġwreck":6896,"Ġmental":6897,"Ġinfonnation":6898,"Ġmingled":6899,"Ġpatronum":6900,"ĠCattermole":6901,"ĠDeluminator":6902,"Ġgoblets":6903,"About":6904,"BLE":6905,"First":6906,"Our":6907,"Pre":6908,"de":6909,"gn":6910,"jo":6911,"sack":6912,"uish":6913,"vy":6914,"whe":6915,"ware":6916,"Ġes":6917,"Ġze":6918,"Ġty":6919,"Ġtie":6920,"hem":6921,"inc":6922,"Ġwann":6923,"rene":6924,"edalus":6925,"erted":6926,"Ġbann":6927,"Ġbounced":6928,"Ġbacon":6929,"Ġfence":6930,"Ġfountain":6931,"Ġcream":6932,"idents":6933,"Ġheel":6934,"Ġdared":6935,"Ġdarting":6936,"Ġlone":6937,"Ġlaun":6938,"Ġthief":6939,"Ġpavement":6940,"Ġinh":6941,"Ġsaving":6942,"Ġeer":6943,"icol":6944,"ĠMichael":6945,"ential":6946,"ĠSick":6947,"Ġredd":6948,"ĠRest":6949,"Ġformed":6950,"Ġserene":6951,"ums":6952,"ĠPOTTER":6953,"ĠAugust":6954,"Ġkick":6955,"Ġrare":6956,"ĠCl":6957,"ĠClu":6958,"ĠFOR":6959,"Ġjug":6960,"Ġjolt":6961,"ortal":6962,"Ġdevelo":6963,"Ġunh":6964,"Ġunfortunately":6965,"Ġseek":6966,"Ġplump":6967,"Ġplanned":6968,"Ġcliff":6969,"Ġtwitching":6970,"Ġtwinkling":6971,"Ġflushed":6972,"ometimes":6973,"Ġens":6974,"Ġwatery":6975,"hole":6976,"Ġspending":6977,"Ġbrick":6978,"ĠButterbeer":6979,"uffs":6980,"ontroll":6981,"ucky":6982,"uckles":6983,"Ġamusing":6984,"Ġgreater":6985,"aterial":6986,"Ġcuriosity":6987,"Ġhairs":6988,"ips":6989,"Ġjoking":6990,"Ġfriendship":6991,"Ġhopeful":6992,"Ġdirected":6993,"locked":6994,"Ġinsist":6995,"Ġsprinting":6996,"Ġapproach":6997,"Ġsuspect":6998,"Ġhangings":6999,"Ġvisitors":7000,"Ġeagle":7001,"Stand":7002,"ĠTHIR":7003,"Ġblankets":7004,"Ġghostly":7005,"Ġtaller":7006,"Ġpolished":7007,"Ġpolitely":7008,"Ġdisgr":7009,"Ġcircumst":7010,"Ġdeparted":7011,"Ġlinger":7012,"Ġsnatching":7013,"Ġincredible":7014,"Ġgeneral":7015,"Ġblinding":7016,"Ġmaintain":7017,"Ġdueling":7018,"Ġfairly":7019,"Ġdevoted":7020,"Ġthundering":7021,"Ġglimpsed":7022,"Ġgrasped":7023,"Ġintroduce":7024,"Ġintended":7025,"Ġtrapdoor":7026,"Ġmounted":7027,"ĠMalkin":7028,"Ġtwigs":7029,"Ġexasperated":7030,"Ġlazily":7031,"ĠCommittee":7032,"Ġretrieve":7033,"Ġcurrently":7034,"Ġvenom":7035,"Ġsoup":7036,"Ġmilk":7037,"ĠSneakosc":7038,"Ġrucksack":7039,"Ġcanvas":7040,"Ġvaluable":7041,"Ġpromptly":7042,"Mugg":7043,"Molly":7044,"NO":7045,"OP":7046,"UN":7047,"US":7048,"Un":7049,"bell":7050,"craft":7051,"ended":7052,"hood":7053,"handed":7054,"jar":7055,"ma":7056,"mpt":7057,"minded":7058,"sk":7059,"then":7060,"Ġ?":7061,"ĠYeah":7062,"Ġtugged":7063,"Ġtapping":7064,"Ġaud":7065,"Ġaching":7066,"Ġajar":7067,"Ġsess":7068,"Ġwoken":7069,"Ġwrigg":7070,"ouet":7071,"arling":7072,"Ġbowing":7073,"Ġbund":7074,"Ġbike":7075,"Ġfish":7076,"ĠHIM":7077,"ats":7078,"ators":7079,"iter":7080,"Ġcam":7081,"orse":7082,"Ġlady":7083,"Ġlangu":7084,"Ġpal":7085,"Ġpearly":7086,"ania":7087,"Ġgir":7088,"Ġinn":7089,"lected":7090,"lebolt":7091,"Ġsacked":7092,"Ġelder":7093,"acles":7094,"veying":7095,"Ġrequire":7096,"ĠDedalus":7097,"Ġantic":7098,"ookwood":7099,"ĠRonan":7100,"ĠAh":7101,"ĠAmos":7102,"Ġshaw":7103,"Ġshows":7104,"Ġshrive":7105,"ĠHealer":7106,"...?\"":7107,"emb":7108,"ements":7109,"unched":7110,"indly":7111,"Ġknight":7112,"Ġruddy":7113,"Ġfeed":7114,"Ġbutton":7115,"ĠFive":7116,"Ġgovern":7117,"Ġability":7118,"Ġlegend":7119,"istered":7120,"Ġofficial":7121,"izz":7122,"ĠNumber":7123,"Ġchandel":7124,"ieving":7125,"Ġworn":7126,"Ġscut":7127,"Ġscore":7128,"Ġscales":7129,"Ġblown":7130,"Ġcomb":7131,"ĠEaster":7132,"Ġswore":7133,"abouts":7134,"Ġarrog":7135,"ĠKnow":7136,"ĠVoldemorts":7137,"Ġload":7138,"Ġbru":7139,"Ġpride":7140,"ishment":7141,"Ġhoisted":7142,"Ġattitude":7143,"ĠInside":7144,"Ġemotion":7145,"Ġskill":7146,"Ġskidded":7147,"shirt":7148,"Ġmagically":7149,"Three":7150,"Ġrestr":7151,"Ġcommun":7152,"Ġdeadly":7153,"Ġemptied":7154,"ummy":7155,"Ġannchair":7156,"Ġbush":7157,"ĠHeads":7158,"Ġbubble":7159,"Ġhatred":7160,"box":7161,"Ġinterf":7162,"Ġrefusing":7163,"ĠBecause":7164,"Ġinsane":7165,"Ġuncontroll":7166,"Ġprotr":7167,"Ġrepres":7168,"Ġsprout":7169,"Ġpressure":7170,"Ġcenturies":7171,"ĠShield":7172,"ĠWizardry":7173,"ĠExtendable":7174,"Ġimagining":7175,"Ġdoubted":7176,"ĠErrol":7177,"Excuse":7178,"Ġtorches":7179,"ĠMarvolo":7180,"Ġshops":7181,"Ġhotly":7182,"Shh":7183,"Ġenjoyed":7184,"Ġpacking":7185,"Ġsneering":7186,"Ġdepartment":7187,"Ġeaten":7188,"dukes":7189,"Ġsuffering":7190,"Ġconceal":7191,"Arry":7192,"ĠMerlin":7193,"ĠMudbloods":7194,"Ġunusually":7195,"ĠSquad":7196,"Ġexistence":7197,"Ġurgent":7198,"Ġyawning":7199,"Ġscreeched":7200,"Ġexperienced":7201,"Ġflickering":7202,"Percy":7203,"Perhaps":7204,"ĠOWLs":7205,"Ġtotal":7206,"Ġswelled":7207,"mosp":7208,"Ġwidened":7209,"ĠChaser":7210,"Ġachieved":7211,"Ġtransparent":7212,"Ġneighbors":7213,"mnio":7214,"Ġpiercing":7215,"ĠShacklebolt":7216,"Ġpudding":7217,"Ġgathering":7218,"Ġschedule":7219,"Ġenemy":7220,"IGHT":7221,"Ġdazzling":7222,"Ġteacup":7223,"Ġtaste":7224,"Ġfiery":7225,"Ġhabit":7226,"Ġrigid":7227,"Ġsurveyed":7228,"vada":7229,"ĠCruciatus":7230,"Ġchurch":7231,"Ġperiod":7232,"Has":7233,"Wow":7234,"Winky":7235,"com":7236,"hod":7237,"houl":7238,"jected":7239,"lp":7240,"plo":7241,"zo":7242,"Ġ,\"":7243,"Ġrou":7244,"Ġtin":7245,"Ġtents":7246,"Ġbiz":7247,"Ġbread":7248,"Ġbanned":7249,"Ġfem":7250,"Ġfog":7251,"Ġfonn":7252,"ĠHar":7253,"Ġtomb":7254,"Ġcust":7255,"Ġcries":7256,"asked":7257,"llow":7258,"Ġheaving":7259,"eness":7260,"Ġlarg":7261,"Ġthumping":7262,"Ġpace":7263,"Ġnorth":7264,"Ġnudged":7265,"Ġyel":7266,"acious":7267,"Ġstif":7268,"Ġstooped":7269,"iciously":7270,"Ġwhim":7271,"ĠMand":7272,"ĠThose":7273,"Ġatmosp":7274,"ĠSund":7275,"Ġreward":7276,"ĠDirk":7277,"stones":7278,"standing":7279,"ĠRes":7280,"ĠRidd":7281,"chley":7282,"ĠPre":7283,"allen":7284,"Ġship":7285,"pend":7286,"Ġsob":7287,"Ġleap":7288,"Ġnoble":7289,"ffee":7290,"ularly":7291,"Ġoffering":7292,"venge":7293,"Ġspilled":7294,"Ġhandbag":7295,"Ġscanned":7296,"ĠVol":7297,"Ġheadmistress":7298,"ogan":7299,"ĠOmnio":7300,"ption":7301,"Ġswooping":7302,"Ġflaming":7303,"ĠUp":7304,"ĠUse":7305,"Ġener":7306,"Ġdish":7307,"Ġwhereabouts":7308,"Ġtells":7309,"Ġnevertheless":7310,"dden":7311,"pediment":7312,"Ġhovering":7313,"hension":7314,"onsense":7315,"rewd":7316,"Ġcleaning":7317,"ĠThick":7318,"Ġcurved":7319,"Ġblackened":7320,"Ġskinny":7321,"Ġshouts":7322,"Ġfires":7323,"tenno":7324,"Ġcareer":7325,"Ġresumed":7326,"Ġtrem":7327,"Ġdeepest":7328,"erence":7329,"ĠYeh":7330,"ronted":7331,"Ġbushes":7332,"Ġarrive":7333,"Ġcomplex":7334,"Ġrub":7335,"ĠChosen":7336,"Ġkitchens":7337,"Ġexplaining":7338,"ĠBagshot":7339,"Ġearshot":7340,"Ġcornered":7341,"Ġassume":7342,"Ġconscious":7343,"Ġfrequ":7344,"Ġfrightening":7345,"Ġshrieking":7346,"Ġgroups":7347,"Ġimmediate":7348,"Ġcreep":7349,"Ġforcefully":7350,"Ġelect":7351,"rington":7352,"Ġgrabbing":7353,"LEY":7354,"Ġdepart":7355,"ĠLeg":7356,"Ġafford":7357,"Ġefforts":7358,"Ġsleeves":7359,"Ready":7360,"Ġspreading":7361,"Ġunpleasantly":7362,"Ġcarriages":7363,"ANG":7364,"Ġdamn":7365,"Ġsurvive":7366,"Ġchattering":7367,"Ġtriumphant":7368,"Ġ55":7369,"Ġearnestly":7370,"Ġseparate":7371,"Ġrustling":7372,"Ġengine":7373,"Ġanimals":7374,"Ġdazed":7375,"Ġissued":7376,"Ġswelling":7377,"Ġdismiss":7378,"ĠFeeling":7379,"Ġrequired":7380,"Ġankle":7381,"Ġdistractedly":7382,"Ġdisgusting":7383,"Ġimmensely":7384,"Ġprickling":7385,"Ġcushion":7386,"Ġflowers":7387,"Ġdeny":7388,"Ġretreated":7389,"Ġsmoking":7390,"Ġapolog":7391,"ĠWhee":7392,"Ġfeatures":7393,"ĠBaron":7394,"Ġeyelids":7395,"Ġsandw":7396,"ĠHoneydukes":7397,"ĠBritain":7398,"ĠCadogan":7399,"upefy":7400,"ĠHorntail":7401,"Ġautomatically":7402,"Ġserenely":7403,"Ġcircumstances":7404,"Ġchandelier":7405,"Ġuncontrollably":7406,"Ġlargest":7407,"Ġatmosphere":7408,"tennole":7409,"Hmm":7410,"RON":7411,"Sc":7412,"Wonder":7413,"che":7414,"fus":7415,"flo":7416,"forc":7417,"tened":7418,"two":7419,"viously":7420,"writ":7421,"Ġ4":7422,"Ġtangled":7423,"Ġsip":7424,"Ġsinister":7425,"Ġhooked":7426,"edav":7427,"inge":7428,"Ġbanged":7429,"Ġorig":7430,"ĠHang":7431,"orious":7432,"Ġdug":7433,"Ġmourn":7434,"Ġpiles":7435,"Ġgaping":7436,"Ġnamed":7437,"Ġnature":7438,"otted":7439,"acter":7440,"uster":7441,"Ġstock":7442,"Ġstraw":7443,"Ġstamm":7444,"ĠIndeed":7445,"irmed":7446,"ĠTime":7447,"Ġweed":7448,"Ġrejo":7449,"ĠDr":7450,"ĠDON":7451,"ager":7452,"ĠRog":7453,"Ġseated":7454,"umos":7455,"ĠAT":7456,"ĠAm":7457,"ĠAcc":7458,"ĠAmy":7459,"Ġshaped":7460,"Ġshrewd":7461,"ĠWE":7462,"ĠWed":7463,"Ġfruit":7464,"andom":7465,"ĠGold":7466,"ilim":7467,"Ġrace":7468,"Ġrarely":7469,"Ġrandom":7470,"ĠCont":7471,"astered":7472,"Ġbacks":7473,"Ġwhatso":7474,"Ġvicious":7475,"Ġexcl":7476,"lfriend":7477,"ulation":7478,"ssy":7479,"ĠNE":7480,"Ġchoo":7481,"Ġchann":7482,"Ġchasing":7483,"Ġuses":7484,"Ġunre":7485,"arer":7486,"Ġgotta":7487,"Ġscars":7488,"Ġblowing":7489,"ĠON":7490,"ĠOur":7491,"Ġtrusted":7492,"Ġglum":7493,"Ġglowed":7494,"Ġgrace":7495,"Ġswarm":7496,"Ġfluffy":7497,"Ġart":7498,"ĠKend":7499,"ĠKedav":7500,"Ġimage":7501,"Ġteen":7502,"Ġpecul":7503,"Ġprocess":7504,"Ġprice":7505,"Ġhooting":7506,"Ġsnout":7507,"Ġfeels":7508,"Ġwinding":7509,"Ġcrashing":7510,"Ġentr":7511,"Ġsurveying":7512,"ĠBlotts":7513,"Ġblackboard":7514,"Ġperf":7515,"ĠJune":7516,"ĠUnf":7517,"Ġsquashed":7518,"Ġuntidy":7519,"ricted":7520,"undered":7521,"Ġbobbing":7522,"Ġforeign":7523,"Ġcommand":7524,"erer":7525,"Ġriver":7526,"Ġhopelessly":7527,"Ġdefensive":7528,"ĠFlourish":7529,"Ġcompan":7530,"Ġbuz":7531,"Ġarriving":7532,"Ġruined":7533,"locks":7534,"Ġmistress":7535,"Ġfreezing":7536,"Ġsleepy":7537,"Ġevents":7538,"Ġcollided":7539,"lines":7540,"Ġaddition":7541,"ĠSecrecy":7542,"Ġdrinks":7543,"Ġforgetting":7544,"Ġunaware":7545,"Ġpolite":7546,"Ġjeal":7547,"ĠBurkes":7548,"Ġfollowers":7549,"ĠLev":7550,"ĠLean":7551,"Ġshopping":7552,"Ġsleek":7553,"Ġlingered":7554,"iasm":7555,"Ġsenses":7556,"iolet":7557,"Ġamazing":7558,"Ġspectacular":7559,"Ġdefeated":7560,"Ġcasually":7561,"Ġbranch":7562,"Ġshuddered":7563,"Ġjudging":7564,"Ġladder":7565,"Ġgesture":7566,"Ġshifting":7567,"Ġthousands":7568,"Ġindicating":7569,"Ġscribbling":7570,"Ġambition":7571,"ĠMacnair":7572,"Ġscowled":7573,"Ġflooding":7574,"Ġsniffed":7575,"Ġgleefully":7576,"Ġbucket":7577,"Ġfragment":7578,"ĠWarrington":7579,"Ġoutraged":7580,"ĠPadma":7581,"Ġhammering":7582,"Ġpenetrate":7583,"Remember":7584,"Ġsucceeded":7585,"Ġencourag":7586,"Ġvictims":7587,"ĠSummoning":7588,"Ġdissolved":7589,"ĠInferi":7590,"Ġsensed":7591,"ĠCattennole":7592,"Ġlungs":7593,"Ġstubbornly":7594,"Ġmantelp":7595,"Ġespecially":7596,"Ġlaunched":7597,"ĠSunday":7598,"ĠOmnioculars":7599,"Ġwhatsoever":7600,"ĠKendra":7601,"ĠKedavra":7602,"ACK":7603,"Haven":7604,"KE":7605,"May":7606,"Pe":7607,"Pr":7608,"Something":7609,"TY":7610,"Those":7611,"YOU":7612,"aired":7613,"bike":7614,"eal":7615,"houet":7616,"mat":7617,"rick":7618,"sers":7619,"ties":7620,"uct":7621,"uber":7622,"ubby":7623,"vor":7624,"Ġtar":7625,"Ġtact":7626,"Ġtale":7627,"Ġtasks":7628,"hearted":7629,"Ġais":7630,"inent":7631,"inth":7632,"Ġwinking":7633,"Ġwider":7634,"ouched":7635,"Ġbone":7636,"Ġbolt":7637,"Ġfading":7638,"Ġtoes":7639,"Ġtooth":7640,"Ġmim":7641,"Ġmaterial":7642,"Ġmasked":7643,"Ġlunged":7644,"Ġparted":7645,"Ġinqu":7646,"Ġinex":7647,"oms":7648,"ldrons":7649,"verell":7650,"ether":7651,"iches":7652,"Ġwhimp":7653,"ĠME":7654,"ĠTre":7655,"ĠSure":7656,"ĠDet":7657,"ĠDay":7658,"ĠDipp":7659,"urd":7660,"see":7661,"ĠRookwood":7662,"rium":7663,"Ġsealed":7664,"umn":7665,"ĠPol":7666,"terge":7667,"ardon":7668,"Ġhers":7669,"ĠWHAT":7670,"Ġfrantic":7671,"Ġdoe":7672,"unp":7673,"ĠBow":7674,"ĠBode":7675,"Ġruffled":7676,"ĠCole":7677,"Ġlivid":7678,"Ġexe":7679,"Ġextend":7680,"ulsion":7681,"olded":7682,"Ġanythin":7683,"Ġchances":7684,"Ġsphere":7685,"Ġplants":7686,"Ġslits":7687,"Ġwandered":7688,"Ġmopping":7689,"ĠEars":7690,"Ġsmart":7691,"ounds":7692,"Ġglist":7693,"Ġswive":7694,"Ġmanner":7695,"this":7696,"Ġdarker":7697,"Ġattract":7698,"ĠQuick":7699,"Ġfinds":7700,"Ġbiting":7701,"ĠThink":7702,"ĠThurs":7703,"Ġperfonn":7704,"ĠStand":7705,"Ġstew":7706,"Ġmouths":7707,"Ġmouthful":7708,"Ġcauldrons":7709,"Ġbelieves":7710,"Ġboiling":7711,"Ġgreasy":7712,"ĠGrim":7713,"Ġpainted":7714,"ĠSeven":7715,"Ġlots":7716,"Ġheartily":7717,"Ġawait":7718,"Ġanswers":7719,"Ġanswering":7720,"Ġrip":7721,"Ġgreenish":7722,"ĠHeadquarters":7723,"Ġpointless":7724,"Ġinterrog":7725,"Ġpatches":7726,"Ġpersonally":7727,"Ġvanishing":7728,"Ġrepair":7729,"Ġspring":7730,"letchley":7731,"OUT":7732,"Ġthrobbing":7733,"Ġinvol":7734,"Ġflattened":7735,"Ġreasonably":7736,"Still":7737,"Isn":7738,"Ġcreaking":7739,"Ġcreeping":7740,"Ġdiscussion":7741,"Ġpossessed":7742,"Ġcircling":7743,"ennis":7744,"Ġinfl":7745,"ĠYOUR":7746,"Ġrevealing":7747,"ARRY":7748,"Ġpreviously":7749,"Ġpillows":7750,"Ġservice":7751,"Ġlawns":7752,"Ġscratched":7753,"Ġcharms":7754,"Ġexchange":7755,"Ġtreated":7756,"Ġgrandfather":7757,"Ġstrolled":7758,"Ġsmirked":7759,"Ġgesturing":7760,"Ġsneaked":7761,"Ġenthusiasm":7762,"Ġscreech":7763,"Ġbustling":7764,"Ġnerves":7765,"Ġissuing":7766,"ixty":7767,"Ġscowling":7768,"Ġwidening":7769,"urgis":7770,"Ġidentical":7771,"Ġachieve":7772,"Ġpetrified":7773,"Ġwitnessed":7774,"Ġcushions":7775,"Ġequal":7776,"Ġskelet":7777,"Ġrippling":7778,"Ġmotorbike":7779,"Ġhoops":7780,"Ġmildly":7781,"addock":7782,"Ġsympathe":7783,"Ġominous":7784,"ĠRufus":7785,"Ġshakily":7786,"Ġgrumpily":7787,"ĠDungbom":7788,"Ġantidote":7789,"Ġdeliberately":7790,"Ġcongratul":7791,"Ġunmistakable":7792,"Ġundertone":7793,"ĠSickles":7794,"ĠSneakoscope":7795,"Ġcamera":7796,"Ġgirlfriend":7797,"Ġbizar":7798,"Ġfemale":7799,"ĠRiddles":7800,"ĠRoger":7801,"Ġpeculiar":7802,"ĠLeanne":7803,"Ġmantelpiece":7804,"tergeist":7805,"ĠThursday":7806,"Accio":7807,"Couldn":7808,"Even":7809,"Five":7810,"IL":7811,"IVE":7812,"KS":7813,"Pet":7814,"QU":7815,"Sit":7816,"Two":7817,"bal":7818,"banks":7819,"con":7820,"can":7821,"gus":7822,"iven":7823,"just":7824,"kno":7825,"ms":7826,"made":7827,"pro":7828,"sest":7829,"vil":7830,"works":7831,"Ġ3":7832,"Ġtu":7833,"Ġturb":7834,"Ġaver":7835,"Ġsul":7836,"Ġwinked":7837,"ounts":7838,"Ġhom":7839,"Ġbould":7840,"Ġbully":7841,"Ġbarm":7842,"Ġferv":7843,"ĠHARRY":7844,"Ġtown":7845,"Ġcub":7846,"Ġcrawled":7847,"aser":7848,"Ġheir":7849,"Ġheap":7850,"Ġded":7851,"Ġdign":7852,"Ġdashing":7853,"Ġmold":7854,"Ġlid":7855,"Ġlimb":7856,"anked":7857,"Ġgit":7858,"Ġinher":7859,"Ġsallow":7860,"Ġyards":7861,"Ġwasted":7862,"Ġbezo":7863,"acted":7864,"Ġstarry":7865,"Ġstones":7866,"ĠMom":7867,"ĠTues":7868,"ĠToday":7869,"Ġrein":7870,"ĠDem":7871,"ĠDennis":7872,"aggy":7873,"ste":7874,"ribut":7875,"chaun":7876,"Ġforty":7877,"ĠPince":7878,"ĠRonald":7879,"Ġshivered":7880,"Ġlookout":7881,"Ġframes":7882,"Ġmeal":7883,"Ġrack":7884,"Ġfears":7885,"aky":7886,"Ġbacking":7887,"Ġvom":7888,"Ġvampire":7889,"Ġrobe":7890,"Ġalert":7891,"Ġovergrown":7892,"ersed":7893,"Ġsugar":7894,"ization":7895,"urning":7896,"Ġcondu":7897,"assed":7898,"Ġhandwrit":7899,"ĠWeird":7900,"Ġplacing":7901,"Ġclas":7902,"Ġclaim":7903,"Ġslowed":7904,"Ġwandlight":7905,"Ġheadline":7906,"ĠEd":7907,"ogether":7908,"Ġhowled":7909,"Ġsomewhat":7910,"Ġglided":7911,"olia":7912,"Ġmane":7913,"thorn":7914,"Ġprecious":7915,"Ġimper":7916,"teenth":7917,"Ġproceed":7918,"Ġprat":7919,"uckle":7920,"Ġcontaining":7921,"plexed":7922,"Ġattached":7923,"Ġtalent":7924,"Ġsnigg":7925,"Ġstrang":7926,"Ġstrict":7927,"Ġdaylight":7928,"Ġsupported":7929,"Ġsidecar":7930,"Ġblackness":7931,"ĠStre":7932,"awlish":7933,"Ġfellows":7934,"Ġsmallest":7935,"Ġcares":7936,"Ġstealing":7937,"urses":7938,"cloth":7939,"Ġresign":7940,"Think":7941,"Ġtopmost":7942,"Ġscarves":7943,"ension":7944,"okey":7945,"Ġadvent":7946,"Ġguests":7947,"Ġdetect":7948,"Ġmarching":7949,"Ġcats":7950,"Ġripping":7951,"Ġdefiantly":7952,"Ġbuying":7953,"Ġbuilt":7954,"Ġrefer":7955,"Ġedges":7956,"Ġmethod":7957,"Ġconfusion":7958,"Ġnecks":7959,"Ġdreaming":7960,"ounce":7961,"Ġyoungest":7962,"Ġtripped":7963,"Ġregard":7964,"Ġdrawer":7965,"Ġdrawers":7966,"Ġwomen":7967,"Ġwrithing":7968,"Ġwoods":7969,"ĠShunp":7970,"Ġgleamed":7971,"Ġcopies":7972,"Ġfreck":7973,"Ġdeserved":7974,"Stupefy":7975,"Ġtempt":7976,"Ġappearing":7977,"Ġcounted":7978,"Ġpossessions":7979,"Ġspirit":7980,"Ġgroan":7981,"Ġexciting":7982,"Ġaffection":7983,"Ġstatues":7984,"Ġreceive":7985,"Ġjerking":7986,"Ġuneasy":7987,"ĠGalleon":7988,"Ġbeaten":7989,"AND":7990,"Ġstroking":7991,"Ġbothering":7992,"Ġsloping":7993,"Ġreappear":7994,"Ġsweaty":7995,"Ġcharged":7996,"Ġshifted":7997,"Ġastonishment":7998,"Ġbustled":7999,"Ġgnarled":8000,"Ġmodel":8001,"Ġbriefly":8002,"Ġgrasp":8003,"Ġcapture":8004,"Ġappreciate":8005,"Ġdodged":8006,"Ġdecorated":8007,"nesse":8008,"nesday":8009,"ĠMagn":8010,"Ġcompete":8011,"Ġboots":8012,"Ġreassuring":8013,"Ġrelaxed":8014,"Ġhealth":8015,"Ġintense":8016,"Ġauthority":8017,"ĠWitchcraft":8018,"ĠEnglish":8019,"ĠSkrew":8020,"ĠBox":8021,"Ġbillowing":8022,"Ġvigor":8023,"Ġexceptionally":8024,"ĠCarrows":8025,"ĠMarchbanks":8026,"pelliarm":8027,"Ġtelescope":8028,"Ġbrutal":8029,"Ġlonely":8030,"Ġanticip":8031,"Ġprotruding":8032,"ĠThicknesse":8033,"Ġoriginal":8034,"Ġstammered":8035,"ĠWednesday":8036,"ĠTuesday":8037,"ĠShunpike":8038,"''":8039,"Bill":8040,"Che":8041,"Could":8042,"Ended":8043,"Four":8044,"Gr":8045,"Great":8046,"Min":8047,"Ouch":8048,"cast":8049,"cers":8050,"cies":8051,"fs":8052,"free":8053,"fixed":8054,"gu":8055,"iently":8056,"look":8057,"nut":8058,"vol":8059,"Ġtough":8060,"Ġsons":8061,"Ġhie":8062,"edle":8063,"onestly":8064,"ero":8065,"Ġbol":8066,"Ġbreed":8067,"Ġfed":8068,"Ġfumbled":8069,"Ġca":8070,"Ġcraw":8071,"Ġcooking":8072,"lling":8073,"idering":8074,"orridge":8075,"orian":8076,"Ġduck":8077,"Ġdirt":8078,"Ġdais":8079,"Ġlat":8080,"Ġlace":8081,"Ġpine":8082,"Ġnaturally":8083,"Ġnonsense":8084,"leg":8085,"lets":8086,"Ġbend":8087,"Ġhiss":8088,"Ġstonn":8089,"ĠIS":8090,"ioned":8091,"Ġwhiz":8092,"ĠMon":8093,"adies":8094,"ĠSide":8095,"ĠSurely":8096,"Ġreaction":8097,"Ġrevenge":8098,"sec":8099,"agers":8100,"ĠRow":8101,"Ġforth":8102,"Ġsees":8103,"umes":8104,"Ġshared":8105,"Ġshower":8106,"Ġshaggy":8107,"Ġkidding":8108,"ĠHeir":8109,"ĠWILL":8110,"andal":8111,"ĠBas":8112,"ĠBANG":8113,"Ġmend":8114,"Ġmeasures":8115,"Ġknuckles":8116,"Ġride":8117,"Ġallowing":8118,"Ġsheet":8119,"elle":8120,"quee":8121,"ĠListen":8122,"Ġnoses":8123,"ulting":8124,"Ġposter":8125,"ĠNO":8126,"Ġchased":8127,"Ġchallen":8128,"Ġspilling":8129,"Ġspitting":8130,"Ġscru":8131,"Ġscathing":8132,"Ġseeking":8133,"ĠVer":8134,"Ġclam":8135,"Ġclattering":8136,"Ġclanking":8137,"Ġwandmaker":8138,"ĠOther":8139,"ĠOcto":8140,"Ġtwit":8141,"Ġsmug":8142,"Ġdoorkno":8143,"Ġhowl":8144,"Ġglare":8145,"Ġglory":8146,"Ġgrudging":8147,"Ġswig":8148,"Ġflapping":8149,"Ġclosest":8150,"Ġwilling":8151,"ĠKilling":8152,"Ġdisag":8153,"Ġmug":8154,"Ġremote":8155,"Ġremorse":8156,"Ġpropped":8157,"Ġsilhouet":8158,"Ġsecure":8159,"Ġstraining":8160,"Ġamid":8161,"Quick":8162,"Ġclearer":8163,"Ġsuppress":8164,"Ġschoolbag":8165,"Ġraw":8166,"Ġelb":8167,"tyard":8168,"ipes":8169,"Ġfinishing":8170,"Ġjoining":8171,"blue":8172,"ĠUnfortunately":8173,"Ġbeginning":8174,"Ġsquat":8175,"untled":8176,"Ġboar":8177,"Ġbooming":8178,"ĠArgus":8179,"ival":8180,"Ġparaly":8181,"Ġsignific":8182,"Ġmaroon":8183,"Ġhearth":8184,"umming":8185,"Ġhallway":8186,"ĠAtrium":8187,"Ġbubbles":8188,"Ġserved":8189,"Ġeduc":8190,"Ġinsult":8191,"Ġdangerously":8192,"Ġconfisc":8193,"ĠFlet":8194,"Ġreported":8195,"ounter":8196,"Ġcorners":8197,"Ġgasping":8198,"Ġsplin":8199,"Ġcollar":8200,"Ġcrossbow":8201,"Ġpractical":8202,"Ġquestioning":8203,"Ġwindowsill":8204,"Probably":8205,"ĠCrack":8206,"Ġinvite":8207,"Ġinvitation":8208,"Ġimagination":8209,"Ġpunished":8210,"Ġtransfixed":8211,"Ġcolors":8212,"which":8213,"Ġtemple":8214,"Ġtrailing":8215,"Ġguards":8216,"REE":8217,"Ġconvince":8218,"haust":8219,"Ġreminding":8220,"Ġurged":8221,"Ġjeering":8222,"Ġgroped":8223,"ĠGobl":8224,"Ġheadmasters":8225,"Ġdriven":8226,"Ġdriving":8227,"Ġaffect":8228,"Ġcomplicated":8229,"Ġmusc":8230,"ĠPeverell":8231,"Ġpreparing":8232,"Ġcourtyard":8233,"Ġdelivered":8234,"Ġnoisy":8235,"Ġmurderer":8236,"Ġgenerally":8237,"Ġmainly":8238,"Ġaiming":8239,"Ġstirring":8240,"Ġlimping":8241,"Ġmagnified":8242,"Ġdeliver":8243,"Ġgnome":8244,"Ġproduce":8245,"Ġpredict":8246,"Ġflooded":8247,"cution":8248,"Ġstarving":8249,"Ġskrewt":8250,"Ġcandlelight":8251,"Ġborrowed":8252,"ĠEnforc":8253,"Ġtickets":8254,"ĠMagorian":8255,"Ġskept":8256,"Ġconditions":8257,"ĠSilence":8258,"Ġrummaging":8259,"Ġgreenhouses":8260,"Better":8261,"Ġdisapproving":8262,"Ġmonstrous":8263,"Ġqueue":8264,"Ġobscured":8265,"Ġexpressions":8266,"Ġinvented":8267,"Ġinstruments":8268,"Ġhyster":8269,"Ġetched":8270,"ĠVanishing":8271,"Ġincantation":8272,"Ġfleeting":8273,"Ġsausages":8274,"Ġfeverishly":8275,"ĠAnimagus":8276,"Ġinhab":8277,"Ġeerie":8278,"ĠTHIRTY":8279,"Ġdisgruntled":8280,"mindedly":8281,"Ġarrogant":8282,"Ġrepresent":8283,"Ġelectric":8284,"ĠLegilim":8285,"Ġbuzzing":8286,"Ġwhimpering":8287,"ĠDippet":8288,"Ġbizarre":8289,"Ġbarman":8290,"Ġbezoar":8291,"ĠMagnolia":8292,"pelliarmus":8293,"ĠOctober":8294,"ĠEnforcement":8295,".,":8296,"Dr":8297,"DER":8298,"Hog":8299,"IX":8300,"IST":8301,"Nah":8302,"NOW":8303,"Put":8304,"Ten":8305,"Won":8306,"With":8307,"Welcome":8308,"boy":8309,"covered":8310,"eag":8311,"great":8312,"iers":8313,"ko":8314,"lad":8315,"mouthed":8316,"occ":8317,"pri":8318,"pher":8319,"uary":8320,"who":8321,"Ġversion":8322,"Ġtant":8323,"Ġhoop":8324,"ederation":8325,"onse":8326,"onko":8327,"Ġbun":8328,"Ġfled":8329,"Ġfiled":8330,"ĠHas":8331,"ĠHouses":8332,"ĠHokey":8333,"Ġcrest":8334,"ashy":8335,"Ġder":8336,"Ġdumb":8337,"Ġdried":8338,"Ġmes":8339,"Ġlion":8340,"Ġpaces":8341,"Ġpaler":8342,"Ġporridge":8343,"Ġgif":8344,"Ġgrill":8345,"Ġinvisibility":8346,"Ġnet":8347,"Ġwash":8348,"Ġwasting":8349,"Ġease":8350,"Ġyouth":8351,"Ġstage":8352,"Ġstowed":8353,"ett":8354,"eted":8355,"icle":8356,"icent":8357,"vert":8358,"ĠMem":8359,"ĠTop":8360,"ĠSpe":8361,"alty":8362,"agine":8363,"agger":8364,"step":8365,"stained":8366,"redit":8367,"ĠAbb":8368,"ĠAbout":8369,"illicent":8370,"Ġupro":8371,"unken":8372,"Ġknives":8373,"ĠGu":8374,"ĠGot":8375,"ĠFort":8376,"Ġsheets":8377,"Ġliking":8378,"Ġvivid":8379,"Ġexhaust":8380,"Ġlepre":8381,"Ġaltern":8382,"ssed":8383,"Ġpoke":8384,"olding":8385,"ĠNet":8386,"Ġspo":8387,"Ġspoon":8388,"opes":8389,"Ġscanning":8390,"Ġblunder":8391,"Ġgettin":8392,"Ġclick":8393,"ĠProfessors":8394,"Ġheadstone":8395,"Ġmoan":8396,"ĠEach":8397,"ĠEye":8398,"Ġ''":8399,"Ġthroughout":8400,"innet":8401,"Ġgrat":8402,"Ġswing":8403,"Ġflin":8404,"ĠUN":8405,"abior":8406,"Ġtext":8407,"Ġfirs":8408,"Ġlittered":8409,"Ġprodding":8410,"Ġcontorted":8411,"Ġsnort":8412,"Quite":8413,"Ġcris":8414,"Ġcrime":8415,"Ġoldest":8416,"Ġgreatly":8417,"ĠBlood":8418,"ĠBlast":8419,"Ġemplo":8420,"Ġnewly":8421,"Ġperch":8422,"ĠDoxy":8423,"Ġskul":8424,"Ġlifting":8425,"iby":8426,"Ġpartner":8427,"Ġresting":8428,"Ġsnapping":8429,"ithering":8430,"phias":8431,"ĠAncient":8432,"igging":8433,"Ġcovers":8434,"Ġcozy":8435,"Ġinde":8436,"Ġdetail":8437,"ĠScabior":8438,"Ġpots":8439,"Ġbreathless":8440,"Ġdisappearing":8441,"ĠHowler":8442,"Ġrelatives":8443,"Ġrefuse":8444,"Ġpathe":8445,"Ġbloodshot":8446,"HAR":8447,"Ġrepaired":8448,"Ġincident":8449,"Ġhurtling":8450,"Ġrepeat":8451,"Ġspluttered":8452,"Ġtones":8453,"Ġintent":8454,"rilliant":8455,"Ġmeantime":8456,"Ġveget":8457,"Ġassure":8458,"Ġconsidering":8459,"Ġvisiting":8460,"Ġpunched":8461,"Ġpunching":8462,"Ġrattled":8463,"Ġdeserve":8464,"Ġdesperation":8465,"Ġmasters":8466,"whisk":8467,"ĠSeconds":8468,"Ġadvised":8469,"Ġadvancing":8470,"Ġcrackling":8471,"Ġdestination":8472,"Ġpolice":8473,"Ġsmelled":8474,"Ġrolls":8475,"Ġprior":8476,"Ġinflu":8477,"ompre":8478,"Ġdripping":8479,"Ġcomplaining":8480,"Ġmurmur":8481,"Ġinjury":8482,"Ġhighest":8483,"Ġexplosion":8484,"Ġdraped":8485,"Ġplatfonn":8486,"Ġwarmth":8487,"Ġyellowish":8488,"Ġreflect":8489,"Anything":8490,"Ġfreshly":8491,"ikulus":8492,"Ġbelongs":8493,"Ġpersuaded":8494,"Ġpermitted":8495,"Ġstroke":8496,"Ġlimped":8497,"Ġladen":8498,"Ġconstant":8499,"Ġdescending":8500,"Ġboarded":8501,"Ġwipe":8502,"Ġconsiderable":8503,"Ġfortune":8504,"Ġwishes":8505,"ĠSpinnet":8506,"Ġrequest":8507,"Ġtransformed":8508,"Ġhexes":8509,"Ġarrang":8510,"Ġarranged":8511,"Keeper":8512,"Ġsevere":8513,"Ġseverely":8514,"Ġoutrage":8515,"Ġrevolving":8516,"ĠPadfoot":8517,"Ġdescribed":8518,"Ġaccepted":8519,"Ġgreenhouse":8520,"Ġtroubled":8521,"Ġapprehensive":8522,"Ġstamping":8523,"Ġreproach":8524,"Ġchimney":8525,"turned":8526,"Ġinstinctively":8527,"Ġpronounced":8528,"icolas":8529,"Ġdeparture":8530,"floor":8531,"ĠTrevor":8532,"ĠBowtr":8533,"Ġadventure":8534,"Ġvigorously":8535,"Ġdoorknob":8536,"Ġleprechaun":8537,"AM":8538,"EL":8539,"Hold":8540,"Hurry":8541,"Lo":8542,"Luna":8543,"TH":8544,"Time":8545,"UD":8546,"VER":8547,"WE":8548,"Yep":8549,"auding":8550,"cil":8551,"iated":8552,"iped":8553,"lamp":8554,"mon":8555,"mar":8556,"pot":8557,"pos":8558,"ubb":8559,"will":8560,"Ġ2":8561,"Ġaid":8562,"Ġsid":8563,"Ġsorted":8564,"Ġwan":8565,"Ġwire":8566,"Ġwary":8567,"reement":8568,"edy":8569,"onze":8570,"Ġbrow":8571,"Ġbinding":8572,"Ġfate":8573,"Ġfacts":8574,"itating":8575,"asingly":8576,"Ġhed":8577,"Ġdw":8578,"Ġdus":8579,"Ġmixed":8580,"Ġmoth":8581,"Ġlasted":8582,"Ġpus":8583,"Ġpuffy":8584,"Ġpaddock":8585,"Ġhaught":8586,"Ġgaunt":8587,"Ġinsp":8588,"Ġinner":8589,"Ġniff":8590,"omers":8591,"Ġbem":8592,"Ġstreak":8593,"Ġstumped":8594,"Ġstamped":8595,"Ġonward":8596,"road":8597,"rock":8598,"ĠMaf":8599,"ĠMillicent":8600,"ĠTe":8601,"ĠTot":8602,"ĠTogether":8603,"Ġweb":8604,"Ġrear":8605,"Ġreli":8606,"urt":8607,"seen":8608,"kew":8609,"chairs":8610,"ams":8611,"ampered":8612,"Ġseared":8613,"ĠPiers":8614,"ĠARE":8615,"Ġsharing":8616,"Ġshorter":8617,"ems":8618,"ĠWH":8619,"ĠWhing":8620,"Ġfraction":8621,"indor":8622,"ands":8623,"ĠBall":8624,"ĠBest":8625,"Ġrim":8626,"Ġrich":8627,"ĠClass":8628,"Ġjoy":8629,"Ġgoals":8630,"Ġsold":8631,"Ġsocket":8632,"ĠLife":8633,"Ġvap":8634,"Ġviolet":8635,"Ġleam":8636,"raught":8637,"Ġaggress":8638,"Ġagitated":8639,"Ġovercome":8640,"Ġtheirs":8641,"Ġdownward":8642,"izable":8643,"ĠNicolas":8644,"Ġchu":8645,"Ġchort":8646,"Ġchase":8647,"Ġchapter":8648,"elz":8649,"Ġsport":8650,"Ġsprawled":8651,"Ġunin":8652,"Ġunne":8653,"Ġunner":8654,"Ġunfortun":8655,"opy":8656,"Ġscored":8657,"Ġscooped":8658,"Ġblink":8659,"estia":8660,"Ġclaw":8661,"Ġclamped":8662,"Ġslack":8663,"Ġcompr":8664,"ĠOR":8665,"angular":8666,"Ġsmugg":8667,"Ġtragic":8668,"Ġtrained":8669,"Ġgrubby":8670,"Ġsworn":8671,"Ġswerved":8672,"Ġflapped":8673,"ĠUP":8674,"Ġmanaging":8675,"Ġprec":8676,"Ġappalled":8677,"Ġloathed":8678,"Ġevenings":8679,"Ġbrushed":8680,"Ġbrushing":8681,"Ġbronze":8682,"atedly":8683,"Ġcontrolled":8684,"Ġhooted":8685,"lessness":8686,"Ġstrangled":8687,"rieking":8688,"Ġchewing":8689,"Ġsurge":8690,"ĠInc":8691,"ĠThirty":8692,"Ġcurling":8693,"Ġperplexed":8694,"ailing":8695,"Ġours":8696,"Ġfireworks":8697,"Ġangle":8698,"Ġsteering":8699,"Thought":8700,"Ġpartners":8701,"Ġbelieving":8702,"Ġboss":8703,"Ġboomed":8704,"Ġtreacle":8705,"Ġobst":8706,"ĠArmy":8707,"Ġmarquee":8708,"Ġactiv":8709,"ĠAlthough":8710,"Ġsincerely":8711,"rific":8712,"Ġspellbooks":8713,"Ġrelation":8714,"Ġaccord":8715,"Ġspots":8716,"ĠBeedle":8717,"Ġrubbed":8718,"Ġconfid":8719,"Ġsweating":8720,"Ġprotest":8721,"Ġsimilar":8722,"orkack":8723,"Ġcups":8724,"Ġcornin":8725,"Ġsnakelike":8726,"alda":8727,"Ġcollection":8728,"Ġcrossing":8729,"Ġimportance":8730,"Ġintrig":8731,"Ġthrashing":8732,"Ġmission":8733,"ĠShrieking":8734,"IND":8735,"noticed":8736,"Another":8737,"ĠDefensive":8738,"Ġfrost":8739,"Ġhastened":8740,"ONE":8741,"Ġferret":8742,"Ġmessing":8743,"Ġstrongly":8744,"Ġpanicked":8745,"Ġdealing":8746,"Ġdiscussed":8747,"Ġbounded":8748,"Ġtrusts":8749,"Ġproblems":8750,"Ġsneer":8751,"ĠWhich":8752,"Ġglittered":8753,"Ġdefinite":8754,"Ġessential":8755,"Ġtricks":8756,"Ġsuspicion":8757,"ĠZonko":8758,"Black":8759,"Ġdreading":8760,"Ġwinced":8761,"ĠRemember":8762,"Ġirritated":8763,"Ġthreatened":8764,"Ġdelicious":8765,"Ġmercy":8766,"Anyone":8767,"ANT":8768,"Ġwhistling":8769,"Ġpounded":8770,"Ġabrupt":8771,"Ġunfolded":8772,"Ġresponse":8773,"Ġgiggled":8774,"Ġpoisonous":8775,"Ġindignation":8776,"Ġsqueezing":8777,"ĠFinch":8778,"Ġfaintest":8779,"Ġlocker":8780,"Ġshuddering":8781,"Ġgestured":8782,"Ġsweetly":8783,"Ġglowering":8784,"Ġearned":8785,"Ġbalding":8786,"Ġwounds":8787,"Ġcowering":8788,"Ġgnomes":8789,"Ġrumor":8790,"Ġincreased":8791,"Ġincreasingly":8792,"Ġlabeled":8793,"ĠConfederation":8794,"athery":8795,"Ġcondition":8796,"Ġappointment":8797,"Ġresentful":8798,"Ġunexpectedly":8799,"Ġintens":8800,"Ġrummaged":8801,"Ġenclosure":8802,"OME":8803,"Ġcapable":8804,"Ġscurrying":8805,"Ġresponsible":8806,"Ġresponsibility":8807,"ĠRunes":8808,"Ġgalloping":8809,"Ġfrustration":8810,"Ġrescue":8811,"Ġgoggling":8812,"Ġsoothing":8813,"Ġdisplay":8814,"ersonally":8815,"Ġcritic":8816,"ĠRomilda":8817,"Ġsavagely":8818,"Ġslugs":8819,"Ġdramatically":8820,"ynch":8821,"Ġtraitor":8822,"ekly":8823,"Ġintrud":8824,"Ġinvestigate":8825,"Ġfreedom":8826,"Ġsarcastically":8827,"ĠAmycus":8828,"ĠNEW":8829,"People":8830,"Ġaisle":8831,"Ġturban":8832,"Ġinherited":8833,"ĠDemelz":8834,"ĠEduc":8835,"Ġgrudgingly":8836,"ĠFletcher":8837,"occup":8838,"ĠAbbott":8839,"Ġpathetic":8840,"whisky":8841,"ĠMafalda":8842,"ĠWhinging":8843,"Ġunnecess":8844,"Ġunfortunate":8845,"!'":8846,"AD":8847,"BER":8848,"Crouch":8849,"Fl":8850,"Fle":8851,"Funny":8852,"Fletchley":8853,"Honestly":8854,"Kill":8855,"Over":8856,"Spe":8857,"TS":8858,"Umbridge":8859,"Wish":8860,"Wha":8861,"backed":8862,"bviously":8863,"cases":8864,"don":8865,"dor":8866,"ees":8867,"fing":8868,"fashion":8869,"hound":8870,"ience":8871,"ians":8872,"ials":8873,"ique":8874,"jinx":8875,"length":8876,"magic":8877,"mph":8878,"mates":8879,"ocus":8880,"rom":8881,"uly":8882,"uously":8883,"vable":8884,"why":8885,"Ġut":8886,"Ġta":8887,"Ġting":8888,"Ġtut":8889,"Ġtack":8890,"Ġtiar":8891,"Ġtested":8892,"Ġtrop":8893,"Ġagh":8894,"Ġsust":8895,"rect":8896,"Ġhind":8897,"Ġholly":8898,"Ġhilt":8899,"Ġhugging":8900,"Ġbared":8901,"Ġfreak":8902,"Ġfulf":8903,"Ġowe":8904,"ĠHestia":8905,"aten":8906,"itaser":8907,"Ġcal":8908,"Ġcock":8909,"Ġcreak":8910,"idge":8911,"orus":8912,"Ġdin":8913,"Ġmarry":8914,"Ġmill":8915,"Ġmouse":8916,"Ġmouthed":8917,"Ġlime":8918,"Ġlatter":8919,"Ġthrill":8920,"Ġthundered":8921,"Ġpall":8922,"Ġpomp":8923,"ancy":8924,"Ġgon":8925,"Ġgain":8926,"Ġgained":8927,"Ġghoul":8928,"lecto":8929,"ompl":8930,"Ġbelt":8931,"Ġbeads":8932,"acy":8933,"aches":8934,"veled":8935,"Ġstall":8936,"Ġstump":8937,"oooo":8938,"iche":8939,"ĠMir":8940,"Ġast":8941,"Ġaskew":8942,"ĠSA":8943,"ĠSaid":8944,"Ġrelease":8945,"stand":8946,"ĠRE":8947,"ĠRed":8948,"Ġsem":8949,"Ġseason":8950,"herry":8951,"ppings":8952,"ackets":8953,"ardly":8954,"Ġshred":8955,"Ġshuffling":8956,"aint":8957,"Ġlookin":8958,"ĠWIT":8959,"Ġfrail":8960,"Ġdoin":8961,"ĠBard":8962,"ĠBel":8963,"Ġkno":8964,"Ġneg":8965,"ĠGO":8966,"ilities":8967,"Ġrout":8968,"Ġrag":8969,"Ġrange":8970,"Ġrotting":8971,"akers":8972,"ifying":8973,"ĠFR":8974,"Ġshed":8975,"Ġjets":8976,"Ġjabbed":8977,"Ġsock":8978,"asting":8979,"ĠLo":8980,"Ġexer":8981,"ongs":8982,"Ġoverwhe":8983,"Ġsucked":8984,"Ġpopped":8985,"izes":8986,"Ġchained":8987,"Ġspin":8988,"arewell":8989,"Ġbla":8990,"Ġblot":8991,"Ġblushing":8992,"Ġslithering":8993,"ĠEgy":8994,"Ġswishing":8995,"Ġflu":8996,"Ġflared":8997,"Ġflustered":8998,"oles":8999,"olution":9000,"These":9001,"odmore":9002,"Ġimpl":9003,"Ġdisple":9004,"Ġpeer":9005,"Ġpeeling":9006,"Ġloathing":9007,"Ġprof":9008,"ressing":9009,"Ġwailing":9010,"Ġwailed":9011,"Nobody":9012,"Ġdarkening":9013,"please":9014,"Ġattic":9015,"Ġsnide":9016,"Ġstrain":9017,"Ġcheered":9018,"Ġcleve":9019,"Ġbitten":9020,"Ġfewer":9021,"ĠThought":9022,"ĠGryffm":9023,"ĠBloody":9024,"weed":9025,"Ġrabb":9026,"azed":9027,"getically":9028,"Ġsets":9029,"ĠJuly":9030,"ĠSturgis":9031,"answe":9032,"shine":9033,"ruction":9034,"Ġpleading":9035,"Ġresigned":9036,"angerous":9037,"Ġrecall":9038,"Ġcommitted":9039,"Ġcoast":9040,"Ġmemor":9041,"Ġfourteen":9042,"Ġreduced":9043,"Ġannor":9044,"Ġbreaths":9045,"ĠHeadmistress":9046,"Ġrelated":9047,"Ġserve":9048,"Ġaccidents":9049,"Ġinterven":9050,"Ġflex":9051,"Ġspotting":9052,"Ġedging":9053,"Ġmisery":9054,"Ġtrousers":9055,"Ġsubs":9056,"ĠSnat":9057,"ĠSnorkack":9058,"ĠBella":9059,"Ġparent":9060,"ĠSoon":9061,"Ġshallow":9062,"Ġregister":9063,"rench":9064,"Ġcrossly":9065,"Ġpractices":9066,"Ġsunken":9067,"ĠWithin":9068,"Ġveins":9069,"Ġassumed":9070,"Ġbats":9071,"ĠShould":9072,"Ġflatten":9073,"Ġpunch":9074,"Stay":9075,"Ġtightened":9076,"ĠTrace":9077,"Ġforming":9078,"Ġposters":9079,"Ġcracking":9080,"Ġweakness":9081,"Ġenjoyable":9082,"Ġimpatient":9083,"afe":9084,"ĠApparating":9085,"Ġinclined":9086,"Ġimmob":9087,"ĠCorner":9088,"Ġirritable":9089,"Ġlurched":9090,"Ġinterrupt":9091,"Ġoccasional":9092,"Ġgiggle":9093,"Ġcorrected":9094,"Ġblindly":9095,"Ġaimed":9096,"ĠBogrod":9097,"Ġkeyhole":9098,"Ġpincers":9099,"Ġslope":9100,"Ġcharges":9101,"Ġcharacter":9102,"Ġconstantly":9103,"Ġilluminating":9104,"Ġunicorns":9105,"Ġfortun":9106,"Ġproduced":9107,"Ġwisp":9108,"ĠRoad":9109,"Ġscraping":9110,"Ġcaution":9111,"Ġcollecting":9112,"Ġbiggest":9113,"Ġfocused":9114,"Ġcontempl":9115,"Ġdecorations":9116,"Ġcackled":9117,"Ġcackling":9118,"Ġwheezy":9119,"Ġassistant":9120,"Ġhooves":9121,"Ġsucceed":9122,"Ġenclosed":9123,"Ġsympath":9124,"Ġconclusion":9125,"Ġarrested":9126,"Ġdisguise":9127,"ĠStudies":9128,"Ġmonsters":9129,"Ġapprehensively":9130,"Ġdemonstrate":9131,"ĠWonnt":9132,"Ġpotatoes":9133,"Ġcourtroom":9134,"Ġlanterns":9135,"Ġpelted":9136,"Ġunconvin":9137,"Ġobsessed":9138,"Ġstalked":9139,"Ġcrimson":9140,"Ġslippery":9141,"CTO":9142,"Ġmalevol":9143,"Ġtitle":9144,"Ġfascinating":9145,"ĠHERE":9146,"ĠCleanswe":9147,"Ġsolemn":9148,"Ġdefensively":9149,"Ġtemporarily":9150,"Ġunhappy":9151,"Muggle":9152,"Ġbundle":9153,"Ġlanguage":9154,"Ġfrequently":9155,"Ġdismissively":9156,"Ġsandwiches":9157,"Ġexecution":9158,"ĠDungbombs":9159,"Ġfervently":9160,"Ġmoldy":9161,"Ġconduct":9162,"ĠStreet":9163,"Ġcavern":9164,"ĠVeritaser":9165,"Hogwarts":9166,"Ġgrilles":9167,"ĠNetwork":9168,"Ġgratitude":9169,"Ġarrangements":9170,"Ġbemused":9171,"Ġprecaut":9172,"ĠNEWT":9173,"ĠDemelza":9174,"fashioned":9175,"Ġutmost":9176,"Ġtiara":9177,"Ġaghast":9178,"Ġoverwhel":9179,"ĠEgypt":9180,"ĠVeritaserum":9181,"App":9182,"Aren":9183,"Bye":9184,"Con":9185,"Cru":9186,"Cedric":9187,"Draco":9188,"Fin":9189,"GIC":9190,"Ha":9191,"Had":9192,"Help":9193,"Jus":9194,"Morning":9195,"Merry":9196,"None":9197,"Oy":9198,"Slyther":9199,"Surely":9200,"Tr":9201,"Too":9202,"Turn":9203,"Want":9204,"Wouldn":9205,"aque":9206,"corn":9207,"cod":9208,"ciety":9209,"did":9210,"ew":9211,"five":9212,"fire":9213,"filled":9214,"hard":9215,"iac":9216,"iber":9217,"iature":9218,"kers":9219,"pen":9220,"pting":9221,"rs":9222,"tter":9223,"was":9224,"xe":9225,"Ġou":9226,"Ġest":9227,"Ġvers":9228,"Ġtil":9229,"Ġtini":9230,"Ġav":9231,"Ġsan":9232,"Ġsixty":9233,"Ġwaking":9234,"Ġwrought":9235,"Ġhook":9236,"Ġhunting":9237,"arant":9238,"Ġbunk":9239,"Ġbony":9240,"Ġfurn":9241,"ĠHO":9242,"ĠHom":9243,"Ġtoe":9244,"itive":9245,"itches":9246,"Ġcul":9247,"Ġcredit":9248,"orp":9249,"Ġdung":9250,"Ġdense":9251,"Ġdining":9252,"Ġdates":9253,"Ġmice":9254,"Ġmound":9255,"Ġmask":9256,"Ġlun":9257,"Ġlaws":9258,"Ġpix":9259,"Ġpaced":9260,"Ġpiled":9261,"Ġpardon":9262,"Ġhaze":9263,"Ġgar":9264,"Ġnap":9265,"Ġsac":9266,"Ġeaves":9267,"usc":9268,"vered":9269,"Ġstab":9270,"Ġstabbed":9271,"ooster":9272,"ĠIg":9273,"Ġwhirl":9274,"irs":9275,"iring":9276,"ĠThing":9277,"ĠTake":9278,"adition":9279,"ĠSC":9280,"ĠSw":9281,"ĠSal":9282,"ĠSupp":9283,"Ġrent":9284,"ĠDI":9285,"ĠDawlish":9286,"urre":9287,"stre":9288,"sters":9289,"rielle":9290,"umer":9291,"ĠTheory":9292,"ĠAvada":9293,"Ġsham":9294,"ĠBig":9295,"ĠBEEN":9296,"Ġmeat":9297,"Ġmended":9298,"ĠGell":9299,"ĠGive":9300,"ĠGOT":9301,"Ġramp":9302,"Ġriding":9303,"Ġrumble":9304,"ĠCann":9305,"ĠCres":9306,"ĠCurses":9307,"Ġfeeding":9308,"ifacts":9309,"ĠFen":9310,"Ġjammed":9311,"Ġjaws":9312,"Ġgoss":9313,"Ġsodden":9314,"ellig":9315,"astor":9316,"Ġvow":9317,"Ġisland":9318,"inks":9319,"Ġroast":9320,"Ġdeb":9321,"Ġsuck":9322,"Ġoffended":9323,"Ġchart":9324,"elt":9325,"Ġquant":9326,"icky":9327,"Ġunif":9328,"Ġunited":9329,"Ġunlocked":9330,"Ġeyed":9331,"Ġcanopy":9332,"Ġscaly":9333,"Ġscandal":9334,"Ġbless":9335,"Ġplanted":9336,"Ġplotting":9337,"Ġclinging":9338,"aph":9339,"apot":9340,"Ġslapping":9341,"ĠEm":9342,"ĠEv":9343,"Ġtwil":9344,"Ġtwitch":9345,"Ġ'.":9346,"vingly":9347,"Ġglorious":9348,"Ġgrind":9349,"Ġgrunt":9350,"Ġgrinding":9351,"Ġgrades":9352,"Ġflutter":9353,"iddling":9354,"iddikulus":9355,"abrielle":9356,"Ġoper":9357,"three":9358,"Ġwatering":9359,"Ġteapot":9360,"Ġunderwater":9361,"Ġapple":9362,"Ġbrim":9363,"Ġbracingly":9364,"uffles":9365,"ĠNew":9366,"Ġstrings":9367,"Ġdraining":9368,"Ġcheery":9369,"Ġcrown":9370,"Ġentertain":9371,"Ġendure":9372,"Ġsupporting":9373,"Ġtablecloth":9374,"ĠBlimey":9375,"Ġrapped":9376,"Ġfounders":9377,"Ġarmchairs":9378,"Ġblackthorn":9379,"Ġsettle":9380,"ĠJinx":9381,"ĠDoes":9382,"Ġmatted":9383,"Ġmatching":9384,"Ġlifts":9385,"avy":9386,"Ġcorp":9387,"osing":9388,"Ġstepping":9389,"Ġmutter":9390,"Ġminor":9391,"Ġminiature":9392,"Ġresult":9393,"Tha":9394,"Ġrested":9395,"ĠArt":9396,"Ġscarf":9397,"Ġcolder":9398,"Ġdistract":9399,"Ġhoriz":9400,"Ġadvis":9401,"Ġcoffee":9402,"Ġideal":9403,"ĠYule":9404,"Ġpersisted":9405,"cipl":9406,"cuses":9407,"Ġsignature":9408,"Ġawoken":9409,"Ġrelent":9410,"Ġaccur":9411,"Ġaccompl":9412,"Ġflee":9413,"ĠBeater":9414,"Ġrug":9415,"Ġmistakes":9416,"Ġconfided":9417,"Ġconfirmed":9418,"Ġsubd":9419,"Ġstreaking":9420,"Ġnumbers":9421,"Ġdreamily":9422,"Ġbenef":9423,"Ġsleepily":9424,"leton":9425,"Ġapproval":9426,"Ġtrial":9427,"Ġregained":9428,"Ġstupidly":9429,"Ġcollected":9430,"Ġoppon":9431,"Erm":9432,"Ġintim":9433,"Ġcuts":9434,"Ġjobs":9435,"Ġdiscon":9436,"Ġanxiety":9437,"Ġhumor":9438,"Expecto":9439,"Ġfrighten":9440,"Ġadmire":9441,"Ġstreetlamp":9442,"Ġtempted":9443,"Ġshrinking":9444,"Ġabsurd":9445,"Ġholes":9446,"Should":9447,"Ġsurroundings":9448,"Ġconversations":9449,"Ġconvicted":9450,"aggering":9451,"Ġargued":9452,"Ġdisgusted":9453,"Ġprize":9454,"Ġsickening":9455,"ĠApparated":9456,"Ġjew":9457,"Ġgrimy":9458,"Ġencounter":9459,"Ġphotos":9460,"Ġincluded":9461,"Ġtrickling":9462,"Ġtravel":9463,"Ġsmoothed":9464,"Ġapplauding":9465,"Ġmurmuring":9466,"Ġsuffer":9467,"Ġlunchtime":9468,"Ġfilth":9469,"Ask":9470,"Ġdelicate":9471,"Ġmerrily":9472,"Ġlurch":9473,"Ġfireplaces":9474,"OOOO":9475,"Ġdefeat":9476,"ĠMoran":9477,"Ġinnoc":9478,"Ġrubber":9479,"Ġgiggles":9480,"Ġscratch":9481,"cisely":9482,"Ġkeys":9483,"Ġsuggestion":9484,"Ġpunishments":9485,"Ġdescend":9486,"striped":9487,"Ġfacedown":9488,"Ġrusty":9489,"Ġprevented":9490,"borns":9491,"Ġresear":9492,"Ġchina":9493,"Ġcorrectly":9494,"Ġautograph":9495,"Ġdawned":9496,"Ġstubby":9497,"Always":9498,"Ġlumpy":9499,"Ġcommentary":9500,"Ġneighbor":9501,"Ġfragments":9502,"Ġsuperior":9503,"Ġenchantment":9504,"Ġaccused":9505,"Ġticket":9506,"Ġgingerly":9507,"Ġwolf":9508,"ĠThestral":9509,"Ġcrucial":9510,"ĠSnapes":9511,"Ġmounting":9512,"Ġtartan":9513,"Ġenemies":9514,"Ġmotorcy":9515,"ĠHAVE":9516,"Ġhealthy":9517,"Ġheavens":9518,"Ġpennission":9519,"Ġfuss":9520,"Oooh":9521,"Ġthumbs":9522,"Ġreluctantly":9523,"Ġwrestling":9524,"Ġunnaturally":9525,"ĠElphias":9526,"Ġninety":9527,"ĠMAGIC":9528,"Ġdonnitories":9529,"Ġbanner":9530,"Ġaudible":9531,"Ġsessions":9532,"Ġscuttled":9533,"Ġcommunic":9534,"Ġenergy":9535,"ĠWheezes":9536,"ĠHangleton":9537,"ĠControl":9538,"Ġglumly":9539,"Ġhandwriting":9540,"Ġtemptation":9541,"Ġtwittering":9542,"Ġboarhound":9543,"ĠLegilimency":9544,"ĠMemory":9545,"HARRY":9546,"Ġinfluence":9547,"fingered":9548,"Ġtrophy":9549,"Ġrabbit":9550,"ĠWonntail":9551,"Ġtiniest":9552,"Ġeavesd":9553,"ĠGellert":9554,"ĠCrescent":9555,"\",":9556,"'!\"":9557,".)":9558,"Am":9559,"CE":9560,"Dear":9561,"IF":9562,"Indeed":9563,"Kn":9564,"Lucky":9565,"Lumos":9566,"Nor":9567,"Nearly":9568,"OY":9569,"PP":9570,"Rep":9571,"Six":9572,"Tonks":9573,"Up":9574,"dled":9575,"eg":9576,"eenth":9577,"eaten":9578,"first":9579,"gain":9580,"iks":9581,"non":9582,"port":9583,"rakes":9584,"take":9585,"when":9586,"ycross":9587,"ymph":9588,"Ġuttered":9589,"Ġtying":9590,"Ġtune":9591,"Ġtucking":9592,"Ġtension":9593,"Ġalo":9594,"ina":9595,"Ġsunk":9596,"Ġsunny":9597,"Ġwoo":9598,"Ġwiz":9599,"Ġworthy":9600,"Ġthestr":9601,"Ġhumming":9602,"erve":9603,"aries":9604,"arian":9605,"Ġboo":9606,"Ġbase":9607,"Ġbump":9608,"Ġbidding":9609,"Ġfav":9610,"Ġfiling":9611,"Ġfitted":9612,"ĠHo":9613,"ĠHermion":9614,"atute":9615,"ishes":9616,"Ġtoy":9617,"Ġcook":9618,"idget":9619,"Ġdot":9620,"Ġdabbing":9621,"Ġdigging":9622,"Ġmortal":9623,"Ġlam":9624,"Ġlem":9625,"Ġlog":9626,"Ġloop":9627,"Ġpark":9628,"Ġporing":9629,"Ġpiped":9630,"letoe":9631,"Ġwashed":9632,"acc":9633,"usement":9634,"Ġstem":9635,"Ġstacked":9636,"etra":9637,"ethered":9638,",\"'":9639,"Ġwhit":9640,"Ġwhipping":9641,"irts":9642,"ĠMis":9643,"ĠTHAT":9644,"adora":9645,"Ġasse":9646,"Ġasso":9647,"ĠSy":9648,"ĠSte":9649,"ĠSPE":9650,"ĠSometimes":9651,"Ġreared":9652,"Ġreread":9653,"ĠDE":9654,"ĠDes":9655,"seven":9656,"strode":9657,"Ġforb":9658,"Ġsearing":9659,"ĠPuce":9660,"ĠPodmore":9661,"ĠRons":9662,"ĠAL":9663,"ĠAvery":9664,"ĠAnt":9665,"ĠAng":9666,"ĠAlecto":9667,"illusion":9668,"ackbox":9669,"ĠWil":9670,"unts":9671,"unte":9672,"unching":9673,"ĠBack":9674,"Ġmelted":9675,"Ġknelt":9676,"ĠGol":9677,"ĠGabrielle":9678,"Ġron":9679,"Ġrate":9680,"Ġruff":9681,"Ġrapt":9682,"Ġracket":9683,"ĠChe":9684,"ĠCrum":9685,"ĠFif":9686,"Ġshel":9687,"Ġjog":9688,"Ġjost":9689,"ĠLynch":9690,"Ġexit":9691,"raved":9692,"Ġrocket":9693,"Ġdecl":9694,"Ġovercoat":9695,"Ġsuits":9696,"Ġchucked":9697,"elting":9698,"elest":9699,"Ġspi":9700,"Ġsple":9701,"Ġquivered":9702,"Ġconqu":9703,"Ġunnoticed":9704,"arkus":9705,"Ġscare":9706,"Ġblade":9707,"ĠVane":9708,"Ġplinth":9709,"Ġclump":9710,"Ġclaws":9711,"Ġclawed":9712,"Ġslam":9713,"Ġcomers":9714,"Ġmock":9715,"angers":9716,"Ġdoorstep":9717,"Ġtracked":9718,"ggy":9719,"Ġgran":9720,"Ġswapped":9721,"Ġswift":9722,"Ġflag":9723,"Ġflush":9724,"Ġflashes":9725,"ĠKw":9726,"Ġlongingly":9727,"odied":9728,"Ġsomethin":9729,"Ġdishe":9730,"Ġbehave":9731,"Ġmugs":9732,"Ġappears":9733,"Ġfiring":9734,"Ġremin":9735,"ormac":9736,"Ġprob":9737,"Ġprod":9738,"Ġprodded":9739,"Ġprogr":9740,"uffed":9741,"Ġwail":9742,"Ġgoodbye":9743,"Ġcontain":9744,"Ġdarkened":9745,"plete":9746,"Ġstray":9747,"Ġcraning":9748,"ĠQuill":9749,"Ġsuppressed":9750,"Ġlighting":9751,"Ġfloorboard":9752,"Ġnights":9753,"Ġschools":9754,"Ġblackm":9755,"azar":9756,"Ġretorted":9757,"ĠStr":9758,"ĠStanding":9759,"ĠStatute":9760,"issy":9761,"blond":9762,"Ġskies":9763,"Ġquicker":9764,"Ġsquid":9765,"Ġmostly":9766,"Ġanguished":9767,"ruit":9768,"riction":9769,"ĠMoodys":9770,"Ġminusc":9771,"Ġobed":9772,"Ġows":9773,"Ġforef":9774,"Ġcommotion":9775,"formed":9776,"Ġfurt":9777,"Ġcrowds":9778,"Ġemptying":9779,"ĠAlb":9780,"lights":9781,"Ġbreakout":9782,"Ġextracted":9783,"Ġdiversion":9784,"Ġpointedly":9785,"Ġpowerfully":9786,"spond":9787,"Ġaccess":9788,"Ġintern":9789,"Ġpatched":9790,"Ġpattern":9791,"Ġlaying":9792,"ĠSnackbox":9793,"Ġsafer":9794,"Ġreput":9795,"Ġfreely":9796,"ounc":9797,"ounted":9798,"brush":9799,"Ġpurring":9800,"asonable":9801,"Ġregistered":9802,"Ġsummat":9803,"Ġsplattered":9804,"Ġescaping":9805,"Ġimportantly":9806,"Ġcentury":9807,"Ġchoking":9808,"Ġleads":9809,"ubil":9810,"INE":9811,"Ġzat":9812,"Ġdisco":9813,"Ġdoubled":9814,"Ġhumil":9815,"ipper":9816,"Ġtorch":9817,"Ġsuggesting":9818,"ĠSomehow":9819,"ĠDiggle":9820,"Ġabsor":9821,"Ġprominent":9822,"Ġtiptoe":9823,"ĠTofty":9824,"Ġcircles":9825,"afa":9826,"Ġbearded":9827,"ĠBurke":9828,"Ġdepos":9829,"Ġfingerna":9830,"Ġstatement":9831,"Ġapplied":9832,"Ġmuster":9833,"Ġmusical":9834,"Ġprepare":9835,"Ġdetermination":9836,"Ġmenacingly":9837,"Ġguessing":9838,"Ġoccasions":9839,"Ġgraves":9840,"Ġcomfortably":9841,"finitely":9842,"ĠSmelting":9843,"ĠRegulation":9844,"Ġmurders":9845,"Ġeffects":9846,"ĠTwycross":9847,"Ġsurvives":9848,"Ġterms":9849,"ĠMostafa":9850,"Ġbrandished":9851,"Ġtreating":9852,"Ġchatting":9853,"Ġsqueeze":9854,"Ġwhispers":9855,"Ġcountryside":9856,"ĠHippogriffs":9857,"Ġshift":9858,"minute":9859,"Ġgreeting":9860,"Ġcelebration":9861,"Ġcelebrating":9862,"Ġconnect":9863,"Ġtottering":9864,"Ġincreasing":9865,"ĠLestranges":9866,"Ġimproved":9867,"Ġserpents":9868,"Ġbandages":9869,"boms":9870,"Ġintending":9871,"Ġsuperb":9872,"Ġthreateningly":9873,"Outstanding":9874,"Madam":9875,"Ġpuffed":9876,"Ġdisbelieving":9877,"Ġretreating":9878,"ĠSnare":9879,"Ġfondly":9880,"Ġpierced":9881,"Ġappointed":9882,"Ġresentment":9883,"ylow":9884,"Ġexasperation":9885,"ĠInquisitorial":9886,"Ġobliv":9887,"Ġtimidly":9888,"Ġominously":9889,"ĠRuncorn":9890,"Ġvolunte":9891,"Ġgrumpy":9892,"Sec":9893,"Ġfrustrated":9894,"Ġslithered":9895,"Ġinstrument":9896,"Ġvibrating":9897,"Ġobeyed":9898,"Ġmaliciously":9899,"Ġloyalty":9900,"Ġindifferently":9901,"Ġtankard":9902,"Ġdisturbance":9903,"Ġimprovement":9904,"Ġimprisoned":9905,"Ġornate":9906,"Ġunwrapped":9907,"Ġwreckage":9908,"Ġtype":9909,"ĠClub":9910,"Ġshawls":9911,"Ġgovernors":9912,"ĠResurre":9913,"ĠAccording":9914,"Ġchoosing":9915,"Ġgracefully":9916,"Ġcompanion":9917,"Ġtarget":9918,"Ġglistening":9919,"ĠStandard":9920,"Ġawaiting":9921,"Ġboulder":9922,"stein":9923,"Ġsniggering":9924,"ĠSkrewts":9925,"Ġremotely":9926,"Ġpredictions":9927,"Ġinhabit":9928,"Ġderis":9929,"Ġuproar":9930,"Ġalternative":9931,"Ġvegetable":9932,"ĠBowtruckle":9933,"Ġdwar":9934,"Ġdusk":9935,"Ġconfidently":9936,"occupied":9937,"Slytherin":9938,"Ġsacrif":9939,"strewn":9940,"Ġuniform":9941,"Ġaloft":9942,"Ġwoolly":9943,"ĠHermiones":9944,"Ġassoci":9945,"ĠPucey":9946,"ĠCrumple":9947,"Ġminuscule":9948,"ĠResurrection":9949,"\"...":9950,"ARE":9951,"Cho":9952,"DORE":9953,"Follow":9954,"GE":9955,"GG":9956,"Gone":9957,"Gryff":9958,"Her":9959,"Krum":9960,"Karkaroff":9961,"Lord":9962,"Moody":9963,"MION":9964,"Naturally":9965,"Peeves":9966,"Sp":9967,"Say":9968,"Tom":9969,"UFF":9970,"Wizard":9971,"Yer":9972,"Yet":9973,"after":9974,"bru":9975,"bins":9976,"dress":9977,"ef":9978,"friend":9979,"hold":9980,"holes":9981,"iation":9982,"mitted":9983,"ned":9984,"name":9985,"nosed":9986,"pital":9987,"sive":9988,"tically":9989,"tical":9990,"Ġtro":9991,"Ġtangle":9992,"inous":9993,"inated":9994,"Ġhippogriff":9995,"Ġhunched":9996,"erw":9997,"arp":9998,"ndered":9999,"Ġbind":10000,"Ġbuff":10001,"Ġbarn":10002,"Ġfant":10003,"Ġfab":10004,"Ġfired":10005,"Ġfumes":10006,"Ġfidget":10007,"ĠHa":10008,"att":10009,"Ġtoler":10010,"itt":10011,"Ġcure":10012,"asm":10013,"Ġhearts":10014,"Ġdementor":10015,"Ġdrenched":10016,"Ġmerm":10017,"Ġmull":10018,"Ġmastered":10019,"Ġlumb":10020,"Ġlousy":10021,"Ġparts":10022,"Ġpony":10023,"Ġpaws":10024,"Ġhag":10025,"Ġham":10026,"Ġhan":10027,"Ġgilly":10028,"Ġnails":10029,"Ġsagging":10030,"lying":10031,"omplete":10032,"Ġwashing":10033,"Ġbeady":10034,"usive":10035,"Ġstout":10036,"Ġstove":10037,"Ġstained":10038,"Ġstroll":10039,"etime":10040,"Ġwhip":10041,"ĠTales":10042,"ĠTerry":10043,"enta":10044,"ĠSin":10045,"ĠSudden":10046,"ĠSnow":10047,"ĠSection":10048,"ĠSisters":10049,"ĠSIX":10050,"Ġreact":10051,"Ġrenew":10052,"Ġreacted":10053,"ĠDown":10054,"ĠDraught":10055,"ĠDangerous":10056,"urious":10057,"alking":10058,"sequ":10059,"stool":10060,"amble":10061,"ppy":10062,"alley":10063,"Ġnothin":10064,"ĠAccio":10065,"arded":10066,"ĠHelp":10067,"pelled":10068,"ĠWest":10069,"ĠWAS":10070,"Ġfrank":10071,"ĠGl":10072,"ĠGurg":10073,"Ġrags":10074,"Ġbutt":10075,"akin":10076,"ĠFOUR":10077,"Ġshell":10078,"Ġjunk":10079,"Ġjagged":10080,"Ġjubil":10081,"Ġwheel":10082,"Ġbackf":10083,"Ġliar":10084,"ĠLast":10085,"Ġvain":10086,"Ġvirt":10087,"Ġabroad":10088,"Ġexcuses":10089,"Ġlect":10090,"Ġleaking":10091,"Ġleering":10092,"rawn":10093,"Ġaged":10094,"Ġagreement":10095,"Ġroars":10096,"Ġrooted":10097,"cts":10098,"Ġalight":10099,"ula":10100,"oys":10101,"Ġchick":10102,"Ġchanges":10103,"Ġchorus":10104,"Ġspying":10105,"Ġsporting":10106,"Ġquality":10107,"Ġunwise":10108,"Ġunsc":10109,"Ġunrolled":10110,"Ġcance":10111,"arkness":10112,"Ġscum":10113,"Ġscattering":10114,"Ġblimey":10115,"ĠVoldem":10116,"Ġplung":10117,"Ġplumm":10118,"Ġclinking":10119,"Ġmoaning":10120,"ĠEdge":10121,"ĠOrac":10122,"Ġtramp":10123,"Ġtradition":10124,"Ġglint":10125,"Ġglinted":10126,"Ġglances":10127,"Ġrights":10128,"Ġgrunting":10129,"Ġflipped":10130,"ĠUr":10131,"Ġmaniac":10132,"iddy":10133,"abor":10134,"orned":10135,"ĠKNOW":10136,"ĠKarkus":10137,"Ġprem":10138,"Ġtend":10139,"Ġdisemb":10140,"Ġdiscipl":10141,"Ġapparent":10142,"Ġloves":10143,"Ġloomed":10144,"Ġtryin":10145,"Ġwaf":10146,"Ġhopped":10147,"Ġstragg":10148,"Ġstricken":10149,"Ġamusement":10150,"Ġdrain":10151,"Ġdrunk":10152,"Ġcramped":10153,"mend":10154,"plitting":10155,"Ġputs":10156,"Ġimpost":10157,"Ġpassages":10158,"Ġsurre":10159,"Ġlighter":10160,"Ġwrinkled":10161,"Ġnighttime":10162,"Ġemitting":10163,"Ġarmy":10164,"Ġelabor":10165,"Ġretort":10166,"armed":10167,"ighing":10168,"Ġlifetime":10169,"Ġsquirm":10170,"Ġsquashy":10171,"Ġangrier":10172,"rug":10173,"ospital":10174,"Ġsteered":10175,"Ġexpel":10176,"ampions":10177,"Ġbelief":10178,"ĠPetrified":10179,"Ġboils":10180,"enses":10181,"ulture":10182,"Ġcopper":10183,"ivable":10184,"Ġfurry":10185,"Ġsignal":10186,"Ġhearty":10187,"ĠAlastor":10188,"Ġcompre":10189,"Ġhates":10190,"Ġinterjected":10191,"ĠBeans":10192,"Ġmisunder":10193,"Ġconfide":10194,"Ġconfirm":10195,"Ġuncertain":10196,"Ġstreets":10197,"Ġdreamy":10198,"Ġbelly":10199,"ĠProngs":10200,"Ġknocker":10201,"eakes":10202,"Ġcluttered":10203,"Ġregularly":10204,"Ġsummon":10205,"Ġsummoned":10206,"Ġpracticed":10207,"Ġmadness":10208,"Ġtentacles":10209,"Ġsunshine":10210,"Ġoccur":10211,"Ġhopes":10212,"Ġleader":10213,"ĠExpecto":10214,"Ġfearful":10215,"Ġcopied":10216,"ĠMarcus":10217,"Ġcolumn":10218,"Ġblanket":10219,"ĠSomebody":10220,"Ġtrail":10221,"Ġtrailed":10222,"Ġmarkings":10223,"Ġplanets":10224,"Ġguarded":10225,"Ġmessed":10226,"Ġmessages":10227,"Ġshrank":10228,"Ġdogs":10229,"Ġtails":10230,"Ġfavorites":10231,"Ġtrusting":10232,"Ġnastily":10233,"Ġjeered":10234,"Ġinclude":10235,"Ġgroping":10236,"ĠLeaving":10237,"orgivable":10238,"Ġshoving":10239,"Ġsuspicions":10240,"Ġembro":10241,"Ġaffected":10242,"Ġaffronted":10243,"Ġsqueaky":10244,"ĠPatronuses":10245,"ĠImpediment":10246,"uminous":10247,"Ġimmersed":10248,"Ġcloudy":10249,"Ġworthless":10250,"Ġsuffoc":10251,"Ġexplode":10252,"Ġmuscle":10253,"cerned":10254,"Ġmenacing":10255,"Ġsensible":10256,"Ġcomforting":10257,"Ġannoying":10258,"Ġannoyance":10259,"Ġpureblood":10260,"Ġsqueaking":10261,"Ġfox":10262,"ĠTwice":10263,"Ġstrip":10264,"Ġtests":10265,"Ġincredibly":10266,"Ġpillars":10267,"Ġpoisoned":10268,"Ġbrandy":10269,"Ġcases":10270,"Ġpenalty":10271,"Ġscrambling":10272,"Ġconvincing":10273,"Ġnewspapers":10274,"Ġaccompany":10275,"Ġthunderstruck":10276,"Ġexists":10277,"ĠBulstrode":10278,"Ġvalue":10279,"Ġrustle":10280,"Ġvariety":10281,"Ġengulf":10282,"IRI":10283,"belie":10284,"Ġconsiderably":10285,"Ġdrowning":10286,"Ġissue":10287,"ĠFebru":10288,"ASLEY":10289,"Ġvictory":10290,"Ġappreciatively":10291,"Ġintroduced":10292,"Ġthrusting":10293,"Ġgleeful":10294,"Ġbuckled":10295,"Ġsevered":10296,"Ġtransport":10297,"Ġpursuing":10298,"Ġtensely":10299,"Death":10300,"Definitely":10301,"Ġstormed":10302,"Ġpuffing":10303,"Ġsymbols":10304,"Ġbravery":10305,"Ġgentlemen":10306,"ylows":10307,"Ġreverse":10308,"Ġoccupied":10309,"Ġscurried":10310,"Ġflowery":10311,"Ġfixing":10312,"Ġafterwards":10313,"Ġdisguised":10314,"Ġshaky":10315,"ĠStudents":10316,"Imagine":10317,"Ġselling":10318,"Ġrescued":10319,"Ġantidotes":10320,"Ġpelting":10321,"Ġdramatic":10322,"Ġinspection":10323,"Ġreluctant":10324,"Ġprowled":10325,"Ġdonnitory":10326,"Ġmystery":10327,"BLEDORE":10328,"Precisely":10329,"Ġshriveled":10330,"combe":10331,"ĠHarper":10332,"Ġyelped":10333,"Ġwhimpered":10334,"ĠMandrakes":10335,"Ġjealous":10336,"Ġsulky":10337,"Ġlimbs":10338,"Ġscathingly":10339,"Ġsignificant":10340,"Ġeducation":10341,"Ġconfiscated":10342,"ĠGoblin":10343,"Ġflinched":10344,"Ġemploy":10345,"Ġskulking":10346,"Ġrelationship":10347,"ĠEducational":10348,"Fleur":10349,"ocused":10350,"Ġpallid":10351,"Ġgonna":10352,"ĠSnatchers":10353,"Ġsympathy":10354,"Ġsolemnly":10355,"Ġnapkin":10356,"ĠSalazar":10357,"Ġhorizon":10358,"Ġdisconc":10359,"ikspell":10360,"ymphadora":10361,"Ġassembled":10362,"ĠKwikspell":10363,"Ġdisheveled":10364,"ouncement":10365,"Gryffindor":10366,"MIONE":10367,"ĠEdgecombe":10368,"ĠOracle":10369,"ĠFebruary":10370,"Abs":10371,"Back":10372,"Cle":10373,"Cool":10374,"Dis":10375,"Fil":10376,"House":10377,"ICK":10378,"Mer":10379,"More":10380,"Make":10381,"Most":10382,"Pass":10383,"SH":10384,"Told":10385,"Ur":10386,"XPE":10387,"aise":10388,"bill":10389,"bles":10390,"breed":10391,"dered":10392,"eree":10393,"frog":10394,"giant":10395,"ham":10396,"lor":10397,"lation":10398,"large":10399,"laz":10400,"making":10401,"pan":10402,"rir":10403,"ration":10404,"six":10405,"tem":10406,"uated":10407,"uine":10408,"uction":10409,"wart":10410,"with":10411,"worthy":10412,"yin":10413,"Ġted":10414,"Ġtum":10415,"Ġtarn":10416,"Ġtaps":10417,"Ġtasted":10418,"Ġtinkling":10419,"Ġtesting":10420,"Ġtethered":10421,"hee":10422,"Ġapr":10423,"inity":10424,"Ġsang":10425,"Ġsherry":10426,"Ġwig":10427,"Ġhunt":10428,"eds":10429,"Ġbridge":10430,"Ġbudge":10431,"Ġfarewell":10432,"ĠHospital":10433,"Ġtopped":10434,"iture":10435,"Ġcunning":10436,"Ġcores":10437,"asured":10438,"oringly":10439,"orrect":10440,"Ġhealed":10441,"encing":10442,"Ġding":10443,"Ġdil":10444,"Ġdig":10445,"Ġdrows":10446,"Ġmop":10447,"Ġmile":10448,"Ġmult":10449,"Ġmarsh":10450,"Ġlure":10451,"Ġlining":10452,"Ġthump":10453,"Ġpaw":10454,"Ġpitched":10455,"Ġhalted":10456,"Ġgin":10457,"Ġguff":10458,"Ġgames":10459,"Ġnick":10460,"Ġnest":10461,"Ġsauce":10462,"Ġbeef":10463,"vels":10464,"Ġsting":10465,"Ġstarts":10466,"eteen":10467,"icting":10468,"icles":10469,"icient":10470,"ĠMan":10471,"ĠMother":10472,"ĠMons":10473,"ĠMason":10474,"ĠTon":10475,"ĠTer":10476,"ĠTry":10477,"ĠTrying":10478,"Ġasks":10479,"Ġum":10480,"ĠSer":10481,"ĠSus":10482,"ĠSix":10483,"ĠSens":10484,"ĠDream":10485,"ĠDUM":10486,"ĠRel":10487,"chan":10488,"Ġanc":10489,"Ġselect":10490,"hering":10491,"ĠPanting":10492,"ĠPeakes":10493,"term":10494,"ppers":10495,"alls":10496,"ĠAB":10497,"Ġshove":10498,"Ġshiver":10499,"Ġframed":10500,"ĠBet":10501,"ĠBene":10502,"Ġrick":10503,"Ġraining":10504,"ĠCottage":10505,"ĠCelest":10506,"ĠFam":10507,"Ġsheep":10508,"Ġjam":10509,"lope":10510,"Ġbackside":10511,"ortment":10512,"idered":10513,"Ġvalley":10514,"Ġvulture":10515,"Ġlean":10516,"Ġleague":10517,"ourt":10518,"inkingly":10519,"istic":10520,"rake":10521,"Ġagg":10522,"Ġroset":10523,"Ġalanned":10524,"Ġsucking":10525,"venient":10526,"ĠNorth":10527,"Ġspill":10528,"ieur":10529,"Ġunl":10530,"Ġunbl":10531,"ĠWeekly":10532,"Ġblunt":10533,"Ġclu":10534,"Ġclap":10535,"Ġclung":10536,"Ġcloth":10537,"Ġclums":10538,"Ġslashed":10539,"Ġwander":10540,"Ġmoves":10541,"ĠEN":10542,"ĠEu":10543,"ĠEle":10544,"ĠEver":10545,"Ġtwist":10546,"Ġsmashing":10547,"ounding":10548,"ondering":10549,"Ġglimm":10550,"Ġswirl":10551,"Ġswirled":10552,"Ġflicking":10553,"Ġflitted":10554,"Ġflailing":10555,"Ġthoughtful":10556,"Ġmanager":10557,"Ġcloset":10558,"Whatever":10559,"Ġdisrup":10560,"Ġappeal":10561,"Ġloaded":10562,"ĠShell":10563,"Ġremed":10564,"Ġbrood":10565,"Ġbrist":10566,"Ġproc":10567,"Head":10568,"Ġwaves":10569,"Nope":10570,"berry":10571,"Ġhovered":10572,"Ġtalks":10573,"Ġsnoo":10574,"Ġsnores":10575,"Ġstride":10576,"peration":10577,"Ġamounts":10578,"Quidditch":10579,"Ġchew":10580,"plic":10581,"Ġimperson":10582,"Ġendless":10583,"Ġcleaned":10584,"Ġterrif":10585,"beat":10586,"beus":10587,"Ġsupply":10588,"Ġstandard":10589,"ĠInter":10590,"ĠThird":10591,"ĠThanks":10592,"Ġretired":10593,"apple":10594,"ĠJones":10595,"ĠStun":10596,"Ġjokes":10597,"Ġskir":10598,"Ġskip":10599,"Ġairily":10600,"Ġmatches":10601,"anshee":10602,"Ġsquarely":10603,"ĠPerkins":10604,"Ġsteaming":10605,"clad":10606,"Ġresisting":10607,"Ġresolutely":10608,"Ġpartly":10609,"Ġparties":10610,"ĠGrade":10611,"Ġcoughed":10612,"Ġdisting":10613,"Ġadult":10614,"rawing":10615,"However":10616,"Ġexposed":10617,"Ġcob":10618,"Ġcope":10619,"Ġfathers":10620,"Ġindivid":10621,"Ġguarant":10622,"Ġdeciding":10623,"Ġmarch":10624,"Ġstraightaway":10625,"Ġawed":10626,"Ġawestr":10627,"Ġshortcut":10628,"rums":10629,"ĠFlavor":10630,"Ġextract":10631,"Ġdial":10632,"Ġdiam":10633,"Ġdipped":10634,"Ġexample":10635,"Ġrounding":10636,"Ġrefus":10637,"Ġreferee":10638,"Ġfastened":10639,"Ġmistletoe":10640,"Ġbookshe":10641,"escue":10642,"ĠSnuffles":10643,"Ġincompre":10644,"Ġbellowing":10645,"Ġtripping":10646,"Ġdrawling":10647,"Ġshocking":10648,"renching":10649,"Ġsplashing":10650,"Ġintellig":10651,"Ġsunlit":10652,"Ġcreated":10653,"Ġthrong":10654,"Ġtrainers":10655,"Ġassuming":10656,"Ġassortment":10657,"Ġrepeatedly":10658,"Ġignited":10659,"Ġbattling":10660,"Ġvisits":10661,"Looks":10662,"Ġzig":10663,"Ġzero":10664,"ĠExcept":10665,"rimmed":10666,"Ġgleam":10667,"Ġmirac":10668,"Ġmirth":10669,"Ġmiracle":10670,"Ġtruthfully":10671,"Aha":10672,"ĠTHIS":10673,"Ġgloating":10674,"Ġgrouped":10675,"ĠSomewhere":10676,"Ġmarking":10677,"Ġordering":10678,"Ġshrink":10679,"Ġadvise":10680,"otego":10681,"Ġstaffroom":10682,"Ġtowel":10683,"ĠDisillusion":10684,"Ġmassaging":10685,"Ġnoticeboard":10686,"Ġgrayish":10687,"Ġsickly":10688,"Ġgrimaced":10689,"Ġrocky":10690,"Ġgenius":10691,"Ġgenuine":10692,"Ġessence":10693,"Ġdrift":10694,"Ġtricky":10695,"Ġtrickle":10696,"Ġemblaz":10697,"Ġcrocod":10698,"Ġwincing":10699,"Ġconcentrated":10700,"ARD":10701,"ĠAnything":10702,"Ġsquealing":10703,"Ġbabble":10704,"Ġdelightedly":10705,"STU":10706,"Ġkidna":10707,"Ġdeterminedly":10708,"Ġperman":10709,"Ġgenerous":10710,"Ġsquares":10711,"Ġtoadlike":10712,"Ġstroked":10713,"Ġsmirk":10714,"aunts":10715,"Ġpinstriped":10716,"Ġjudg":10717,"Ġtriumphantly":10718,"Ġfanc":10719,"Ġreappearing":10720,"elessly":10721,"Ġcontrad":10722,"Level":10723,"Ġconjure":10724,"ATION":10725,"Everything":10726,"Ġbloss":10727,"Ġmodest":10728,"Ġabandon":10729,"Ġscowl":10730,"Ġembarrassing":10731,"Ġidentity":10732,"Ġdisappearance":10733,"Ġcollapse":10734,"ĠUnderage":10735,"ĠKnock":10736,",'\"":10737,"Ġwitnesses":10738,"Ġdodging":10739,"Ġcoughing":10740,"ĠSnap":10741,"Ġbetray":10742,"Ġbullfrog":10743,"Ġrebell":10744,"Ġwheezing":10745,"Ġhuddle":10746,"Ġreverber":10747,"Ġacceler":10748,"Ġapologetically":10749,"Ġassistance":10750,"Ġpillowcase":10751,"Ġoblig":10752,"Ġpeaceful":10753,"ĠChanns":10754,"Ġtimet":10755,"Ġharshly":10756,"Ġdisapproval":10757,"Ġbeasts":10758,"Ġprovide":10759,"Ġprovided":10760,"Ġadmiration":10761,"Ġturkey":10762,"Ġphr":10763,"Ġleaflet":10764,"Ġblurted":10765,"Ġunconcerned":10766,"Enough":10767,"Ġpatiently":10768,"Ġtraitors":10769,"Ġunnatural":10770,"ĠElix":10771,"Ġobserved":10772,"Ġobserving":10773,"Ġabsentmindedly":10774,"smelling":10775,"Ġqualified":10776,"ĠRestriction":10777,"Ġdeveloped":10778,"Ġelderly":10779,"Ġsprouted":10780,"Ġstifled":10781,"Ġheadmistresses":10782,"Ġtremble":10783,"ĠGolden":10784,"Ġswarming":10785,"Ġteenage":10786,"ĠUnforgivable":10787,"Ġencouragingly":10788,"heartedly":10789,"Ġswiveled":10790,"Ġsympathetic":10791,"Ġstrangest":10792,"Ġmethods":10793,"Ġlatest":10794,"Ġmeself":10795,"Ġgifted":10796,"Ġpriority":10797,"posal":10798,"Ġcomprised":10799,"Ġactivity":10800,"Ġknobbly":10801,"ĠFROM":10802,"Ġsubsided":10803,"ĠCleansweep":10804,"Ġconductor":10805,"Crucio":10806,"Ġfurniture":10807,"ĠHomtail":10808,"Ġpixies":10809,"ĠCannons":10810,"ĠEvans":10811,"Ġintimid":10812,"Ġstreetlamps":10813,"Ġmotorcycle":10814,"Ġshelter":10815,"Ġforefinger":10816,"ĠAlbania":10817,"Ġreputation":10818,"Ġfingernails":10819,"ĠSuddenly":10820,"Ġrenewed":10821,"Ġchickens":10822,"ĠVoldemor":10823,"Ġembroidered":10824,"IRIUS":10825,"ĠMonsieur":10826,"ĠDUMBLEDORE":10827,"ĠBeneath":10828,"Ġrickety":10829,"Ġawestruck":10830,"Ġemblazoned":10831,"Ġcrocodile":10832,");":10833,"AST":10834,"By":10835,"Bad":10836,"Brilliant":10837,"Cr":10838,"Calm":10839,"HO":10840,"Hem":10841,"Hand":10842,"Half":10843,"Happy":10844,"Its":10845,"IES":10846,"LY":10847,"Last":10848,"Love":10849,"Mind":10850,"OL":10851,"Once":10852,"Open":10853,"Rita":10854,"Riddikulus":10855,"Slu":10856,"Te":10857,"aft":10858,"ault":10859,"bing":10860,"dain":10861,"gom":10862,"gro":10863,"gold":10864,"grow":10865,"half":10866,"house":10867,"high":10868,"iate":10869,"juries":10870,"list":10871,"oise":10872,"ology":10873,"rors":10874,"raction":10875,"times":10876,"tips":10877,"uled":10878,"van":10879,"wit":10880,"yeh":10881,"Ġi":10882,"Ġidly":10883,"Ġtide":10884,"Ġtug":10885,"Ġack":10886,"Ġaxe":10887,"Ġsore":10888,"Ġwink":10889,"Ġhi":10890,"Ġhip":10891,"onia":10892,"aro":10893,"ndid":10894,"Ġbum":10895,"Ġbond":10896,"Ġfudge":10897,"Ġfret":10898,"Ġoo":10899,"Ġove":10900,"Ġoil":10901,"Ġopt":10902,"ĠHand":10903,"ĠHaven":10904,"ĠHope":10905,"ĠHaving":10906,"atory":10907,"ism":10908,"Ġheatedly":10909,"ench":10910,"enetra":10911,"Ġdiet":10912,"Ġdrill":10913,"Ġdots":10914,"Ġmort":10915,"Ġmix":10916,"Ġmousy":10917,"Ġlain":10918,"Ġlil":10919,"Ġlord":10920,"Ġleng":10921,"Ġluminous":10922,"Ġthinner":10923,"Ġpang":10924,"Ġpies":10925,"Ġpamp":10926,"Ġpants":10927,"ese":10928,"Ġhaunted":10929,"Ġgun":10930,"Ġinit":10931,"Ġnut":10932,"lym":10933,"Ġyelp":10934,"Ġec":10935,"Ġeld":10936,"Ġecl":10937,"Ġhistor":10938,"Ġstung":10939,"Ġstrolling":10940,"Ġstaggering":10941,"ĠIgn":10942,"Ġonion":10943,"Ġoncoming":10944,"icrous":10945,"verbal":10946,"Ġwhir":10947,"Ġwhoos":10948,"irable":10949,"ĠMY":10950,"ĠMay":10951,"ĠMain":10952,"ĠMight":10953,"ĠMind":10954,"ĠMuff":10955,"ĠMIN":10956,"ĠTR":10957,"ĠTale":10958,"entine":10959,"ĠSorc":10960,"ĠSolution":10961,"Ġrect":10962,"ura":10963,"urance":10964,"agr":10965,"kempt":10966,"ĠPart":10967,"illes":10968,"ĠHex":10969,"embr":10970,"ĠWouldn":10971,"Ġupturned":10972,"Ġoutbreak":10973,"Ġoutlines":10974,"unior":10975,"ĠBoot":10976,"ĠBarely":10977,"ĠBole":10978,"ĠGreen":10979,"iliar":10980,"Ġric":10981,"Ġrumbled":10982,"Ġranks":10983,"Ġrooster":10984,"ĠCormac":10985,"together":10986,"ifully":10987,"ĠFo":10988,"ĠFuture":10989,"Ġjars":10990,"Ġjackets":10991,"bleed":10992,"quired":10993,"quoise":10994,"ĠLived":10995,"Ġvic":10996,"udicrous":10997,"Ġleaked":10998,"inkle":10999,"istent":11000,"istra":11001,"istinct":11002,"Ġrob":11003,"ffic":11004,"ffees":11005,"ulent":11006,"oyles":11007,"ĠNine":11008,"ĠNymphadora":11009,"elia":11010,"Ġspindly":11011,"ieves":11012,"Ġunst":11013,"Ġunkempt":11014,"oped":11015,"open":11016,"Ġscorn":11017,"Ġbli":11018,"Ġplac":11019,"Ġplus":11020,"Ġplug":11021,"Ġclanged":11022,"Ġslower":11023,"Ġslapped":11024,"Ġslouched":11025,"bberw":11026,"Ġorb":11027,"Ġheadless":11028,"Ġheadquarters":11029,"Ġmoles":11030,"ĠOkay":11031,"ĠOlym":11032,"Ġtwirling":11033,"Ġtwinge":11034,"Ġsmiles":11035,"Ġdoorbell":11036,"Ġtrooped":11037,"Ġglued":11038,"Ġglazed":11039,"Ġgracious":11040,"Ġsayin":11041,"Ġswim":11042,"olk":11043,"ĠUnd":11044,"auses":11045,"Ġmanners":11046,"Ġpref":11047,"Ġprey":11048,"Ġimages":11049,"Ġimitation":11050,"Ġimitated":11051,"Ġdisli":11052,"Ġdisdain":11053,"Ġwhereas":11054,"Ġkeeled":11055,"ectum":11056,"uffing":11057,"Were":11058,"Ġwax":11059,"Ġcontribut":11060,"Ġattracting":11061,"Ġsnore":11062,"Ġsnoring":11063,"Ġsnarling":11064,"oughing":11065,"Ġneeding":11066,"ĠChudley":11067,"Ġcrude":11068,"Ġcrumbling":11069,"ungi":11070,"plain":11071,"Ġimpenetra":11072,"Ġhurled":11073,"Ġpasses":11074,"Ġending":11075,"Ġterse":11076,"ĠInjuries":11077,"Ġcurl":11078,"Ġcursing":11079,"oote":11080,"Ġemph":11081,"Ġrail":11082,"Ġcalls":11083,"arming":11084,"ailable":11085,"Ġskidding":11086,"ĠUnless":11087,"Ġbooked":11088,"Ġmattered":11089,"Ġsquel":11090,"tenance":11091,"Ġcork":11092,"ructed":11093,"Ġcareers":11094,"Ġcarelessly":11095,"Ġuntied":11096,"Ġkiller":11097,"liato":11098,"Ġresolved":11099,"Ġresume":11100,"Ġscarred":11101,"Ġowing":11102,"Ġrecovered":11103,"Ġrecover":11104,"Ġcoup":11105,"Ġdroppings":11106,"Ġbadger":11107,"Ġstartling":11108,"phant":11109,"Ġexpulsion":11110,"Ġcoiling":11111,"Ġcoinc":11112,"Ġworkers":11113,"Ġsleet":11114,"swept":11115,"Ġguide":11116,"Ġvisions":11117,"Ġstraighter":11118,"Ġstops":11119,"enelope":11120,"Ġburden":11121,"Ġribb":11122,"Ġcomput":11123,"Ġexamin":11124,"Ġbrighter":11125,"Ġcompleted":11126,"Ġrefuge":11127,"Ġruin":11128,"Ġinsulted":11129,"Ġpocketed":11130,"Ġodds":11131,"Ġsafest":11132,"Ġreporter":11133,"Ġshutting":11134,"Ġdifferently":11135,"Ġspraying":11136,"Ġpurch":11137,"Ġtrials":11138,"OULD":11139,"Ġregain":11140,"Ġregurg":11141,"Ġcolleag":11142,"Ġquestioned":11143,"Ġescort":11144,"Ġburnt":11145,"Ġemerge":11146,"Ġvein":11147,"Ġwarningly":11148,"Ġignor":11149,"Ġinviting":11150,"ĠShop":11151,"Ġconsult":11152,"INKS":11153,"notus":11154,"Ġmentioning":11155,"Ġzoo":11156,"ĠExpect":11157,"Ġfearfully":11158,"Ġirre":11159,"Ġtransfer":11160,"Ġtransfig":11161,"Ġdeserves":11162,"Expelliarmus":11163,"Ġsisters":11164,"Ġbasic":11165,"Ġbasement":11166,"Ġguardian":11167,"Ġshrunken":11168,"Ġabsently":11169,"Ġabsolute":11170,"Ġsolution":11171,"Ġclassrooms":11172,"Ġpoltergeist":11173,"ĠDisposal":11174,"Ġcountless":11175,"Ġfainter":11176,"Ġpackages":11177,"Ġimpatience":11178,"Ġfixedly":11179,"Ġhonored":11180,"Ġdresser":11181,"Ġgrimace":11182,"Ġrocking":11183,"ĠWhite":11184,"Ġdriver":11185,"Ġgravely":11186,"Ġvillagers":11187,"Ġcomplained":11188,"Ġapplaud":11189,"Ġinky":11190,"Ġexploding":11191,"Ġlingering":11192,"ĠRemembr":11193,"Ġnoisily":11194,"Ġexpert":11195,"Ġremainder":11196,"Mrs":11197,"Ġbrilliantly":11198,"Ġbrilliance":11199,"Ġswallow":11200,"Ġdamaged":11201,"OOM":11202,"Ġsqueal":11203,"Ġunfocused":11204,"arranged":11205,"Ġeighteen":11206,"Ġsticky":11207,"gray":11208,"Ġgulping":11209,"Ġperforming":11210,"Ġscratches":11211,"Ġpermit":11212,"Ġgenerations":11213,"Ġstationed":11214,"ĠHalfway":11215,"Ġchatter":11216,"Ġsources":11217,"Ġlimit":11218,"Ġpumping":11219,"Ġpumpkins":11220,"Ġdevast":11221,"ĠMoony":11222,"Ġviolence":11223,"Ġconstric":11224,"Ġtorturing":11225,"ĠOFF":11226,"RYFF":11227,"Ġengraved":11228,"Ġgratefully":11229,"Ġcelebrate":11230,"Ġcelebrated":11231,"Ġfortnight":11232,"Ġproducts":11233,"Ġbriefcase":11234,"Ġgrasping":11235,"Ġdismissed":11236,"Ġcaptured":11237,"Ġprediction":11238,"Ġabandoning":11239,"Ġboats":11240,"Ġscrape":11241,"Ġcoats":11242,"Ġtennis":11243,"ĠUnderground":11244,"ĠKnuts":11245,"Ġappreciated":11246,"Ġbanisters":11247,"Ġfragile":11248,"Ġweekends":11249,"Ġaccusing":11250,"Def":11251,"Ġhills":11252,"Ġreckless":11253,"Ġequally":11254,"ĠConfund":11255,"Ġexaminations":11256,"aaaa":11257,"Ġ....":11258,"Ġcackle":11259,"Ġsubstit":11260,"Ġrevolted":11261,"ĠSTINKS":11262,"Ġbullet":11263,"Ġwheezed":11264,"Ġpupil":11265,"ĠWhether":11266,"Ġoccupants":11267,"Ġbomb":11268,"Ġattended":11269,"Ġvertical":11270,"Ġbalance":11271,"Ġdivided":11272,"ĠRubeus":11273,"Doesn":11274,"Impediment":11275,"vidently":11276,"Ġvacation":11277,"Ġturquoise":11278,"ĠSkiving":11279,"Ġradio":11280,"ĠInferius":11281,"Ġbarking":11282,"Ġobsession":11283,"Ġpulse":11284,"Ġslippers":11285,"Ġincantations":11286,"Ġpunctuated":11287,"Ġprowling":11288,"Ġeventually":11289,"Ġrasping":11290,"Ġremarkably":11291,"Ġcontemptuous":11292,"Ġcowardly":11293,"Ġdefenses":11294,"Ġsurprisingly":11295,"Ġtemporary":11296,"ĠRestricted":11297,"ski":11298,"thening":11299,"Ġshawl":11300,"Ġcombination":11301,"Ġbruised":11302,"ĠPrefect":11303,"Ġrubies":11304,"Ġrejoined":11305,"ĠUnfogging":11306,"Ġadditional":11307,"Ġencouragement":11308,"Ġinexplic":11309,"ĠPoltergeist":11310,"Ġextended":11311,"Ġspheres":11312,"Ġskeletal":11313,"Ġcubicle":11314,"Ġdignified":11315,"Ġvomit":11316,"Ġreassuringly":11317,"Ġanticipation":11318,"Ministry":11319,"Ġbolted":11320,"Ġpineapple":11321,"Ġwhizzing":11322,"ĠMonster":11323,"Ġchallenge":11324,"Ġsplintered":11325,"ĠGuide":11326,"ibyll":11327,"Ġleprechauns":11328,"marked":11329,"Ġhedges":11330,"Ġhaughty":11331,"Ġinspir":11332,"Ġaggressively":11333,"Ġintrigued":11334,"INDOR":11335,"Ġsoothingly":11336,"Ġmillion":11337,"ĠMirror":11338,"Ġastounded":11339,"Ġcleverer":11340,"Ġflexing":11341,"Ġexecutioner":11342,"Ġculpr":11343,"ĠThings":11344,"ĠFenrir":11345,"Ġtwilight":11346,"Ġresearch":11347,"Reparo":11348,"Ġwizened":11349,"Ġlemon":11350,"Ġsplendid":11351,"Ġprobation":11352,"Ġprogram":11353,"Ġfurtive":11354,"ĠSnackboxes":11355,"Ġdeposited":11356,"Second":11357,"Ġinhabitants":11358,"Ġsacrifice":11359,"Ġfabulous":11360,"Ġgillyweed":11361,"Ġfrankly":11362,"Ġvirtually":11363,"Ġplunging":11364,"Ġdisembodied":11365,"believable":11366,"Absolutely":11367,"tempered":11368,"Ġtumult":11369,"Ġapron":11370,"Ġdingy":11371,"ĠSusan":11372,"ĠCelestina":11373,"Ġclumsily":11374,"Ġsnoozing":11375,"Ġcobwe":11376,"Ġindividual":11377,"Ġzigz":11378,"Ġfancied":11379,"ĠElixir":11380,"Ġacknow":11381,"Ġpamph":11382,"Ġmoleskin":11383,"Ġemphas":11384,"Ġcolleagues":11385,"RYFFINDOR":11386,"Impedimenta":11387,"'?":11388,"-?\"":11389,"AK":11390,"AY":11391,"Aa":11392,"Avada":11393,"Bin":11394,"Bit":11395,"Correct":11396,"Dudley":11397,"DON":11398,"Eh":11399,"Eat":11400,"FY":11401,"Father":11402,"From":11403,"George":11404,"Glass":11405,"Hedwig":11406,"Knew":11407,"Long":11408,"Lily":11409,"Mc":11410,"Mount":11411,"Mudblood":11412,"Off":11413,"Oho":11414,"RID":11415,"Sn":11416,"Sometimes":11417,"THER":11418,"UCH":11419,"WHAT":11420,"aign":11421,"bod":11422,"bstones":11423,"bounds":11424,"cre":11425,"cold":11426,"cap":11427,"dom":11428,"fact":11429,"fish":11430,"gl":11431,"gen":11432,"gone":11433,"give":11434,"gmy":11435,"gaph":11436,"hn":11437,"his":11438,"hor":11439,"hire":11440,"jured":11441,"kind":11442,"lting":11443,"lius":11444,"mens":11445,"pret":11446,"posed":11447,"rus":11448,"size":11449,"said":11450,"tes":11451,"uk":11452,"uits":11453,"wall":11454,"watch":11455,"yr":11456,"your":11457,"ygmy":11458,"zily":11459,"ĠQU":11460,"Ġtattered":11461,"inqu":11462,"Ġsly":11463,"Ġwool":11464,"Ġwigg":11465,"onies":11466,"erk":11467,"ndane":11468,"Ġbi":11469,"Ġbon":11470,"Ġbrew":11471,"Ġbaw":11472,"Ġbows":11473,"Ġfurs":11474,"Ġfits":11475,"ĠHerm":11476,"atisf":11477,"Ġtossed":11478,"itled":11479,"itiously":11480,"itary":11481,"Ġcured":11482,"Ġcaptain":11483,"Ġhey":11484,"Ġhears":11485,"Ġdom":11486,"Ġdanced":11487,"Ġdash":11488,"Ġmarm":11489,"Ġmangled":11490,"Ġlent":11491,"Ġlinked":11492,"Ġloos":11493,"Ġlenses":11494,"Ġludicrous":11495,"Ġthus":11496,"Ġpained":11497,"Ġpork":11498,"Ġgou":11499,"Ġgagged":11500,"Ġguts":11501,"Ġnave":11502,"Ġnicked":11503,"Ġnurse":11504,"Ġnaked":11505,"Ġnagging":11506,"Ġnavy":11507,"lection":11508,"Ġsalt":11509,"omen":11510,"otions":11511,"Ġbeech":11512,"acock":11513,"iments":11514,"immed":11515,"imply":11516,"ussed":11517,"Ġsty":11518,"Ġstitch":11519,"Ġstee":11520,"Ġstowing":11521,"Ġstinking":11522,"Ġstony":11523,"Ġstumbling":11524,"ooled":11525,"Ġitems":11526,"ething":11527,"etched":11528,"icit":11529,"icately":11530,"roken":11531,"irc":11532,"utes":11533,"utting":11534,"ĠMe":11535,"ĠMid":11536,"ĠMull":11537,"ĠToo":11538,"ĠTold":11539,"ĠTurn":11540,"ĠTroy":11541,"Ġweighed":11542,"Ġweaving":11543,"Ġweighing":11544,"enter":11545,"adually":11546,"ĠSince":11547,"ĠServ":11548,"ĠSibyll":11549,"Ġrely":11550,"ĠDim":11551,"ĠDumb":11552,"ĠDID":11553,"urpr":11554,"alade":11555,"semp":11556,"agne":11557,"stood":11558,"stant":11559,"Ġwithered":11560,"chie":11561,"ĠPR":11562,"ĠPull":11563,"ĠPudd":11564,"ĠPAT":11565,"ĠPersonally":11566,"Ġnotices":11567,"ĠAge":11568,"Ġshack":11569,"Ġherd":11570,"emed":11571,"Ġdozed":11572,"unities":11573,"ĠBit":11574,"ĠBody":11575,"Ġmeals":11576,"Ġmegaph":11577,"Ġknack":11578,"Ġknitting":11579,"ĠGET":11580,"Ġray":11581,"Ġrue":11582,"Ġraced":11583,"ĠCream":11584,"ĠCourt":11585,"ĠCoote":11586,"Ġsheer":11587,"Ġsheaf":11588,"Ġshepher":11589,"Ġsocc":11590,"Ġsoaked":11591,"Ġwheels":11592,"lod":11593,"Ġbackground":11594,"orts":11595,"Ġliber":11596,"idelius":11597,"ĠLight":11598,"ĠLine":11599,"ĠLost":11600,"Ġvase":11601,"Ġviciously":11602,"Ġlend":11603,"Ġleered":11604,"istration":11605,"raight":11606,"raising":11607,"Ġroot":11608,"Ġalm":11609,"Ġalann":11610,"Ġalike":11611,"Ġaltogether":11612,"Ġdebr":11613,"Ġdepend":11614,"ffin":11615,"uls":11616,"ulse":11617,"Ġovert":11618,"Ġsuited":11619,"Ġpoker":11620,"Ġdownright":11621,"Ġdownfall":11622,"izzy":11623,"ĠNiff":11624,"Ġchink":11625,"Ġchipped":11626,"Ġchalk":11627,"eline":11628,"Ġspit":11629,"Ġsputtered":11630,"Ġqua":11631,"Ġquiver":11632,"Ġushered":11633,"Ġunp":11634,"Ġunhe":11635,"Ġunrave":11636,"Ġunique":11637,"arents":11638,"Ġworries":11639,"Ġjustice":11640,"Ġscal":11641,"Ġscrabb":11642,"Ġscrawled":11643,"Ġblushed":11644,"Ġblaze":11645,"Ġblustered":11646,"ĠVen":11647,"reathing":11648,"Ġclattered":11649,"Ġclues":11650,"apor":11651,"Ġslime":11652,"Ġslanting":11653,"Ġcomments":11654,"Ġheadfirst":11655,"ĠEight":11656,"ĠOld":11657,"Ġsmash":11658,"Ġvos":11659,"Ġtraced":11660,"Ġtrudged":11661,"auc":11662,"augh":11663,"innings":11664,"ptitiously":11665,"Ġgranted":11666,"Ġgradually":11667,"Ġflaw":11668,"Ġflanked":11669,"iddled":11670,"Ġarts":11671,"Ġarrow":11672,"Ġarrows":11673,"Ġpreten":11674,"Ġdiso":11675,"Ġdishes":11676,"Ġpepp":11677,"rowed":11678,"Ġbecomes":11679,"Ġmundane":11680,"Ġappe":11681,"Ġlooming":11682,"Ġlolling":11683,"Ġspec":11684,"Ġspeck":11685,"Ġspecul":11686,"mber":11687,"Ġbrush":11688,"ĠDevil":11689,"Ġacid":11690,"Ġprovo":11691,"actory":11692,"Ġtryouts":11693,"Ġprinting":11694,"Ġdescent":11695,"Ġcontent":11696,"Ġcontam":11697,"Ġattracted":11698,"Ġtales":11699,"Ġtalented":11700,"Ġstrangle":11701,"ĠChampions":11702,"Ġwinds":11703,"Quotes":11704,"Ġdrum":11705,"Ġcrates":11706,"Ġcrunching":11707,"Ġcronies":11708,"Ġimpass":11709,"Ġimpulse":11710,"Ġhurts":11711,"Ġentitled":11712,"Ġsurly":11713,"Ġhelm":11714,"ĠThank":11715,"Ġwringing":11716,"Ġsecondhand":11717,"Ġwordlessly":11718,"weet":11719,"Ġeman":11720,"Ġarmed":11721,"eeee":11722,"azing":11723,"Ġhaircut":11724,"Ġperil":11725,"Ġretal":11726,"Ġretching":11727,"Ġnothingness":11728,"ĠJan":11729,"bliv":11730,"Ġairpl":11731,"ĠUnbreak":11732,"Ġsquaw":11733,"Ġfirework":11734,"Ġstudied":11735,"should":11736,"shop":11737,"ibuster":11738,"Ġuntr":11739,"prints":11740,"Ġparting":11741,"Ġgreed":11742,"Ġrestlessly":11743,"Ġtreasures":11744,"Ġglassy":11745,"Ġforearm":11746,"ĠAnth":11747,"Ġadvert":11748,"Ġexpanded":11749,"iggy":11750,"Ġpaint":11751,"Ġcobbled":11752,"raced":11753,"Ġindex":11754,"Ġindistinct":11755,"ĠWhatever":11756,"ĠYer":11757,"Ġfurrowed":11758,"Ġfours":11759,"Ġguest":11760,"Ġdecip":11761,"Ġdetached":11762,"Ġmarg":11763,"Ġdeflected":11764,"Ġlaughs":11765,"ĠClose":11766,"ĠFilibuster":11767,"Ġreference":11768,"Ġpatrol":11769,"Ġkitten":11770,"imbulus":11771,"Ġmismat":11772,"Ġmistr":11773,"Ġinsisting":11774,"Ġwatchful":11775,"Ġsweep":11776,"ĠSnive":11777,"Ġfighters":11778,"abbling":11779,"Ġearsplitting":11780,"Ġgasps":11781,"Ġpursed":11782,"Ġapprove":11783,"Ġrunes":11784,"Ġrepel":11785,"Ġregime":11786,"Ġevapor":11787,"Ġwrites":11788,"ĠReally":11789,"Ġsplashed":11790,"Ġsplash":11791,"Ġintention":11792,"Ġsunset":11793,"Before":11794,"Ġwarnings":11795,"Ġbarrel":11796,"ubs":11797,"Ġconsol":11798,"Ġvisitor":11799,"Ġreasonable":11800,"Ġdiscomfort":11801,"Ġdoubts":11802,"ĠErised":11803,"Ġsinged":11804,"Ġcopying":11805,"ĠPatrick":11806,"Ġchampagne":11807,"Ġhaste":11808,"Ġglossy":11809,"amenti":11810,"Ġwilder":11811,"Ġhunger":11812,"Ġtighter":11813,"Ġtraffic":11814,"ONS":11815,"ĠTrue":11816,"bletonia":11817,"Ġforms":11818,"Ġviews":11819,"Ġproperties":11820,"Ġsolitary":11821,"Ġpostp":11822,"ĠDaddy":11823,"Ġboundaries":11824,"Ġsmelly":11825,"Ġpassageways":11826,"Ġeyebrow":11827,"Ġcircled":11828,"ograp":11829,"ĠGobstones":11830,"Ġpowdered":11831,"Ġgenially":11832,"Ġessays":11833,"Ġtrickled":11834,"ceeds":11835,"Ġbewitching":11836,"ĠImpro":11837,"Ġreceiver":11838,"Ġreceiving":11839,"Ġsparkled":11840,"ossibly":11841,"ĠWands":11842,"Ġprepar":11843,"Ġapprehension":11844,"Ġpositioned":11845,"Ġgrapef":11846,"ĠPhleg":11847,"Ġsnatch":11848,"attergro":11849,"Ġlurked":11850,"Ġjinxed":11851,"Ġinterruption":11852,"Ġfatal":11853,"Ġeffective":11854,"OOD":11855,"Ġfolds":11856,"ĠTwelve":11857,"Ġwrapper":11858,"Ġstripped":11859,"ification":11860,"Ġconcerns":11861,"Ġunfur":11862,"Ġconcealing":11863,"ĠYours":11864,"Ġcharming":11865,"ĠGrindylow":11866,"ĠDisapparating":11867,"Ġwelcoming":11868,"terbeers":11869,"Ġsuitcase":11870,"zzle":11871,"Ġcounterc":11872,"Ġplatforms":11873,"Ġbuildings":11874,"Ġunworthy":11875,"Ġpinch":11876,"Ġenvelopes":11877,"Ġladies":11878,"Ġbeauty":11879,"Forget":11880,"Ġastonishing":11881,"Ġcontract":11882,"Ġmurderous":11883,"Ġresemb":11884,"Ġreports":11885,"Ġpredicted":11886,"quely":11887,"Ġintervals":11888,"Ġfaltered":11889,"Ġaccompanying":11890,"Ġscraped":11891,"Ġarrange":11892,"Ġsniffing":11893,"oche":11894,"Ġpursued":11895,"hensible":11896,"ĠBulgaria":11897,"ĠBulgarians":11898,"footed":11899,"Ġwarlocks":11900,"Ġwithdrawing":11901,"Ġprickled":11902,"Ġwaistcoat":11903,"Ġnecessarily":11904,"Ġenthusiastic":11905,"Ġblazed":11906,"Ġclambering":11907,"Ġlengths":11908,"Ġreassured":11909,"Ġshielding":11910,"Ġappoint":11911,"icism":11912,"ĠMaladies":11913,"Ġschedules":11914,"Ġhammered":11915,"Ġbeckoning":11916,"Ġsmoky":11917,"Ġaccepting":11918,"Ġresistance":11919,"Ġfalsely":11920,"Ġlazy":11921,"Ġverge":11922,"Ġdivide":11923,"ĠFrogs":11924,"Ġvolume":11925,"Ġcurrent":11926,"Ġvacant":11927,"ĠOutside":11928,"Ġadmiring":11929,"fourth":11930,"Ġcrazy":11931,"Ġbeams":11932,"Ġconfession":11933,"Ġhostage":11934,"Ġhostages":11935,"Ġmalicious":11936,"ĠRomania":11937,"Ġcriminal":11938,"Ġdwelling":11939,"Ġpulsing":11940,"Ġownership":11941,"Ġindifferent":11942,"Ġwisely":11943,"Ġawarded":11944,"Ġharassed":11945,"Poor":11946,"Point":11947,"Ġfascinated":11948,"Ġsalam":11949,"Ġrotten":11950,"Ġqualities":11951,"Ġrecovery":11952,"Ġensl":11953,"Unless":11954,"Ġsession":11955,"Ġwriggled":11956,"Ġwriggling":11957,"Ġconcealment":11958,"Ġperiods":11959,"Ġapologize":11960,"Ġsiph":11961,"Ġrejoin":11962,"Ġshrewdly":11963,"Ġentrances":11964,"Ġperfumed":11965,"uberant":11966,"Ġtactics":11967,"Ġmimbletonia":11968,"Ġperfonned":11969,"Ġsympathetically":11970,"Ġbullying":11971,"Ġdeduced":11972,"Ġdignity":11973,"Ġclasped":11974,"Ġresignation":11975,"Ġreferring":11976,"Ġfreckles":11977,"Cheers":11978,"lookers":11979,"Ġcrawl":11980,"Ġcrawling":11981,"ĠBasilisk":11982,"Ġclammy":11983,"Ġelbows":11984,"Ġmuscles":11985,"Ġskeptically":11986,"ĠSpecial":11987,"ĠFortescue":11988,"Ġexhaustion":11989,"Ġspoil":11990,"Ġtextbook":11991,"Ġcrisp":11992,"Ġreproachful":11993,"Ġsidled":11994,"Ġniffler":11995,"ĠTotalus":11996,"Ġsockets":11997,"Ġchortled":11998,"Ġunnerved":11999,"Ġcriticize":12000,"Ġintruders":12001,"Ġunnecessary":12002,"Ġfulfill":12003,"Ġpompous":12004,"ichever":12005,"ĠWITH":12006,"Ġroute":12007,"ĠLoony":12008,"Ġexercise":12009,"Ġimploringly":12010,"Ġdispleasure":12011,"ĠGryffmdor":12012,"Ġunconvincing":12013,"Ġmalevolently":12014,"Ġoverwhelm":12015,"Apparently":12016,"Ġestab":12017,"Ġavidly":12018,"orpus":12019,"ĠIgnotus":12020,"Ġshamrock":12021,"Ġquantity":12022,"Ġgrindylows":12023,"Ġaccurate":12024,"Ġsubdued":12025,"Ġinnocently":12026,"Ġeavesdro":12027,"Ġthestral":12028,"Ġlampl":12029,"ĠDesp":12030,"Ġspiked":12031,"Ġobediently":12032,"Ġabsorbed":12033,"Ġoblivious":12034,"ompletely":12035,"ĠSinistra":12036,"Ġbuttons":12037,"Ġbackfired":12038,"Ġwafting":12039,"Ġsurreptitiously":12040,"Ġcomprehension":12041,"Ġengulfed":12042,"Ġdisconcerted":12043,"Merlin":12044,"Ġancest":12045,"ĠABOUT":12046,"Ġterrifying":12047,"Ġskirting":12048,"Ġdistinguish":12049,"ĠDisillusionment":12050,"Ġjudgment":12051,"Ġphrase":12052,"Lovely":12053,"gomath":12054,"Ġdrills":12055,"Ġlilac":12056,"Ġecst":12057,"Ġeldest":12058,"ĠMaintenance":12059,"ĠSorcery":12060,"Ġricoche":12061,"ĠFoe":12062,"Ġvicinity":12063,"bberworm":12064,"ĠOlympe":12065,"ectumsemp":12066,"Ġimpenetrable":12067,"Ġtersely":12068,"Ġcomputer":12069,"ĠExpectations":12070,"Ġapplauded":12071,"ĠRemembrall":12072,"Ġinspiration":12073,"Ġculprit":12074,"Ġmarmalade":12075,"Ġnavel":12076,"ĠMullet":12077,"Ġmegaphone":12078,"Ġsoccer":12079,"Ġdebris":12080,"ĠUnbreakable":12081,"Ġmismatched":12082,"ĠImproper":12083,"Ġgrapefruit":12084,"ĠPhlegm":12085,"ectumsempra":12086,"AU":12087,"Ac":12088,"Acc":12089,"AIN":12090,"Br":12091,"Big":12092,"Bathilda":12093,"Care":12094,"Dementors":12095,"EA":12096,"EP":12097,"Ever":12098,"EAR":12099,"EVE":12100,"Easy":12101,"Fif":12102,"Fudge":12103,"GW":12104,"GET":12105,"Horned":12106,"IZ":12107,"IKE":12108,"Ladies":12109,"Mar":12110,"Night":12111,"Ros":12112,"Riddle":12113,"Rubb":12114,"Ser":12115,"Said":12116,"Til":12117,"Trying":12118,"UST":12119,"Watch":12120,"bare":12121,"bound":12122,"bage":12123,"bility":12124,"cary":12125,"called":12126,"dog":12127,"dinary":12128,"eer":12129,"every":12130,"eague":12131,"fr":12132,"fold":12133,"have":12134,"hinx":12135,"justed":12136,"lance":12137,"lies":12138,"makers":12139,"nold":12140,"nie":12141,"norm":12142,"ocle":12143,"oculars":12144,"pin":12145,"pid":12146,"pal":12147,"pers":12148,"power":12149,"ral":12150,"sir":12151,"sight":12152,"specially":12153,"tress":12154,"turbed":12155,"telling":12156,"vest":12157,"washed":12158,"yeah":12159,"Ġiced":12160,"Ġtid":12161,"Ġtun":12162,"Ġtire":12163,"Ġties":12164,"Ġtawn":12165,"Ġtaut":12166,"Ġtipping":12167,"Ġtakin":12168,"hecary":12169,"Ġairy":12170,"Ġsom":12171,"Ġsouth":12172,"Ġwretched":12173,"remon":12174,"ouble":12175,"Ġhing":12176,"Ġhither":12177,"Ġhints":12178,"ingle":12179,"erb":12180,"argh":12181,"Ġbumping":12182,"Ġbisc":12183,"Ġfame":12184,"Ġfile":12185,"Ġfried":12186,"Ġfrying":12187,"Ġoaf":12188,"Ġomen":12189,"ĠHolding":12190,"ĠHardly":12191,"isons":12192,"isbe":12193,"Ġtoads":12194,"Ġtoffees":12195,"itro":12196,"Ġcore":12197,"Ġcord":12198,"Ġcere":12199,"Ġcages":12200,"Ġcaves":12201,"Ġcafe":12202,"asion":12203,"asel":12204,"asily":12205,"llab":12206,"idable":12207,"ori":12208,"Ġheave":12209,"enior":12210,"Ġdart":12211,"Ġdangled":12212,"Ġdomed":12213,"Ġdarling":12214,"Ġdagger":12215,"Ġmasks":12216,"Ġlic":12217,"Ġlod":12218,"Ġlank":12219,"Ġthudd":12220,"Ġthirst":12221,"Ġpad":12222,"Ġpant":12223,"Ġphy":12224,"Ġpipes":12225,"Ġpiggy":12226,"Ġhaw":12227,"Ġgor":12228,"Ġgaps":12229,"Ġgaining":12230,"Ġgamb":12231,"Ġinad":12232,"Ġinse":12233,"Ġinward":12234,"Ġnutter":12235,"Ġnational":12236,"Ġsale":12237,"Ġsailed":12238,"Ġsacks":12239,"omb":12240,"omora":12241,"Ġwasp":12242,"Ġwast":12243,"Ġbef":12244,"Ġbein":12245,"Ġbean":12246,"Ġbegged":12247,"Ġbegging":12248,"Ġearm":12249,"Ġecc":12250,"imps":12251,"Ġstated":12252,"Ġstale":12253,"Ġstinging":12254,"oops":12255,"ooperation":12256,"Ġonlookers":12257,"etops":12258,"ication":12259,"Ġwha":12260,"Ġwhirling":12261,"iron":12262,"iringly":12263,"ĠMen":12264,"ĠMist":12265,"ĠMars":12266,"ĠTears":12267,"ĠTEN":12268,"ĠTurning":12269,"Ġwears":12270,"entric":12271,"Ġashes":12272,"ĠSH":12273,"ĠSU":12274,"ĠSlo":12275,"ĠSho":12276,"ĠSorry":12277,"ĠSectumsempra":12278,"Ġrearranged":12279,"ĠDer":12280,"ĠDiddy":12281,"urst":12282,"urably":12283,"urdy":12284,"alers":12285,"although":12286,"agons":12287,"ĠRain":12288,"ĠRod":12289,"ĠRipper":12290,"keeping":12291,"ooks":12292,"amiliar":12293,"Ġseal":12294,"Ġsealing":12295,"Ġsection":12296,"Ġselected":12297,"uman":12298,"ĠPu":12299,"ĠPow":12300,"ĠPenelope":12301,"ĠPygmy":12302,"tery":12303,"ĠAc":12304,"ĠAround":12305,"ĠALL":12306,"Ġshunted":12307,"Ġkicking":12308,"ĠHel":12309,"ĠHey":12310,"ĠHealers":12311,"pending":12312,"ĠWOR":12313,"ĠWait":12314,"ĠWANT":12315,"Ġfridge":12316,"ighty":12317,"Ġoutb":12318,"cely":12319,"cepted":12320,"ceremon":12321,"ĠBra":12322,"ĠBACK":12323,"Ġnephe":12324,"ĠGames":12325,"ilized":12326,"Ġrauc":12327,"ĠCress":12328,"ĠCON":12329,"ĠCOME":12330,"ĠCooperation":12331,"Ġfeathery":12332,"Ġalleg":12333,"ĠFight":12334,"ĠFrench":12335,"ĠFidelius":12336,"Ġjumble":12337,"Ġgoat":12338,"ckles":12339,"Ġsoar":12340,"Ġsoaking":12341,"Ġsopping":12342,"Ġsociety":12343,"elly":12344,"asty":12345,"loding":12346,"qual":12347,"Ġliver":12348,"ĠLies":12349,"ĠLying":12350,"Ġexisted":12351,"Ġleathery":12352,"inkhard":12353,"Ġdeg":12354,"Ġdears":12355,"Ġoverhe":12356,"Ġovernight":12357,"Ġsup":12358,"Ġpoles":12359,"Ġpoised":12360,"Ġoffense":12361,"izzing":12362,"ĠNaturally":12363,"ĠNOW":12364,"Ġchap":12365,"Ġchint":12366,"Ġspared":12367,"Ġspine":12368,"Ġspattered":12369,"Ġspattergro":12370,"Ġsphinx":12371,"Ġquarters":12372,"Ġconsequ":12373,"Ġconvenient":12374,"ickering":12375,"ieval":12376,"Ġunch":12377,"Ġunsure":12378,"Ġunseen":12379,"Ġunbeat":12380,"Ġunceremon":12381,"Ġhandy":12382,"ĠWeather":12383,"Ġworm":12384,"ĠProbably":12385,"Ġcannon":12386,"Ġscen":12387,"Ġscabbed":12388,"Ġscuffling":12389,"Ġschem":12390,"reath":12391,"Ġplot":12392,"Ġplum":12393,"Ġplastered":12394,"Ġclang":12395,"uphor":12396,"Ġslowing":12397,"Ġcombat":12398,"Ġheadlights":12399,"ĠEvidently":12400,"ĠOcc":12401,"ĠObviously":12402,"ĠOUCH":12403,"Ġtwelf":12404,"Ġsmacking":12405,"Ġstillness":12406,"Ġtrund":12407,"Ġtrotting":12408,"Ġglimmering":12409,"Ġgrade":12410,"Ġgrues":12411,"Ġgrotes":12412,"Ġswap":12413,"Ġswearing":12414,"Ġflagon":12415,"Ġflourish":12416,"Ġmanor":12417,"Ġenable":12418,"wny":12419,"ftily":12420,"thought":12421,"Ġpreoccupied":12422,"Ġimit":12423,"Ġdisent":12424,"Ġpeacock":12425,"Ġloftily":12426,"Ġbetting":12427,"Ġbrus":12428,"Ġbrings":12429,"Ġbraced":12430,"Ġproven":12431,"Ġproving":12432,"Ġsecurely":12433,"ntil":12434,"Ġprint":12435,"Ġcontracted":12436,"Ġcontented":12437,"Ġhover":12438,"Ġhoisting":12439,"Ġattach":12440,"udders":12441,"Ġflock":12442,"Ġflobberworm":12443,"Ġwalrus":12444,"Ġstrate":12445,"Ġwindsh":12446,"Ġwindswept":12447,"Ġopenly":12448,"Ġcrad":12449,"Ġcrimes":12450,"Ġcrushed":12451,"Ġcrushing":12452,"Ġcrashes":12453,"Ġpassers":12454,"ĠQuite":12455,"Ġendured":12456,"Ġstandards":12457,"ĠInner":12458,"Ġgild":12459,"ieties":12460,"Ġsoundlessly":12461,"Ġemitted":12462,"Ġemotions":12463,"Ġarmful":12464,"Ġperse":12465,"Ġsettling":12466,"ĠDeathstick":12467,"ipsed":12468,"Ġhelplessly":12469,"ĠStay":12470,"ĠStinks":12471,"Ġbooklist":12472,"Ġmattress":12473,"Ġfireside":12474,"Ġfirewhisky":12475,"sharp":12476,"Ġclassmates":12477,"ĠDarkness":12478,"Ġcareless":12479,"ĠPerce":12480,"Ġuntouched":12481,"eyond":12482,"Ġexpecto":12483,"Ġmutinous":12484,"retty":12485,"clot":12486,"Ġrestore":12487,"Ġrestless":12488,"Ġrestored":12489,"Ġtremend":12490,"Ġtreetops":12491,"Ġrecoll":12492,"Ġrecru":12493,"Ġrecited":12494,"Ġrecalled":12495,"Ġdistressed":12496,"Ġdistorted":12497,"ĠAnn":12498,"Ġadop":12499,"Ġexpensive":12500,"anny":12501,"annus":12502,"Ġhourglass":12503,"Ġcontinually":12504,"cience":12505,"Ġparlor":12506,"Ġdetected":12507,"Ġdetailed":12508,"Ġannouncing":12509,"Ġannouncement":12510,"Ġhopeless":12511,"Ġhitched":12512,"ĠAlways":12513,"ĠFlore":12514,"ceptable":12515,"Ġcomposed":12516,"Ġtalkin":12517,"Ġbuzz":12518,"Ġrelish":12519,"Ġrelinqu":12520,"Ġkinds":12521,"Ġinterpret":12522,"Ġintercepted":12523,"Ġmonocle":12524,"Ġrefr":12525,"ĠBeg":12526,"Ġruby":12527,"Ġrubble":12528,"Ġinsults":12529,"Ġthicker":12530,"Ġheavier":12531,"Ġbloodstained":12532,"Ġstrewn":12533,"Ġinterests":12534,"Ġpresum":12535,"Ġsprung":12536,"Ġsprint":12537,"Ġsprouts":12538,"Ġappropri":12539,"Ġtries":12540,"Ġtriple":12541,"Ġtriangular":12542,"Ġrune":12543,"OUGH":12544,"Ġfairy":12545,"string":12546,"Ġ11":12547,"Ġ17":12548,"Ġ19":12549,"Ġdrawled":12550,"Ġchests":12551,"Ġwrithed":12552,"Ġgiantess":12553,"Ġsplattering":12554,"Ġcollaps":12555,"Ġescorted":12556,"Ġintact":12557,"Ġexpressionless":12558,"Ġcreate":12559,"Ġattacker":12560,"Been":12561,"Ġswords":12562,"Ġconsulted":12563,"Ġconsulting":12564,"Ġconscience":12565,"Ġzis":12566,"Ġballoon":12567,"ĠExactly":12568,"ĠExpelliarmus":12569,"Ġdiscern":12570,"ĠNott":12571,"Ġrattle":12572,"Ġcabinets":12573,"Ġirres":12574,"Ġtransfonn":12575,"Ġstomped":12576,"Explain":12577,"Exceeds":12578,"Ġtorso":12579,"Ġshrieks":12580,"ĠTHREE":12581,"ĠSecond":12582,"Ġgrowl":12583,"Ġgrowling":12584,"Ġferoc":12585,"Ġchildhood":12586,"Ġprompted":12587,"Ġtallest":12588,"Ġdemanding":12589,"Ġformer":12590,"Ġsolve":12591,"Ġcracks":12592,"Ġdestruction":12593,"Ġtailing":12594,"Ġdustbins":12595,"Ġpolishing":12596,"Ġtowered":12597,"Ġweakened":12598,"Ġsecretly":12599,"Ġconviction":12600,"Ġpresented":12601,"Ġreplacing":12602,"Ġsmells":12603,"Ġpossessing":12604,"Ġmagenta":12605,"Ġgraying":12606,"ographer":12607,"Ġelephant":12608,"clockwise":12609,"Ġgardens":12610,"Ġfistful":12611,"ĠSeeing":12612,"Ġfingertips":12613,"Ġcurtained":12614,"Ġaffair":12615,"Ġsmoothing":12616,"ARGH":12617,"ARTS":12618,"Ġuneart":12619,"Ġuneven":12620,"Ġunease":12621,"Ġundo":12622,"Ġspectators":12623,"ĠAnyone":12624,"iasco":12625,"Ġwarmer":12626,"Ġwarmly":12627,"Ġfilm":12628,"Ġcolorless":12629,"Ġthreaten":12630,"Ġdelay":12631,"Ġdelicately":12632,"Ġbinoculars":12633,"Ġmerc":12634,"Ġsatisfying":12635,"Ġrevive":12636,"Ġmurdering":12637,"Ġfolding":12638,"Ġalarmingly":12639,"Ġsurviv":12640,"STOP":12641,"Ġunfair":12642,"Ġtestily":12643,"Ġeighty":12644,"Ġremoving":12645,"Ġprivile":12646,"grand":12647,"grate":12648,"scape":12649,"Ġmoodily":12650,"Ġstreamed":12651,"Ġperformance":12652,"Ġcorrespond":12653,"ĠGrawpy":12654,"Ġvaults":12655,"Ġstationary":12656,"Ġsuitable":12657,"Ġtreatment":12658,"Ġaims":12659,"Ġlimited":12660,"omeda":12661,"ĠHadn":12662,"ĠSlinkhard":12663,"ĠPoor":12664,"ĠIsn":12665,"Ġcharging":12666,"Ġtoilets":12667,"Ġscreeching":12668,"Ġscreeches":12669,"While":12670,"Ġearnest":12671,"Ġrustled":12672,"ATE":12673,"Ġflicker":12674,"Ġwounded":12675,"Ġcampaign":12676,"Ġrisky":12677,"Ġchuckling":12678,"Ġcardboard":12679,"Ġfortress":12680,"Ġmodified":12681,"Ġproducing":12682,"Ġamber":12683,"Ġrisks":12684,"ĠExploding":12685,"Ġwisdom":12686,"ĠSports":12687,"Ġembarrassment":12688,"Ġdawning":12689,"ĠTWO":12690,"Ġforgiven":12691,"Ġopportunities":12692,"Ġweapons":12693,"Ġdisappearances":12694,"Ġbandaged":12695,"ĠKnut":12696,"ĠKnowing":12697,"Ġwrists":12698,"Ġgargoyles":12699,"Ġsupporter":12700,"Ġintroduction":12701,"Ġvelvety":12702,"Ġidiots":12703,"Ġlumps":12704,"Ġneighboring":12705,"Ġpursue":12706,"Ġblasting":12707,"Ġdodgy":12708,"Ġsuccessfully":12709,"ITOR":12710,"Ġtearful":12711,"Ġhillside":12712,"ĠPortkeys":12713,"Ġfailing":12714,"Ġpuffs":12715,"ĠWarlock":12716,"Ġdenying":12717,"Ġmysteriously":12718,"Ġrecords":12719,"ĠParsehn":12720,"Ġhorns":12721,"Ġhorned":12722,"Ġbeetles":12723,"Ġpitiful":12724,"Ġpuddings":12725,"Ġrebounded":12726,"Ġresentfully":12727,"balls":12728,"Ġtartly":12729,"Ġclubs":12730,"Ġpenetrated":12731,"fallen":12732,"Ġobliter":12733,"Ġflowerbed":12734,"ĠGetting":12735,"Ġconcluded":12736,"Ġlocation":12737,"Ġretrieved":12738,"Imper":12739,"Ġthreadbare":12740,"Ġpennitted":12741,"ĠEngland":12742,"Ġchessmen":12743,"Ġtroubles":12744,"Ġdemonstrating":12745,"Ġinventing":12746,"Ġgoggled":12747,"Ġteaches":12748,"ĠSquibs":12749,"AAAA":12750,"Ġconfessed":12751,"Ġpouchy":12752,"Ġnightmares":12753,"Ġpatience":12754,"Ġvigil":12755,"Ġpunctured":12756,"Ġrasp":12757,"Ġrasped":12758,"pelliannus":12759,"Ġjerkily":12760,"Ġimprisonment":12761,"Ġsausage":12762,"Ġaddressing":12763,"Ġhiccup":12764,"Ġmorale":12765,"Ġornament":12766,"Ġcreams":12767,"Ġredder":12768,"Ġreddening":12769,"Ġmaintained":12770,"Ġmaintaining":12771,"Muggles":12772,"Ġfishy":12773,"Ġscuttling":12774,"Ġrestrain":12775,"Ġcustard":12776,"Ġwhimper":12777,"ĠMandrake":12778,"Ġdishon":12779,"Ġcreepy":12780,"ĠWheezy":12781,"RONUM":12782,"Ġmournful":12783,"ĠAmelia":12784,"Ġchooses":12785,"ĠONE":12786,"Ġcompanions":12787,"Ġinquiry":12788,"Ġinvolving":12789,"Ġcongratulate":12790,"Ġcongratulations":12791,"Ġaverted":12792,"Ġaverage":12793,"Ġstrictly":12794,"Grind":12795,"Minerva":12796,"Ġstonned":12797,"secret":12798,"Ġdisagree":12799,"Ġsilhouetted":12800,"Ġsilhouette":12801,"Ġparalyzed":12802,"Ġhysterical":12803,"Ġrepresentatives":12804,"Ġcrestfallen":12805,"ĠDoxys":12806,"Ġindecent":12807,"Ġincidentally":12808,"Ġreproachfully":12809,"WEASLEY":12810,"Ġwireless":12811,"Ġuninjured":12812,"Ġobstacles":12813,"rificus":12814,"magical":12815,"Ġtingling":12816,"Ġsustained":12817,"Ġcalcul":12818,"Ġprofile":12819,"Ġwispy":12820,"Ġprecaution":12821,"Ġversus":12822,"Ġtilted":12823,"Ġsanct":12824,"ĠHOGW":12825,"Ġlunatic":12826,"Ġgarage":12827,"Ġramparts":12828,"Ġentertaining":12829,"Ġcorpse":12830,"ĠArtifacts":12831,"Ġbenefit":12832,"Ġopponent":12833,"Ġadmirers":12834,"Ġjewel":12835,"Ġcommunicating":12836,"ĠMisuse":12837,"ĠSybill":12838,"ĠSPEW":12839,"ĠGolgomath":12840,"Ġjostling":12841,"Ġreminisc":12842,"Ġblackmail":12843,"Ġderisive":12844,"Ġdwarf":12845,"Ġhann":12846,"Ġplummeted":12847,"Ġpremises":12848,"Ġmisunderstood":12849,"XPECTO":12850,"breeds":12851,"Ġdrowsy":12852,"Ġunlucky":12853,"Ġglimmered":12854,"Ġbookshelves":12855,"Ġincomprehensible":12856,"Ġmiraculously":12857,"Ġtimetable":12858,"witness":12859,"Ġoozing":12860,"ĠIgnoring":12861,"Ġwhirring":12862,"ĠMuffliato":12863,"ĠMINIST":12864,"Ġrectangular":12865,"Ġdisliked":12866,"Ġcoincidence":12867,"Defense":12868,"Ġsteely":12869,"ĠPATRONUM":12870,"aughing":12871,"ĠChampionship":12872,"ĠJanuary":12873,"ĠAnthony":12874,"Ġresemblance":12875,"ĠDespite":12876,"Careful":12877,"Rubbish":12878,"Ġsomber":12879,"Ġhinges":12880,"itrov":12881,"Ġphys":12882,"Ġearmuffs":12883,"Ġeccentric":12884,"ĠSloper":12885,"Ġnephew":12886,"ĠCresswell":12887,"Ġallegiance":12888,"Ġchintz":12889,"Ġunbeatable":12890,"Ġtwelfth":12891,"Ġgruesome":12892,"Ġwindshield":12893,"ĠStinksap":12894,"Ġappropriate":12895,"ĠParsehnouth":12896,"ĠHOGWARTS":12897,"'...":12898,"-'":12899,"AB":12900,"Ag":12901,"ABLE":12902,"BE":12903,"Best":12904,"Break":12905,"Boys":12906,"Crabbe":12907,"Coming":12908,"Digg":12909,"Dead":12910,"Fire":12911,"Gu":12912,"Griphook":12913,"Hany":12914,"Hope":12915,"Having":12916,"IRE":12917,"Imp":12918,"LI":12919,"Lupin":12920,"Little":12921,"Mac":12922,"Might":12923,"Mine":12924,"Mundungus":12925,"Oo":12926,"Ow":12927,"Obviously":12928,"Ph":12929,"Personally":12930,"RR":12931,"Run":12932,"Read":12933,"RUN":12934,"Sm":12935,"Sil":12936,"Same":12937,"Since":12938,"Says":12939,"Uh":12940,"Ve":12941,"Viktor":12942,"Wand":12943,"Wood":12944,"Wormtail":12945,"WHO":12946,"bum":12947,"bled":12948,"cont":12949,"cited":12950,"cogn":12951,"cibly":12952,"comm":12953,"cival":12954,"dr":12955,"factly":12956,"fetched":12957,"ga":12958,"gent":12959,"homora":12960,"jud":12961,"lap":12962,"live":12963,"lated":12964,"lined":12965,"lery":12966,"nces":12967,"olf":12968,"po":12969,"pane":12970,"pole":12971,"race":12972,"rite":12973,"romeda":12974,"some":12975,"skin":12976,"til":12977,"tlap":12978,"ueling":12979,"vals":12980,"wy":12981,"wen":12982,"wter":12983,"wings":12984,"warted":12985,"witted":12986,"zard":12987,"zil":12988,"Ġic":12989,"Ġounce":12990,"Ġtour":12991,"Ġtrif":12992,"Ġtrod":12993,"Ġtub":12994,"Ġticking":12995,"Ġtidy":12996,"heasant":12997,"Ġaer":12998,"Ġarou":12999,"Ġaqu":13000,"Ġached":13001,"Ġawe":13002,"Ġaura":13003,"inch":13004,"inate":13005,"Ġwad":13006,"Ġwove":13007,"Ġwicked":13008,"Ġwarily":13009,"Ġwadd":13010,"Ġwrench":13011,"Ġwrenching":13012,"rex":13013,"reaking":13014,"oughed":13015,"Ġhord":13016,"Ġhump":13017,"Ġhunch":13018,"erro":13019,"erting":13020,"erving":13021,"erable":13022,"arity":13023,"Ġber":13024,"Ġbid":13025,"Ġbay":13026,"Ġbers":13027,"Ġbog":13028,"Ġbade":13029,"Ġbord":13030,"Ġbanshee":13031,"Ġbickering":13032,"Ġfest":13033,"Ġfade":13034,"Ġfumbling":13035,"Ġfiddling":13036,"Ġfiasco":13037,"Ġoven":13038,"Ġoily":13039,"Ġomens":13040,"ĠHot":13041,"ĠHung":13042,"atured":13043,"isure":13044,"Ġtoffee":13045,"itious":13046,"Ġcabb":13047,"Ġcuffs":13048,"Ġcauses":13049,"idarkness":13050,"ena":13051,"ener":13052,"ensed":13053,"enger":13054,"encio":13055,"Ġdough":13056,"Ġdank":13057,"Ġdaw":13058,"Ġdump":13059,"Ġdagg":13060,"Ġdangers":13061,"Ġdizzy":13062,"Ġmout":13063,"Ġmaimed":13064,"Ġlas":13065,"Ġlick":13066,"Ġlicking":13067,"Ġlament":13068,"Ġlyin":13069,"Ġthri":13070,"Ġthwarted":13071,"Ġpell":13072,"Ġpest":13073,"Ġpans":13074,"Ġpets":13075,"Ġpimp":13076,"Ġpawed":13077,"Ġhalves":13078,"Ġgum":13079,"Ġgaw":13080,"Ġgarl":13081,"Ġgagg":13082,"Ġgoose":13083,"Ġgurg":13084,"owls":13085,"Ġsaves":13086,"Ġsauc":13087,"omin":13088,"Ġyield":13089,"Ġyew":13090,"Ġbeans":13091,"ghorn":13092,"Ġeard":13093,"Ġeast":13094,"Ġetern":13095,"imate":13096,"Ġstress":13097,"Ġstunning":13098,"Ġstates":13099,"ooling":13100,"eting":13101,"ica":13102,"icorpus":13103,"roach":13104,"roying":13105,"utin":13106,"ĠMul":13107,"ĠMaking":13108,"ĠMuch":13109,"ĠMummy":13110,"ĠTorn":13111,"ĠTroll":13112,"Ġweary":13113,"outed":13114,"Ġasce":13115,"Ġastr":13116,"Ġuckles":13117,"ĠSP":13118,"ĠSame":13119,"ĠSitting":13120,"ĠSelw":13121,"ĠSigned":13122,"ĠSenior":13123,"Ġreun":13124,"Ġreced":13125,"Ġrevis":13126,"Ġrecept":13127,"Ġrevision":13128,"ĠDily":13129,"ĠDudders":13130,"alator":13131,"sel":13132,"still":13133,"stop":13134,"ĠRever":13135,"ĠRidge":13136,"riar":13137,"chn":13138,"Ġanived":13139,"Ġforces":13140,"Ġforcibly":13141,"Ġselection":13142,"Ġseething":13143,"umors":13144,"ĠPur":13145,"ĠPri":13146,"ĠPast":13147,"ĠThem":13148,"ĠAss":13149,"Ġshaft":13150,"ĠWister":13151,"ĠWHA":13152,"ĠWilly":13153,"ĠWalk":13154,"ĠWondering":13155,"Ġfraud":13156,"Ġfrayed":13157,"Ġups":13158,"Ġdogged":13159,"Ġouts":13160,"Ġoutsk":13161,"indle":13162,"anda":13163,"anders":13164,"ĠBR":13165,"ĠBarry":13166,"ĠBreak":13167,"ĠBott":13168,"ĠBeyond":13169,"Ġmelt":13170,"Ġknitted":13171,"ĠGirl":13172,"ĠGhoul":13173,"ĠGaunts":13174,"ĠGurdy":13175,"Ġrud":13176,"Ġrings":13177,"Ġraging":13178,"ĠCast":13179,"ĠCabin":13180,"ĠCertainly":13181,"ĠCauld":13182,"Ġfeature":13183,"Ġbutter":13184,"ĠFra":13185,"ĠFord":13186,"ĠFockhart":13187,"ĠFlying":13188,"ĠFriar":13189,"Ġjing":13190,"Ġjabbing":13191,"Ġjowls":13192,"Ġgolf":13193,"cker":13194,"astrous":13195,"Ġwheeling":13196,"lohomora":13197,"ortality":13198,"ĠLess":13199,"ĠLie":13200,"ĠLock":13201,"ĠLIKE":13202,"Ġvent":13203,"Ġviv":13204,"udent":13205,"udents":13206,"Ġisol":13207,"Ġabashed":13208,"Ġabuse":13209,"Ġabnorm":13210,"Ġlev":13211,"Ġlevels":13212,"Ġleisure":13213,"ours":13214,"ists":13215,"istically":13216,"Ġrog":13217,"oused":13218,"ongratul":13219,"Ġdeleg":13220,"ffit":13221,"Ġoverst":13222,"Ġoverfl":13223,"Ġoverturned":13224,"ssing":13225,"Ġsund":13226,"Ġsull":13227,"epaper":13228,"Ġoffensive":13229,"ĠNose":13230,"ĠNove":13231,"Ġchip":13232,"Ġchops":13233,"Ġspan":13234,"Ġspindle":13235,"Ġconver":13236,"ickle":13237,"Ġunse":13238,"Ġunimp":13239,"Ġunbelievable":13240,"Ġungrate":13241,"Ġhandling":13242,"Ġscary":13243,"Ġscooping":13244,"Ġblamed":13245,"ĠVow":13246,"ĠVect":13247,"ĠVance":13248,"ĠVampire":13249,"Ġplastic":13250,"Ġplaque":13251,"Ġcling":13252,"Ġclunk":13253,"ĠHagrids":13254,"upiter":13255,"Ġslice":13256,"Ġslaught":13257,"Ġheadlong":13258,"Ġmopped":13259,"Ġmoons":13260,"Ġmossy":13261,"ĠElf":13262,"ĠEyes":13263,"Ġtweed":13264,"Ġtwiddling":13265,"Ġdoorways":13266,"Ġtrot":13267,"Ġtricked":13268,"Ġtrash":13269,"Ġglimps":13270,"inners":13271,"Ġgrumbling":13272,"irement":13273,"Ġswish":13274,"Ġswerve":13275,"Ġflap":13276,"Ġflinging":13277,"Ġflurry":13278,"others":13279,"ĠPotty":13280,"Ġmanic":13281,"ability":13282,"Ġoperation":13283,"Ġopaque":13284,"ĠKiss":13285,"Ġprecar":13286,"Ġprejud":13287,"Ġdislod":13288,"Ġdisastrous":13289,"Ġhappiest":13290,"Ġbehaving":13291,"Ġbehaved":13292,"Ġapply":13293,"Ġappraising":13294,"Ġleth":13295,"ĠPotterwatch":13296,"text":13297,"Ġlitter":13298,"Ġbramb":13299,"Ġbracket":13300,"ĠDead":13301,"Ġlasting":13302,"Ġproport":13303,"Ġpropelled":13304,"Ġshouldered":13305,"fulness":13306,"uggling":13307,"Ġpraying":13308,"Ġprudent":13309,"uckily":13310,"Ġhoot":13311,"Ġfloat":13312,"Ġflopped":13313,"Ġsnog":13314,"Ġsnuff":13315,"Ġsnogging":13316,"Ġwalnut":13317,"Ġneedn":13318,"Ġneedle":13319,"Ġstrayed":13320,"ĠChief":13321,"Ġdrooped":13322,"Ġdroop":13323,"Ġdrunken":13324,"Ġcheap":13325,"Ġmusty":13326,"Ġcriss":13327,"Ġcrunch":13328,"plussed":13329,"Ġentry":13330,"Ġdaybreak":13331,"Ġwrath":13332,"Ġcurt":13333,"Ġcurls":13334,"Ġnightfall":13335,"Ġnightshirt":13336,"Ġnightdress":13337,"Ġsideboard":13338,"weled":13339,"Ġnewcom":13340,"Ġraven":13341,"Ġwhiskers":13342,"ĠJoke":13343,"Ġhelps":13344,"Ġhelpings":13345,"Ġfinest":13346,"Ġrealization":13347,"Ġskipped":13348,"Ġskilled":13349,"Ġskinned":13350,"Ġskirt":13351,"Ġairborn":13352,"ĠUnlike":13353,"Ġmates":13354,"Ġmatched":13355,"ava":13356,"Ġwaitress":13357,"Ġfollows":13358,"tenn":13359,"Ġquieter":13360,"ibilities":13361,"ĠPercival":13362,"Ġmutil":13363,"proof":13364,"Ġresisted":13365,"Ġresulted":13366,"Ġpasty":13367,"Ġboil":13368,"Ġgreedy":13369,"Ġtresp":13370,"Ġinstructed":13371,"ĠArnold":13372,"Ġscarcely":13373,"Ġcarol":13374,"Ġrecounted":13375,"ĠGran":13376,"ĠBlacks":13377,"heads":13378,"Ġforeann":13379,"Ġforebod":13380,"Ġhorrific":13381,"Ġcommit":13382,"rawl":13383,"Ġexpressed":13384,"ĠSeer":13385,"ĠSelf":13386,"Ġcoin":13387,"Ġcoach":13388,"Ġcoiled":13389,"Ġmemos":13390,"Ġfootprints":13391,"Ġgirlish":13392,"Ġfourteenth":13393,"ciber":13394,"Ġparked":13395,"Ġmothers":13396,"irds":13397,"Ġstraighten":13398,"Ġriff":13399,"Ġhopelessness":13400,"Ġactual":13401,"Ġdefiant":13402,"Ġstays":13403,"Ġsorting":13404,"Ġcloaked":13405,"Ġextracting":13406,"Ġdiagr":13407,"Ġbury":13408,"Ġbubot":13409,"Ġbubbling":13410,"Ġrelative":13411,"readful":13412,"Ġbaggy":13413,"spons":13414,"Ġceased":13415,"Ġserving":13416,"Ġdesktop":13417,"Ġflecks":13418,"Ġpatrolling":13419,"ĠBeiby":13420,"Ġmistreat":13421,"Ġmistaking":13422,"Ġinserted":13423,"Ġinsulting":13424,"Ġlayer":13425,"Ġspeaks":13426,"Ġmayhem":13427,"Ġsubm":13428,"Ġbursts":13429,"Ġrepress":13430,"brown":13431,"Ġdeathday":13432,"Ġstaircases":13433,"Ġsoften":13434,"Ġchestnut":13435,"ountered":13436,"ĠReasonable":13437,"rence":13438,"Ġstupidity":13439,"Ġcolleague":13440,"Ġescalator":13441,"Ġtonic":13442,"Ġapology":13443,"Ġbargain":13444,"ĠProphecy":13445,"Ġremembers":13446,"Ġcutlery":13447,"Ġrecognizable":13448,"Ġthrobbed":13449,"Ġbatlike":13450,"inkyp":13451,"Ġconsumed":13452,"Ġdiscour":13453,"immer":13454,"Ġinforming":13455,"Ġtorre":13456,"Ġgrizzled":13457,"Ġadmired":13458,"Ġadmitting":13459,"Ġobjection":13460,"Ġhungrily":13461,"Ġpositions":13462,"Ġthroats":13463,"ĠFrisbe":13464,"Ġfields":13465,"Ġplanet":13466,"ĠSkele":13467,"bloods":13468,"Ġferre":13469,"Ġchildish":13470,"Ġnicely":13471,"Ġhugely":13472,"Ġproperty":13473,"Ġdestroying":13474,"Ġpolit":13475,"Ġpanicking":13476,"Ġlisteners":13477,"Ġfainted":13478,"Ġbounding":13479,"Ġboundary":13480,"Ġpossessor":13481,"Ġspiraling":13482,"Ġhesitation":13483,"Ġeyeball":13484,"Ġdoubtfully":13485,"Ġbleed":13486,"Ġbleak":13487,"Ġreminds":13488,"Ġreminder":13489,"LED":13490,"LES":13491,"Ġjeers":13492,"Ġencirc":13493,"Ġencountered":13494,"Ġphotographer":13495,"ĠBurbage":13496,"Ġearthy":13497,"Ġrocks":13498,"Ġseventy":13499,"ĠLeague":13500,"Ġsyc":13501,"Ġembrace":13502,"Ġcandy":13503,"Ġcandid":13504,"wizards":13505,"Ġfools":13506,"Ġimmortality":13507,"ORD":13508,"ORT":13509,"Ġdreaded":13510,"Ġbusinesslike":13511,"Ġinjust":13512,"Ġmoonstone":13513,"ĠSpellot":13514,"Ġdraft":13515,"Ġdraught":13516,"Ġundet":13517,"Ġirritating":13518,"Ġgraffit":13519,"Ġclothing":13520,"Ġcourte":13521,"Ġdelayed":13522,"Ġcompartments":13523,"ĠSmall":13524,"Ġbitterness":13525,"Ġwhistled":13526,"ĠKeeping":13527,"Ġrevolved":13528,"Ġrevulsion":13529,"OOL":13530,"Ġalarming":13531,"Ġfoam":13532,"Ġwrapping":13533,"Ġunfamiliar":13534,"Ġpersuading":13535,"Ġsticks":13536,"Ġservices":13537,"Ġservants":13538,"Ġvaulted":13539,"Ġexchanging":13540,"Ġplainer":13541,"Ġcasc":13542,"Ġsadness":13543,"zzer":13544,"Somebody":13545,"Somewhere":13546,"aunting":13547,"Ġlimply":13548,"ĠConj":13549,"Ġunwilling":13550,"ajor":13551,"ĠMurtlap":13552,"ĠBrut":13553,"Ġdespised":13554,"Ġsloped":13555,"Ġslopping":13556,"Ġdistinctive":13557,"Ġthunderous":13558,"Ġconstricted":13559,"ENTS":13560,"Ġshifty":13561,"doing":13562,"Ġdelivery":13563,"Perfect":13564,"ĠAdmitted":13565,"Ġchuckle":13566,"Ġerupt":13567,"Ġambitious":13568,"Ġtotally":13569,"Ġrisked":13570,"Ġincrease":13571,"knitted":13572,"Ġcaptioned":13573,"Ġpredicting":13574,"ĠSpinner":13575,"Ġexhilar":13576,"posts":13577,"Ġcousins":13578,"ĠTWEL":13579,"Ġscrawny":13580,"Ġprisoner":13581,"Ġshapeless":13582,"Albus":13583,"Ġbandy":13584,"ascots":13585,"ĠUndersecret":13586,"ĠKnarl":13587,"Ġspeechless":13588,"Ġregretted":13589,"Ġbanished":13590,"Ġrespectable":13591,"Ġnonverbal":13592,"Ġnonplussed":13593,"ĠDecoy":13594,"Ġpasswords":13595,"Ġtransported":13596,"ĠTeddy":13597,"Ġaccusations":13598,"Ġarguments":13599,"Ġsuccessful":13600,"Ġwarlock":13601,"Ġstorming":13602,"Ġwithdrawn":13603,"Ġprickle":13604,"Ġinterviewed":13605,"imental":13606,"Ġimpressively":13607,"Ġwoe":13608,"Ġwobbled":13609,"Ġdenied":13610,"Ġpublicity":13611,"ĠBoys":13612,"Ġcompeting":13613,"Ġrevolting":13614,"ĠSTOP":13615,"Ġbraver":13616,"Ġdescribe":13617,"Ġrippled":13618,"Remus":13619,"Ġencouraged":13620,"Ġmedd":13621,"ĠCommon":13622,"Charlie":13623,"Ġlandscape":13624,"Ġlocate":13625,"Ġlocated":13626,"Ġharmless":13627,"Ġsilkily":13628,"Ġvacated":13629,"Ġobscure":13630,"Ġtroubling":13631,"Ġdazzled":13632,"HERMIONE":13633,"Ġturrets":13634,"Daddy":13635,"Ġetc":13636,"Ġvibrate":13637,"Ġreprovingly":13638,"Ooooo":13639,"crack":13640,"Ġstalking":13641,"Ġchimed":13642,"Ġunbal":13643,"Ġorganization":13644,"Ġdispir":13645,"few":13646,"feather":13647,"Ġpuncture":13648,"Ġremarks":13649,"Ġremarkable":13650,"Ġdisturbing":13651,"Ġcontemptuously":13652,"Ġunmistakably":13653,"Ġtelescopes":13654,"Ġnineteen":13655,"Ġfeverish":13656,"Ġsarcasm":13657,"Ġmorose":13658,"Ġrecovering":13659,"ĠAnimagi":13660,"Ġdevelop":13661,"Ġensured":13662,"Ġgovernment":13663,"Ġcombined":13664,"Ġbruise":13665,"Ġskills":13666,"Ġrestraining":13667,"Ġinterfering":13668,"Ġinterfere":13669,"Ġinterference":13670,"Ġsprouting":13671,"Ġteacups":13672,"Hasn":13673,"Ġroused":13674,"Ġcustomers":13675,"Ġyelping":13676,"Ġstifling":13677,"Ġfrequent":13678,"Ġapologies":13679,"Scabbers":13680,"Ġmournfully":13681,"ĠGoldstein":13682,"Ġexclaimed":13683,"Ġunrecogn":13684,"Ġteenagers":13685,"Ġprocession":13686,"Protego":13687,"Ġmaterialized":13688,"ĠDeton":13689,"Ġglistened":13690,"Ġinterrogated":13691,"Ġinvolve":13692,"Ġachievement":13693,"Petrificus":13694,"Ġcubicles":13695,"Ġreinst":13696,"Ġvomiting":13697,"Ġclasp":13698,"Ġimperiously":13699,"Ġregarding":13700,"Ġanticipated":13701,"Ġwhizzed":13702,"ĠRowling":13703,"ĠOtherwise":13704,"Ġhearthrug":13705,"Ġhysterically":13706,"eagled":13707,"pril":13708,"Ġbunches":13709,"Ġdumbstruck":13710,"Ġblundering":13711,"Ġreflecting":13712,"Loads":13713,"UDLEY":13714,"Ġnifflers":13715,"Ġonwards":13716,"Ġreliable":13717,"Ġvapour":13718,"Ġunnerving":13719,"ĠORDER":13720,"Ġintensity":13721,"Ġintensified":13722,"Ġintruder":13723,"Ġunnecessarily":13724,"Ġtackle":13725,"Ġsemidarkness":13726,"Ġblotch":13727,"Ġflattening":13728,"Ġimmobile":13729,"Ġcavernous":13730,"Ġprecautions":13731,"Conf":13732,"ĠSCORE":13733,"ĠSupport":13734,"Ġgossip":13735,"Ġscandalized":13736,"Ġrelentless":13737,"Ġaccomplished":13738,"Ġfavors":13739,"ĠCheering":13740,"Ġjogged":13741,"Ġinternational":13742,"Ġdiscovery":13743,"Ġhumiliation":13744,"Ġvolunteered":13745,"Ġassociated":13746,"Ġtrodden":13747,"ittany":13748,"Ġunscathed":13749,"Ġcanceled":13750,"Ġelaborate":13751,"Ġtarnished":13752,"Ġunblinkingly":13753,"Ġimpersonating":13754,"Ġdiamond":13755,"Ġintelligence":13756,"Ġmirthless":13757,"ĠVoldemorfs":13758,"Ġoverex":13759,"Ġscornfully":13760,"Ġplacidly":13761,"Ġdisdainful":13762,"Ġrailings":13763,"Ġribbon":13764,"Ġexaminer":13765,"Ġdevastated":13766,"Ġsubstitute":13767,"Ġinexplicable":13768,"Ġacknowled":13769,"Aaah":13770,"Ġslyly":13771,"ĠPulling":13772,"Ġruefully":13773,"Ġalmighty":13774,"ulsively":13775,"Ġscrabbling":13776,"Ġpretense":13777,"Ġimpassive":13778,"Ġadvertis":13779,"Ġevaporated":13780,"ography":13781,"everyone":13782,"Ġtawny":13783,"llabary":13784,"ombie":13785,"Ġwastepaper":13786,"ĠDerrick":13787,"Ġoutburst":13788,"ĠBrazil":13789,"Ġraucous":13790,"Ġspattergroit":13791,"Ġunceremoniously":13792,"ĠWeatherby":13793,"Ġschemes":13794,"uphoria":13795,"Ġbrusquely":13796,"clothes":13797,"ĠFlorean":13798,"ĠMINISTRY":13799,"Ġphysical":13800,"Diggory":13801,"wenog":13802,"erroff":13803,"Ġberserk":13804,"ĠHungarian":13805,"Ġdaggers":13806,"Ġthrilled":13807,"Ġpimples":13808,"Ġgaggle":13809,"Ġeardrums":13810,"ĠMulciber":13811,"ĠSelwyn":13812,"ĠDilys":13813,"ĠRidgeback":13814,"ĠWisteria":13815,"Ġoutskirts":13816,"ĠGurdyro":13817,"ĠCastle":13818,"ĠCauldrons":13819,"ongratulations":13820,"ĠNovember":13821,"Ġungrateful":13822,
[...]
